<unk>	0
<s>	0
</s>	0
▁t	-0
he	-1
▁a	-2
ou	-3
in	-4
▁w	-5
▁I	-6
re	-7
▁s	-8
▁T	-9
om	-10
is	-11
ha	-12
▁to	-13
on	-14
▁m	-15
▁d	-16
▁b	-17
ve	-18
▁y	-19
▁the	-20
▁c	-21
▁you	-22
▁f	-23
an	-24
ing	-25
▁l	-26
ed	-27
▁Tom	-28
it	-29
or	-30
ll	-31
er	-32
ar	-33
en	-34
▁p	-35
▁g	-36
▁ha	-37
as	-38
▁n	-39
▁h	-40
hat	-41
▁is	-42
▁o	-43
es	-44
ow	-45
at	-46
▁he	-47
▁W	-48
▁in	-49
ot	-50
et	-51
▁H	-52
ay	-53
▁th	-54
le	-55
▁The	-56
▁of	-57
id	-58
▁be	-59
ld	-60
▁an	-61
▁do	-62
▁e	-63
us	-64
ver	-65
▁M	-66
im	-67
ke	-68
▁me	-69
▁was	-70
oo	-71
▁He	-72
ic	-73
▁that	-74
▁on	-75
▁st	-76
▁S	-77
gh	-78
▁for	-79
▁li	-80
ant	-81
▁re	-82
▁k	-83
▁have	-84
▁it	-85
▁Y	-86
▁You	-87
ch	-88
▁we	-89
ary	-90
al	-91
▁want	-92
▁r	-93
ght	-94
st	-95
▁ne	-96
▁D	-97
ad	-98
ould	-99
out	-100
un	-101
▁my	-102
▁Mary	-103
▁go	-104
ome	-105
ent	-106
se	-107
▁kn	-108
her	-109
ith	-110
▁with	-111
ut	-112
very	-113
▁your	-114
▁not	-115
ly	-116
ill	-117
▁can	-118
▁don	-119
ri	-120
▁this	-121
▁She	-122
▁It	-123
▁at	-124
▁We	-125
▁know	-126
am	-127
▁are	-128
▁his	-129
ter	-130
ac	-131
ee	-132
▁did	-133
ir	-134
▁as	-135
all	-136
▁A	-137
ion	-138
▁and	-139
▁like	-140
hing	-141
ook	-142
one	-143
pp	-144
ur	-145
ain	-146
▁sh	-147
▁him	-148
▁ab	-149
ink	-150
ore	-151
ust	-152
op	-153
ight	-154
if	-155
ce	-156
▁C	-157
▁wor	-158
▁tr	-159
up	-160
ea	-161
ake	-162
▁What	-163
▁what	-164
▁j	-165
ro	-166
▁has	-167
end	-168
▁tim	-169
▁al	-170
▁Th	-171
▁Do	-172
▁her	-173
▁any	-174
ood	-175
▁us	-176
▁so	-177
▁think	-178
ho	-179
▁time	-180
han	-181
▁very	-182
▁pl	-183
▁This	-184
▁te	-185
ct	-186
il	-187
ren	-188
▁had	-189
day	-190
▁sp	-191
▁get	-192
ong	-193
▁will	-194
▁up	-195
▁see	-196
▁about	-197
▁They	-198
▁out	-199
ul	-200
ble	-201
▁didn	-202
▁does	-203
ast	-204
ive	-205
▁all	-206
▁here	-207
ge	-208
ost	-209
rom	-210
▁un	-211
ind	-212
▁su	-213
and	-214
▁sa	-215
▁whe	-216
ame	-217
ry	-218
red	-219
oun	-220
ase	-221
▁ex	-222
ice	-223
ear	-224
ist	-225
▁need	-226
est	-227
hy	-228
▁no	-229
▁from	-230
art	-231
▁L	-232
alk	-233
▁de	-234
▁P	-235
▁too	-236
▁My	-237
▁going	-238
▁one	-239
▁com	-240
ally	-241
our	-242
▁That	-243
▁look	-244
▁E	-245
der	-246
▁were	-247
▁happ	-248
▁man	-249
lp	-250
ought	-251
ack	-252
▁good	-253
ie	-254
ays	-255
▁doesn	-256
▁work	-257
▁F	-258
ate	-259
ak	-260
qu	-261
▁by	-262
▁B	-263
ove	-264
▁se	-265
▁help	-266
ers	-267
▁There	-268
▁there	-269
ap	-270
thing	-271
ol	-272
ess	-273
▁car	-274
▁every	-275
▁would	-276
other	-277
lease	-278
▁How	-279
ish	-280
▁Whe	-281
dy	-282
▁should	-283
▁Don	-284
▁than	-285
hi	-286
▁could	-287
▁ag	-288
ig	-289
▁con	-290
ree	-291
ave	-292
omet	-293
▁but	-294
▁some	-295
▁been	-296
os	-297
▁cl	-298
▁N	-299
lf	-300
▁v	-301
▁eat	-302
res	-303
▁she	-304
▁ar	-305
ort	-306
▁more	-307
ation	-308
ck	-309
▁am	-310
▁home	-311
▁come	-312
▁just	-313
riend	-314
▁int	-315
▁book	-316
row	-317
▁ask	-318
▁got	-319
ather	-320
ous	-321
ite	-322
▁J	-323
▁pro	-324
▁co	-325
▁never	-326
▁somet	-327
ep	-328
fe	-329
▁talk	-330
▁now	-331
um	-332
▁mu	-333
ound	-334
▁ro	-335
▁when	-336
▁much	-337
▁Why	-338
▁qu	-339
▁Can	-340
ine	-341
ning	-342
▁le	-343
▁af	-344
▁tell	-345
ass	-346
oney	-347
▁last	-348
▁who	-349
ob	-350
▁if	-351
▁pe	-352
ard	-353
eak	-354
▁something	-355
▁wr	-356
▁stu	-357
▁off	-358
itt	-359
▁day	-360
▁play	-361
▁bu	-362
ople	-363
▁love	-364
ng	-365
▁money	-366
ool	-367
▁ca	-368
▁read	-369
oy	-370
etter	-371
▁won	-372
▁back	-373
▁how	-374
▁or	-375
▁friend	-376
▁new	-377
▁sm	-378
▁br	-379
▁long	-380
▁tw	-381
ick	-382
▁Is	-383
▁year	-384
▁happen	-385
▁live	-386
▁en	-387
▁Let	-388
▁wat	-389
ried	-390
▁speak	-391
▁Please	-392
ide	-393
▁G	-394
▁dr	-395
▁say	-396
ouse	-397
▁fe	-398
▁Are	-399
▁take	-400
▁said	-401
ag	-402
▁people	-403
▁really	-404
▁lot	-405
th	-406
hed	-407
▁told	-408
self	-409
▁bus	-410
cc	-411
▁old	-412
▁exp	-413
ody	-414
▁ad	-415
▁mad	-416
▁house	-417
▁O	-418
▁under	-419
▁thought	-420
▁went	-421
ven	-422
ther	-423
▁anything	-424
▁comp	-425
▁ke	-426
▁must	-427
em	-428
hild	-429
ving	-430
ang	-431
ough	-432
▁isn	-433
rench	-434
▁French	-435
urn	-436
▁room	-437
▁Who	-438
chool	-439
pt	-440
orrow	-441
▁again	-442
ait	-443
ways	-444
▁right	-445
▁make	-446
▁always	-447
age	-448
▁pr	-449
ure	-450
▁made	-451
▁today	-452
ect	-453
▁only	-454
▁child	-455
eel	-456
▁school	-457
▁dog	-458
ft	-459
ose	-460
▁thing	-461
▁im	-462
ue	-463
ber	-464
▁bel	-465
▁Where	-466
▁lea	-467
▁If	-468
ace	-469
▁call	-470
▁still	-471
▁fl	-472
own	-473
▁over	-474
▁three	-475
▁our	-476
▁rem	-477
▁pre	-478
▁feel	-479
▁after	-480
▁two	-481
▁many	-482
▁night	-483
▁wanted	-484
▁bl	-485
▁father	-486
able	-487
▁stay	-488
ity	-489
▁wait	-490
ra	-491
▁Did	-492
▁fa	-493
▁bec	-494
▁well	-495
ts	-496
▁tom	-497
▁other	-498
oston	-499
▁Boston	-500
▁When	-501
fore	-502
▁aw	-503
ff	-504
▁har	-505
▁give	-506
▁asked	-507
▁they	-508
▁left	-509
ittle	-510
nd	-511
▁before	-512
▁tomorrow	-513
ell	-514
▁little	-515
▁down	-516
use	-517
▁them	-518
ty	-519
ieve	-520
ress	-521
iss	-522
ies	-523
▁job	-524
▁way	-525
ount	-526
▁sw	-527
▁buy	-528
get	-529
ach	-530
ester	-531
▁underst	-532
▁dis	-533
blem	-534
▁better	-535
leep	-536
▁problem	-537
ark	-538
▁leave	-539
rive	-540
▁di	-541
reat	-542
▁app	-543
▁where	-544
▁plan	-545
▁part	-546
ek	-547
▁into	-548
▁saw	-549
▁seem	-550
iz	-551
▁chan	-552
esterday	-553
irst	-554
▁gu	-555
ict	-556
▁op	-557
▁believe	-558
wn	-559
xt	-560
▁came	-561
read	-562
body	-563
▁care	-564
▁boy	-565
▁fin	-566
▁week	-567
▁years	-568
ab	-569
▁put	-570
▁hand	-571
▁Every	-572
▁understand	-573
▁gr	-574
▁find	-575
▁rain	-576
ise	-577
▁try	-578
ful	-579
▁dif	-580
mer	-581
▁gir	-582
▁yesterday	-583
▁acc	-584
▁happy	-585
▁wants	-586
ich	-587
▁pa	-588
ew	-589
ock	-590
act	-591
ope	-592
▁sc	-593
▁imp	-594
▁cat	-595
ting	-596
▁Have	-597
▁first	-598
ok	-599
▁mar	-600
ian	-601
▁took	-602
ult	-603
▁dec	-604
▁start	-605
▁nothing	-606
▁hard	-607
▁couldn	-608
▁mother	-609
▁friends	-610
▁doing	-611
el	-612
▁meet	-613
▁ear	-614
ence	-615
ired	-616
▁mor	-617
▁walk	-618
ngl	-619
▁door	-620
akes	-621
▁next	-622
▁la	-623
▁Engl	-624
▁mo	-625
te	-626
rest	-627
▁everything	-628
ten	-629
▁sleep	-630
▁morning	-631
▁lear	-632
▁soon	-633
apan	-634
▁late	-635
▁Japan	-636
▁please	-637
▁let	-638
▁lost	-639
ated	-640
▁sure	-641
▁drink	-642
▁bought	-643
▁ten	-644
▁St	-645
▁used	-646
▁fam	-647
▁away	-648
▁children	-649
▁gave	-650
▁His	-651
▁lik	-652
▁happened	-653
estion	-654
▁stud	-655
▁gl	-656
▁life	-657
ire	-658
▁pers	-659
▁English	-660
▁teac	-661
▁bed	-662
▁beg	-663
▁pol	-664
▁remem	-665
ised	-666
▁why	-667
▁study	-668
▁watch	-669
ted	-670
ident	-671
▁str	-672
▁ever	-673
ught	-674
ily	-675
▁wasn	-676
aut	-677
ready	-678
▁open	-679
▁already	-680
ance	-681
▁their	-682
▁show	-683
▁question	-684
sw	-685
ife	-686
ious	-687
▁bad	-688
hes	-689
ment	-690
▁mat	-691
▁att	-692
▁hur	-693
▁name	-694
▁brother	-695
ory	-696
▁hour	-697
gry	-698
▁res	-699
▁turn	-700
▁teacher	-701
▁hear	-702
▁answ	-703
▁remember	-704
▁done	-705
▁beaut	-706
▁big	-707
▁learn	-708
▁enough	-709
og	-710
▁id	-711
▁alone	-712
▁wrong	-713
ign	-714
ream	-715
▁use	-716
hone	-717
▁girl	-718
oss	-719
▁may	-720
▁sur	-721
▁water	-722
▁young	-723
▁person	-724
▁Ch	-725
▁found	-726
▁heard	-727
ited	-728
▁busy	-729
vor	-730
▁keep	-731
ause	-732
▁cle	-733
▁looking	-734
iful	-735
▁No	-736
▁adv	-737
▁best	-738
▁often	-739
▁beautiful	-740
▁po	-741
▁married	-742
▁che	-743
▁cold	-744
▁knows	-745
▁min	-746
hn	-747
▁count	-748
▁Jo	-749
▁list	-750
▁kind	-751
▁train	-752
▁John	-753
▁able	-754
▁same	-755
reak	-756
ister	-757
are	-758
▁stop	-759
▁looks	-760
▁party	-761
ull	-762
▁food	-763
▁Would	-764
▁eas	-765
▁des	-766
▁met	-767
▁hope	-768
▁Some	-769
▁hot	-770
ished	-771
ctor	-772
▁sho	-773
ually	-774
▁things	-775
▁without	-776
▁sn	-777
ered	-778
▁likes	-779
▁run	-780
▁hun	-781
▁knew	-782
▁sing	-783
pped	-784
▁Your	-785
▁swim	-786
▁seen	-787
▁student	-788
▁May	-789
▁letter	-790
ars	-791
▁fo	-792
ffee	-793
▁idea	-794
gg	-795
any	-796
ible	-797
▁vis	-798
les	-799
erest	-800
▁mist	-801
▁because	-802
ond	-803
▁bo	-804
▁wh	-805
▁yet	-806
▁coffee	-807
ner	-808
▁fun	-809
▁R	-810
oth	-811
▁even	-812
▁bro	-813
▁pay	-814
▁break	-815
ese	-816
▁mon	-817
▁miss	-818
▁wish	-819
▁pain	-820
▁cha	-821
aking	-822
▁cont	-823
▁kill	-824
▁tired	-825
▁1	-826
ans	-827
▁sister	-828
▁interest	-829
fic	-830
ince	-831
▁around	-832
▁being	-833
hile	-834
▁pret	-835
▁wind	-836
▁answer	-837
ia	-838
ath	-839
uth	-840
▁minut	-841
▁true	-842
igh	-843
oke	-844
lain	-845
▁own	-846
▁arrive	-847
ank	-848
▁favor	-849
ix	-850
most	-851
ail	-852
cle	-853
ork	-854
▁All	-855
▁Mon	-856
▁wom	-857
▁sha	-858
ip	-859
▁police	-860
▁word	-861
▁books	-862
▁doctor	-863
ater	-864
rents	-865
▁pass	-866
▁rest	-867
▁great	-868
▁while	-869
▁K	-870
▁el	-871
unch	-872
▁mind	-873
▁diffic	-874
▁bir	-875
ert	-876
▁mov	-877
▁Monday	-878
ud	-879
ied	-880
▁days	-881
▁these	-882
▁listen	-883
▁sec	-884
pr	-885
▁war	-886
▁died	-887
▁month	-888
▁talking	-889
▁sk	-890
▁cook	-891
▁class	-892
▁parents	-893
▁almost	-894
▁2	-895
▁forg	-896
▁seems	-897
▁another	-898
▁sl	-899
▁tried	-900
▁ey	-901
orm	-902
▁getting	-903
▁early	-904
▁place	-905
▁world	-906
▁family	-907
raid	-908
▁looked	-909
uck	-910
▁rep	-911
▁unt	-912
night	-913
▁pict	-914
▁haven	-915
▁afraid	-916
side	-917
ided	-918
▁few	-919
▁far	-920
▁lunch	-921
▁truth	-922
inner	-923
▁else	-924
lve	-925
ons	-926
▁cr	-927
ens	-928
▁anyone	-929
▁ac	-930
eep	-931
▁accident	-932
gether	-933
ci	-934
▁matter	-935
▁pres	-936
▁difficult	-937
▁per	-938
▁each	-939
no	-940
▁In	-941
▁fr	-942
iver	-943
▁win	-944
▁together	-945
▁wife	-946
▁em	-947
ged	-948
▁until	-949
▁window	-950
▁"	-951
▁As	-952
▁rec	-953
▁import	-954
ret	-955
▁inv	-956
▁key	-957
▁wouldn	-958
angu	-959
anger	-960
▁angry	-961
▁drive	-962
▁might	-963
usic	-964
▁mine	-965
▁meeting	-966
▁Tell	-967
▁once	-968
▁wonder	-969
lic	-970
▁sit	-971
▁yourself	-972
▁ago	-973
▁langu	-974
▁himself	-975
led	-976
▁end	-977
▁real	-978
ced	-979
feren	-980
▁easy	-981
▁hours	-982
▁coming	-983
▁expect	-984
be	-985
aught	-986
▁fire	-987
▁dream	-988
orry	-989
▁music	-990
▁act	-991
ug	-992
▁son	-993
▁phone	-994
▁surpr	-995
▁ch	-996
cept	-997
▁table	-998
▁playing	-999
▁news	-1000
▁Could	-1001
▁dinner	-1002
meric	-1003
▁Come	-1004
ize	-1005
▁wear	-1006
▁Americ	-1007
▁prom	-1008
▁country	-1009
▁favorite	-1010
used	-1011
▁cho	-1012
▁says	-1013
▁tea	-1014
ouble	-1015
▁waiting	-1016
30	-1017
ever	-1018
▁hurt	-1019
▁ate	-1020
▁On	-1021
▁reading	-1022
work	-1023
▁tall	-1024
old	-1025
▁aren	-1026
man	-1027
▁air	-1028
▁bab	-1029
▁Does	-1030
▁ready	-1031
▁small	-1032
▁finished	-1033
lt	-1034
ved	-1035
▁trying	-1036
orn	-1037
ating	-1038
▁snow	-1039
▁eating	-1040
▁hate	-1041
ild	-1042
ision	-1043
▁park	-1044
▁light	-1045
▁spend	-1046
▁Nob	-1047
▁ran	-1048
▁glass	-1049
▁visit	-1050
▁stand	-1051
▁tonight	-1052
more	-1053
▁Our	-1054
▁sat	-1055
▁started	-1056
▁nice	-1057
▁tele	-1058
▁anymore	-1059
▁decided	-1060
▁differen	-1061
ub	-1062
▁lives	-1063
▁Nobody	-1064
▁Everyone	-1065
osed	-1066
▁woman	-1067
▁myself	-1068
aper	-1069
▁such	-1070
▁called	-1071
▁pretty	-1072
▁rel	-1073
▁supp	-1074
▁shouldn	-1075
ors	-1076
▁Her	-1077
▁ent	-1078
ition	-1079
▁most	-1080
▁minutes	-1081
▁To	-1082
ient	-1083
rist	-1084
▁cry	-1085
▁dri	-1086
▁fore	-1087
▁song	-1088
ossible	-1089
▁trouble	-1090
▁usually	-1091
▁important	-1092
we	-1093
▁ref	-1094
▁Will	-1095
oud	-1096
ral	-1097
▁change	-1098
▁office	-1099
oking	-1100
▁needs	-1101
als	-1102
▁lar	-1103
joy	-1104
▁ser	-1105
▁disc	-1106
▁fast	-1107
▁felt	-1108
▁story	-1109
▁danger	-1110
▁Go	-1111
▁arrived	-1112
▁someone	-1113
▁five	-1114
▁sick	-1115
▁bit	-1116
▁hair	-1117
▁Christ	-1118
▁forgot	-1119
▁station	-1120
▁mil	-1121
▁shoes	-1122
ax	-1123
▁Wh	-1124
▁cam	-1125
▁Give	-1126
▁eyes	-1127
▁times	-1128
▁trust	-1129
▁students	-1130
▁working	-1131
▁ap	-1132
▁doll	-1133
oin	-1134
umb	-1135
ason	-1136
hank	-1137
▁Aust	-1138
▁mean	-1139
oup	-1140
▁Be	-1141
ball	-1142
here	-1143
ital	-1144
▁ret	-1145
▁sorry	-1146
▁having	-1147
▁sto	-1148
▁clean	-1149
▁forget	-1150
▁begin	-1151
▁dress	-1152
reet	-1153
▁bet	-1154
▁near	-1155
▁since	-1156
▁Austral	-1157
▁homework	-1158
▁red	-1159
▁sun	-1160
▁conc	-1161
▁Thank	-1162
."	-1163
med	-1164
▁baby	-1165
nis	-1166
llow	-1167
▁flow	-1168
▁Which	-1169
ote	-1170
▁both	-1171
▁goes	-1172
▁head	-1173
▁sound	-1174
▁Take	-1175
▁enjoy	-1176
▁those	-1177
ely	-1178
ates	-1179
▁comm	-1180
▁free	-1181
ention	-1182
▁These	-1183
▁write	-1184
▁tennis	-1185
▁Australia	-1186
pl	-1187
fast	-1188
▁town	-1189
ss	-1190
▁Canad	-1191
▁law	-1192
▁movie	-1193
▁afterno	-1194
▁picture	-1195
ared	-1196
▁city	-1197
▁gone	-1198
▁broke	-1199
▁mom	-1200
▁hands	-1201
▁afternoon	-1202
upid	-1203
▁kid	-1204
▁pen	-1205
▁stupid	-1206
▁mistake	-1207
▁Japanese	-1208
ash	-1209
mas	-1210
▁cut	-1211
▁Christmas	-1212
▁breakfast	-1213
ger	-1214
▁reg	-1215
▁thr	-1216
▁short	-1217
ier	-1218
▁ele	-1219
▁hat	-1220
▁present	-1221
unk	-1222
▁game	-1223
▁kiss	-1224
fect	-1225
▁move	-1226
ny	-1227
icy	-1228
ord	-1229
ense	-1230
▁pat	-1231
iness	-1232
olog	-1233
▁high	-1234
br	-1235
▁men	-1236
▁tri	-1237
▁grand	-1238
▁quite	-1239
▁guy	-1240
▁sent	-1241
cl	-1242
ical	-1243
▁sum	-1244
▁wall	-1245
rew	-1246
▁caught	-1247
▁longer	-1248
▁interesting	-1249
let	-1250
less	-1251
ross	-1252
irt	-1253
▁six	-1254
▁fell	-1255
▁against	-1256
ange	-1257
iled	-1258
▁box	-1259
▁full	-1260
▁trave	-1261
00	-1262
irty	-1263
▁Get	-1264
▁cake	-1265
▁advice	-1266
▁comput	-1267
▁feeling	-1268
zy	-1269
osp	-1270
▁along	-1271
▁makes	-1272
▁ter	-1273
▁rich	-1274
▁then	-1275
era	-1276
vel	-1277
ched	-1278
▁explain	-1279
imes	-1280
ject	-1281
▁dark	-1282
▁turned	-1283
ions	-1284
▁milk	-1285
▁language	-1286
▁thinking	-1287
ime	-1288
ward	-1289
umber	-1290
▁coll	-1291
▁face	-1292
ized	-1293
where	-1294
▁older	-1295
▁through	-1296
▁add	-1297
▁birth	-1298
▁everyone	-1299
▁Sun	-1300
▁sal	-1301
▁conf	-1302
▁pick	-1303
ither	-1304
▁kept	-1305
▁began	-1306
▁build	-1307
▁later	-1308
▁river	-1309
ile	-1310
▁cons	-1311
▁daught	-1312
air	-1313
ces	-1314
ouch	-1315
room	-1316
▁Just	-1317
▁comes	-1318
▁Sunday	-1319
▁weather	-1320
▁heal	-1321
▁hosp	-1322
▁secret	-1323
▁ass	-1324
▁fish	-1325
▁resp	-1326
▁close	-1327
▁finish	-1328
aw	-1329
du	-1330
bed	-1331
fort	-1332
▁reason	-1333
▁street	-1334
▁studying	-1335
ness	-1336
▁Not	-1337
▁hasn	-1338
▁lived	-1339
▁number	-1340
▁return	-1341
▁summer	-1342
▁questions	-1343
ying	-1344
ately	-1345
▁large	-1346
▁luck	-1347
▁tree	-1348
▁Keep	-1349
▁exam	-1350
▁loves	-1351
▁chance	-1352
▁follow	-1353
▁killed	-1354
▁hospital	-1355
▁hotel	-1356
▁accept	-1357
▁camera	-1358
▁moment	-1359
▁Canadian	-1360
rect	-1361
▁hungry	-1362
▁living	-1363
▁watching	-1364
30.	-1365
▁abs	-1366
▁arm	-1367
▁hid	-1368
▁writ	-1369
▁agree	-1370
▁strong	-1371
▁dep	-1372
▁med	-1373
ience	-1374
▁clot	-1375
▁stopped	-1376
▁age	-1377
▁exc	-1378
▁cost	-1379
▁dead	-1380
▁death	-1381
▁careful	-1382
▁pie	-1383
▁Many	-1384
▁Stop	-1385
▁daughter	-1386
ott	-1387
port	-1388
ended	-1389
▁glad	-1390
▁company	-1391
▁computer	-1392
ming	-1393
▁hit	-1394
▁taking	-1395
▁making	-1396
▁Everybody	-1397
app	-1398
itc	-1399
ages	-1400
▁quick	-1401
▁surprised	-1402
not	-1403
▁black	-1404
▁inter	-1405
oned	-1406
▁wine	-1407
icycle	-1408
▁thinks	-1409
uss	-1410
▁adm	-1411
▁ins	-1412
▁store	-1413
ds	-1414
▁bag	-1415
▁cup	-1416
▁die	-1417
▁born	-1418
▁gets	-1419
▁order	-1420
az	-1421
lves	-1422
▁char	-1423
▁worry	-1424
▁became	-1425
▁dollars	-1426
▁smoking	-1427
▁flo	-1428
ative	-1429
dered	-1430
▁Look	-1431
▁bank	-1432
▁works	-1433
▁expens	-1434
▁birthday	-1435
yp	-1436
den	-1437
iction	-1438
selves	-1439
▁saying	-1440
▁clothes	-1441
▁complet	-1442
fer	-1443
▁fight	-1444
▁rather	-1445
io	-1446
▁cannot	-1447
▁travel	-1448
▁bicycle	-1449
▁building	-1450
▁different	-1451
ont	-1452
▁drunk	-1453
▁spent	-1454
▁white	-1455
▁complain	-1456
▁ob	-1457
▁cra	-1458
▁dist	-1459
ountain	-1460
▁flowers	-1461
hind	-1462
▁inc	-1463
▁behind	-1464
▁serious	-1465
▁One	-1466
▁pian	-1467
▁outside	-1468
▁whether	-1469
ned	-1470
oub	-1471
ring	-1472
▁Chin	-1473
▁tick	-1474
lfriend	-1475
ike	-1476
▁Fr	-1477
band	-1478
ison	-1479
▁mess	-1480
▁seat	-1481
▁solve	-1482
mp	-1483
ween	-1484
▁set	-1485
▁exact	-1486
▁become	-1487
▁others	-1488
▁America	-1489
▁girlfriend	-1490
▁wrote	-1491
▁helped	-1492
▁es	-1493
▁cor	-1494
▁anim	-1495
usband	-1496
▁wearing	-1497
▁possible	-1498
▁ill	-1499
▁leg	-1500
▁touch	-1501
▁anybody	-1502
▁between	-1503
eal	-1504
ump	-1505
▁Now	-1506
▁lie	-1507
ocked	-1508
▁lose	-1509
▁heart	-1510
▁changed	-1511
▁husband	-1512
▁expensive	-1513
aur	-1514
▁Sh	-1515
ures	-1516
▁cap	-1517
▁egg	-1518
▁swe	-1519
▁plane	-1520
▁thank	-1521
▁needed	-1522
▁stayed	-1523
▁mountain	-1524
ably	-1525
▁less	-1526
▁safe	-1527
▁yours	-1528
▁bath	-1529
▁foot	-1530
▁poin	-1531
▁bring	-1532
▁problems	-1533
▁At	-1534
▁ice	-1535
phone	-1536
▁beer	-1537
▁dogs	-1538
▁sell	-1539
▁team	-1540
itting	-1541
▁eaten	-1542
▁terri	-1543
aff	-1544
cess	-1545
ured	-1546
▁pop	-1547
▁Somet	-1548
▁proud	-1549
▁takes	-1550
▁strange	-1551
▁business	-1552
ual	-1553
▁Sp	-1554
▁ph	-1555
leas	-1556
▁Put	-1557
▁inf	-1558
ccess	-1559
clock	-1560
▁paid	-1561
▁catch	-1562
▁clear	-1563
▁noise	-1564
▁apolog	-1565
aken	-1566
▁trip	-1567
▁piano	-1568
ric	-1569
ular	-1570
▁its	-1571
▁base	-1572
iet	-1573
▁hor	-1574
▁floor	-1575
▁diction	-1576
▁glasses	-1577
▁clim	-1578
aurant	-1579
▁uncle	-1580
▁which	-1581
▁whole	-1582
▁Someone	-1583
▁restaurant	-1584
av	-1585
ored	-1586
arden	-1587
▁conv	-1588
▁cour	-1589
▁sold	-1590
▁crazy	-1591
▁seven	-1592
▁garden	-1593
▁weight	-1594
▁advised	-1595
▁exactly	-1596
▁Af	-1597
▁typ	-1598
▁vac	-1599
uring	-1600
▁doub	-1601
▁fall	-1602
▁guit	-1603
▁ship	-1604
ishing	-1605
▁hurry	-1606
▁paper	-1607
▁played	-1608
▁worked	-1609
▁quickly	-1610
▁raining	-1611
▁dangerous	-1612
arth	-1613
aster	-1614
▁least	-1615
▁famous	-1616
▁patient	-1617
▁decision	-1618
▁vo	-1619
ract	-1620
▁mem	-1621
▁sub	-1622
▁prob	-1623
▁guess	-1624
▁trans	-1625
▁running	-1626
ken	-1627
▁bott	-1628
▁libr	-1629
▁loved	-1630
▁asleep	-1631
▁herself	-1632
▁interested	-1633
▁sign	-1634
▁slow	-1635
▁front	-1636
▁disapp	-1637
▁guitar	-1638
▁seemed	-1639
▁speaks	-1640
▁ticket	-1641
▁speaking	-1642
▁dictionary	-1643
ps	-1644
▁esc	-1645
▁hon	-1646
ertain	-1647
▁Maybe	-1648
ib	-1649
yo	-1650
aged	-1651
▁rad	-1652
▁words	-1653
▁broken	-1654
▁thirty	-1655
▁library	-1656
▁success	-1657
▁mistakes	-1658
by	-1659
ush	-1660
ived	-1661
▁prefer	-1662
▁perfect	-1663
▁baseball	-1664
▁Pe	-1665
outh	-1666
▁ext	-1667
▁fix	-1668
▁pri	-1669
▁sad	-1670
▁tax	-1671
▁four	-1672
▁grow	-1673
▁poor	-1674
▁quit	-1675
▁side	-1676
▁aband	-1677
▁allow	-1678
▁probably	-1679
ins	-1680
okyo	-1681
▁blame	-1682
▁novel	-1683
ugh	-1684
ling	-1685
itten	-1686
▁case	-1687
▁Tokyo	-1688
▁escap	-1689
▁laugh	-1690
▁teach	-1691
▁during	-1692
ighb	-1693
▁fact	-1694
ations	-1695
▁lucky	-1696
▁choice	-1697
▁showed	-1698
▁waited	-1699
erv	-1700
▁OK	-1701
ully	-1702
▁rul	-1703
▁sus	-1704
▁lawy	-1705
overed	-1706
▁movies	-1707
▁neighb	-1708
▁opened	-1709
erm	-1710
▁inst	-1711
uation	-1712
vision	-1713
▁earth	-1714
▁shirt	-1715
▁walked	-1716
▁brought	-1717
▁telephone	-1718
ics	-1719
fully	-1720
▁fing	-1721
vening	-1722
▁exper	-1723
▁People	-1724
▁swimming	-1725
▁attention	-1726
▁sometimes	-1727
ead	-1728
reed	-1729
▁art	-1730
▁spe	-1731
pping	-1732
▁deal	-1733
▁smell	-1734
▁minute	-1735
▁evening	-1736
▁foreign	-1737
▁Everything	-1738
ator	-1739
ility	-1740
▁Even	-1741
▁Here	-1742
▁hide	-1743
▁treat	-1744
▁missed	-1745
▁certain	-1746
▁ve	-1747
cial	-1748
▁gun	-1749
▁Those	-1750
▁dance	-1751
▁deser	-1752
▁known	-1753
▁radio	-1754
▁discuss	-1755
ider	-1756
▁fig	-1757
▁rece	-1758
▁road	-1759
▁medic	-1760
▁borrow	-1761
▁talked	-1762
▁situation	-1763
enty	-1764
oose	-1765
road	-1766
▁mur	-1767
▁test	-1768
father	-1769
▁beach	-1770
▁driver	-1771
rees	-1772
▁det	-1773
▁mag	-1774
▁mid	-1775
▁enem	-1776
▁prep	-1777
▁elect	-1778
▁smoke	-1779
▁closed	-1780
▁prison	-1781
▁weekend	-1782
bit	-1783
uit	-1784
▁An	-1785
atur	-1786
reen	-1787
▁arg	-1788
▁desk	-1789
▁feed	-1790
▁fine	-1791
▁opin	-1792
▁completely	-1793
rell	-1794
▁hum	-1795
▁sim	-1796
veral	-1797
▁crow	-1798
▁half	-1799
▁heav	-1800
▁prop	-1801
▁alive	-1802
▁chair	-1803
▁rules	-1804
▁health	-1805
▁lawyer	-1806
▁concert	-1807
▁forward	-1808
▁invited	-1809
▁leaving	-1810
▁several	-1811
▁worried	-1812
▁television	-1813
ton	-1814
way	-1815
▁av	-1816
▁fly	-1817
▁tie	-1818
▁eight	-1819
▁lying	-1820
▁finally	-1821
▁learned	-1822
oc	-1823
▁ru	-1824
idge	-1825
ploy	-1826
▁boys	-1827
▁send	-1828
▁point	-1829
▁seeing	-1830
▁fishing	-1831
▁everybody	-1832
so	-1833
hen	-1834
ves	-1835
ames	-1836
ding	-1837
▁opp	-1838
ressed	-1839
▁apple	-1840
▁knife	-1841
▁quiet	-1842
▁worth	-1843
▁crying	-1844
▁second	-1845
cy	-1846
iv	-1847
ute	-1848
land	-1849
▁pur	-1850
▁sil	-1851
▁umb	-1852
▁deep	-1853
▁tast	-1854
▁umbrell	-1855
▁sleeping	-1856
▁ra	-1857
ceed	-1858
itted	-1859
▁expl	-1860
▁meat	-1861
▁sugg	-1862
▁After	-1863
▁newsp	-1864
▁animals	-1865
▁singing	-1866
▁medicine	-1867
ze	-1868
ade	-1869
▁Ex	-1870
ined	-1871
▁Try	-1872
▁rid	-1873
▁ris	-1874
illed	-1875
▁kids	-1876
▁Thanks	-1877
▁belong	-1878
▁younger	-1879
▁vacation	-1880
airs	-1881
ower	-1882
▁dro	-1883
▁pub	-1884
nited	-1885
▁also	-1886
▁blue	-1887
▁guys	-1888
▁keys	-1889
▁smart	-1890
▁taken	-1891
▁driving	-1892
▁promise	-1893
▁writing	-1894
▁eggs	-1895
▁yell	-1896
▁Today	-1897
▁liked	-1898
▁pleas	-1899
▁transl	-1900
▁umbrella	-1901
bo	-1902
ial	-1903
▁bri	-1904
▁fool	-1905
▁abroad	-1906
▁opinion	-1907
▁written	-1908
▁drinking	-1909
▁pictures	-1910
▁grandfather	-1911
dred	-1912
omed	-1913
ries	-1914
▁col	-1915
▁gen	-1916
▁ball	-1917
▁phot	-1918
▁women	-1919
▁inform	-1920
▁sitting	-1921
▁expected	-1922
gar	-1923
ging	-1924
▁Lea	-1925
▁ind	-1926
iling	-1927
▁cats	-1928
▁hold	-1929
▁mach	-1930
▁past	-1931
▁susp	-1932
▁spoke	-1933
▁either	-1934
▁happening	-1935
ple	-1936
ugg	-1937
cent	-1938
▁Stay	-1939
▁sand	-1940
▁breat	-1941
▁doubt	-1942
▁traff	-1943
▁waste	-1944
▁worse	-1945
▁necess	-1946
▁remain	-1947
▁message	-1948
▁promised	-1949
ey	-1950
▁coat	-1951
▁kitc	-1952
▁lake	-1953
▁drank	-1954
▁twice	-1955
▁honest	-1956
▁happens	-1957
▁kitchen	-1958
▁traffic	-1959
co	-1960
▁Al	-1961
ature	-1962
▁bird	-1963
▁sense	-1964
▁winter	-1965
▁hundred	-1966
▁listening	-1967
ccer	-1968
orts	-1969
▁cur	-1970
▁gif	-1971
ument	-1972
▁Both	-1973
▁shot	-1974
▁shut	-1975
▁weren	-1976
▁States	-1977
▁passed	-1978
▁taller	-1979
▁Nothing	-1980
▁shopping	-1981
▁impossible	-1982
ask	-1983
ists	-1984
▁assum	-1985
▁carry	-1986
▁arrest	-1987
▁contin	-1988
▁hardly	-1989
▁inside	-1990
▁address	-1991
▁visited	-1992
ude	-1993
▁New	-1994
▁def	-1995
▁suc	-1996
▁cream	-1997
▁offer	-1998
▁airport	-1999
▁succeed	-2000
▁terrible	-2001
cer	-2002
erg	-2003
ief	-2004
▁cal	-2005
▁dan	-2006
▁apart	-2007
▁cross	-2008
▁piece	-2009
▁hiding	-2010
▁abandoned	-2011
▁languages	-2012
▁fat	-2013
▁fif	-2014
▁sky	-2015
▁beha	-2016
▁bill	-2017
▁post	-2018
▁ring	-2019
ousand	-2020
▁machine	-2021
mb	-2022
ets	-2023
dden	-2024
urch	-2025
▁fut	-2026
ently	-2027
friend	-2028
▁Leave	-2029
▁girls	-2030
▁means	-2031
▁apples	-2032
▁sudden	-2033
iol	-2034
ued	-2035
▁Was	-2036
▁Wait	-2037
▁boss	-2038
▁eats	-2039
▁bread	-2040
▁horse	-2041
▁church	-2042
▁figure	-2043
▁sounds	-2044
▁correct	-2045
ato	-2046
hip	-2047
unt	-2048
▁sy	-2049
▁sol	-2050
▁join	-2051
▁fault	-2052
▁easily	-2053
▁cooking	-2054
▁refused	-2055
▁carefully	-2056
▁difference	-2057
dle	-2058
ilt	-2059
▁mis	-2060
ution	-2061
▁temp	-2062
▁check	-2063
osition	-2064
▁though	-2065
fortable	-2066
▁respect	-2067
▁walking	-2068
▁surprise	-2069
▁boyfriend	-2070
cil	-2071
▁ev	-2072
duct	-2073
fied	-2074
▁pun	-2075
▁imag	-2076
▁shop	-2077
▁plans	-2078
▁plays	-2079
▁smile	-2080
▁future	-2081
▁months	-2082
▁soccer	-2083
▁disappoin	-2084
ats	-2085
lept	-2086
teen	-2087
▁del	-2088
▁eye	-2089
▁hop	-2090
▁pot	-2091
▁top	-2092
ities	-2093
▁coup	-2094
▁suit	-2095
▁wood	-2096
▁enemy	-2097
▁given	-2098
▁veget	-2099
▁voice	-2100
▁across	-2101
▁ir	-2102
iday	-2103
▁Par	-2104
▁clos	-2105
▁nerv	-2106
▁requ	-2107
▁appro	-2108
▁moved	-2109
▁attack	-2110
▁slowly	-2111
▁nervous	-2112
▁somewhere	-2113
ane	-2114
rit	-2115
▁prot	-2116
▁ride	-2117
▁taxi	-2118
▁colle	-2119
▁crowd	-2120
▁funny	-2121
▁price	-2122
▁decide	-2123
▁regret	-2124
▁forgive	-2125
▁standing	-2126
oof	-2127
thy	-2128
▁ign	-2129
▁ren	-2130
▁mouth	-2131
▁failed	-2132
▁remind	-2133
▁college	-2134
▁American	-2135
▁Something	-2136
▁newspaper	-2137
eth	-2138
oid	-2139
▁10	-2140
olen	-2141
▁Eur	-2142
arket	-2143
▁Call	-2144
▁soup	-2145
▁star	-2146
▁viol	-2147
▁pencil	-2148
▁report	-2149
▁wallet	-2150
▁suggest	-2151
▁telling	-2152
une	-2153
head	-2154
rite	-2155
vers	-2156
▁For	-2157
▁cop	-2158
▁eng	-2159
▁hol	-2160
ughed	-2161
▁grad	-2162
▁warm	-2163
▁Paris	-2164
▁Europe	-2165
▁except	-2166
▁stolen	-2167
▁taught	-2168
▁laughed	-2169
▁neighbor	-2170
▁necessary	-2171
▁ce	-2172
▁bur	-2173
▁unl	-2174
ondon	-2175
▁empt	-2176
▁fail	-2177
▁lend	-2178
▁vill	-2179
▁appre	-2180
▁rains	-2181
▁storm	-2182
▁sugar	-2183
▁London	-2184
▁couple	-2185
▁employ	-2186
▁shower	-2187
▁brothers	-2188
▁supposed	-2189
de	-2190
ird	-2191
ises	-2192
medi	-2193
▁bor	-2194
▁vol	-2195
▁beat	-2196
▁jump	-2197
▁risk	-2198
▁salt	-2199
▁China	-2200
▁fruit	-2201
▁bridge	-2202
▁entered	-2203
▁thousand	-2204
▁policeman	-2205
rup	-2206
ants	-2207
▁Ask	-2208
▁cla	-2209
▁occ	-2210
▁Aren	-2211
▁Hold	-2212
▁cond	-2213
▁till	-2214
▁blind	-2215
▁marry	-2216
ination	-2217
unately	-2218
▁immedi	-2219
▁leaves	-2220
▁consider	-2221
▁apologize	-2222
amed	-2223
tain	-2224
vest	-2225
▁dem	-2226
ached	-2227
▁inno	-2228
▁spee	-2229
▁surv	-2230
▁wake	-2231
▁aware	-2232
▁blood	-2233
▁satis	-2234
▁bother	-2235
▁native	-2236
▁public	-2237
▁smiled	-2238
col	-2239
rem	-2240
ices	-2241
▁bat	-2242
▁lad	-2243
▁Were	-2244
▁gift	-2245
▁wash	-2246
▁green	-2247
▁stood	-2248
▁watched	-2249
▁learning	-2250
▁planning	-2251
▁experience	-2252
ex	-2253
▁z	-2254
ots	-2255
▁Tw	-2256
come	-2257
vent	-2258
▁See	-2259
▁ann	-2260
▁owe	-2261
▁Turn	-2262
▁golf	-2263
▁joke	-2264
▁built	-2265
▁empty	-2266
▁heavy	-2267
▁share	-2268
▁weeks	-2269
▁button	-2270
bar	-2271
cri	-2272
erc	-2273
iew	-2274
omp	-2275
rol	-2276
uct	-2277
▁aff	-2278
▁fil	-2279
acket	-2280
▁burn	-2281
▁land	-2282
▁ought	-2283
▁polit	-2284
▁kissed	-2285
▁popular	-2286
▁beginning	-2287
gen	-2288
ened	-2289
hood	-2290
▁Has	-2291
▁ble	-2292
▁den	-2293
vious	-2294
▁earl	-2295
▁line	-2296
▁prof	-2297
▁clock	-2298
▁asking	-2299
▁finger	-2300
▁likely	-2301
▁speech	-2302
▁twenty	-2303
▁actually	-2304
▁received	-2305
▁wonderful	-2306
▁information	-2307
gr	-2308
ior	-2309
iced	-2310
oken	-2311
▁gas	-2312
iving	-2313
▁Most	-2314
▁cars	-2315
▁drug	-2316
▁fear	-2317
▁Write	-2318
▁absol	-2319
▁slept	-2320
▁teeth	-2321
▁trees	-2322
▁bottle	-2323
▁common	-2324
▁depend	-2325
▁appreci	-2326
▁feelings	-2327
▁painting	-2328
▁ho	-2329
ches	-2330
▁Any	-2331
▁squ	-2332
▁hang	-2333
▁stra	-2334
mother	-2335
▁attend	-2336
▁charge	-2337
▁scared	-2338
▁Chinese	-2339
▁special	-2340
▁wondered	-2341
ery	-2342
ror	-2343
▁Cl	-2344
aked	-2345
ayed	-2346
▁God	-2347
▁bar	-2348
▁jud	-2349
▁sup	-2350
board	-2351
ivers	-2352
▁Make	-2353
▁hadn	-2354
▁pull	-2355
▁save	-2356
▁Child	-2357
▁Satur	-2358
▁relax	-2359
▁worst	-2360
▁France	-2361
▁cheese	-2362
▁project	-2363
▁village	-2364
▁Saturday	-2365
▁anywhere	-2366
▁sentence	-2367
▁somebody	-2368
rap	-2369
str	-2370
uri	-2371
ults	-2372
ected	-2373
▁fair	-2374
vented	-2375
▁Whose	-2376
▁bored	-2377
▁pract	-2378
▁Children	-2379
▁Somebody	-2380
▁immediately	-2381
,00	-2382
arm	-2383
,000	-2384
aces	-2385
▁sea	-2386
alent	-2387
▁grew	-2388
▁moon	-2389
▁rice	-2390
idence	-2391
▁color	-2392
▁delic	-2393
▁sight	-2394
▁wears	-2395
▁escape	-2396
▁murder	-2397
▁earlier	-2398
▁enjoyed	-2399
▁staying	-2400
▁studied	-2401
ef	-2402
uc	-2403
▁20	-2404
ails	-2405
ilty	-2406
▁los	-2407
apped	-2408
▁club	-2409
▁furn	-2410
▁lied	-2411
▁perm	-2412
▁cards	-2413
▁gover	-2414
▁magaz	-2415
▁guilty	-2416
▁picked	-2417
▁single	-2418
▁condition	-2419
ees	-2420
ache	-2421
acks	-2422
oted	-2423
rent	-2424
▁cig	-2425
▁fit	-2426
▁inj	-2427
▁wed	-2428
▁yen	-2429
ables	-2430
arely	-2431
eared	-2432
▁hist	-2433
▁king	-2434
▁power	-2435
▁agreed	-2436
▁appear	-2437
▁player	-2438
▁temper	-2439
▁apartment	-2440
bs	-2441
ges	-2442
ppy	-2443
▁er	-2444
okes	-2445
▁pack	-2446
▁pair	-2447
▁rese	-2448
▁Bring	-2449
▁claim	-2450
▁invol	-2451
▁steal	-2452
▁threw	-2453
▁choose	-2454
▁locked	-2455
▁spoken	-2456
▁convince	-2457
▁satisfied	-2458
een	-2459
▁Am	-2460
▁pu	-2461
atch	-2462
time	-2463
▁Show	-2464
▁With	-2465
▁York	-2466
▁body	-2467
▁date	-2468
▁disg	-2469
▁poss	-2470
▁enter	-2471
▁drinks	-2472
▁harder	-2473
▁yellow	-2474
▁dressed	-2475
▁painted	-2476
▁position	-2477
▁grandmother	-2478
con	-2479
tle	-2480
▁ma	-2481
bers	-2482
cing	-2483
cuse	-2484
iers	-2485
▁val	-2486
ellig	-2487
ories	-2488
useum	-2489
▁card	-2490
▁held	-2491
▁poem	-2492
▁rang	-2493
▁type	-2494
▁peace	-2495
▁talks	-2496
▁Excuse	-2497
▁boring	-2498
▁allowed	-2499
▁control	-2500
▁realize	-2501
▁wedding	-2502
▁suddenly	-2503
▁president	-2504
amp	-2505
uts	-2506
ians	-2507
▁dut	-2508
▁gar	-2509
▁rob	-2510
atoes	-2511
▁bear	-2512
▁draw	-2513
▁pock	-2514
▁Since	-2515
▁ahead	-2516
▁group	-2517
▁suitc	-2518
▁faster	-2519
▁govern	-2520
▁museum	-2521
▁intellig	-2522
▁pretended	-2523
▁comfortable	-2524
ls	-2525
▁ed	-2526
▁lo	-2527
ager	-2528
▁Ind	-2529
▁Isn	-2530
▁ide	-2531
▁low	-2532
▁mot	-2533
▁ski	-2534
lcome	-2535
light	-2536
▁Life	-2537
▁boat	-2538
▁film	-2539
▁gold	-2540
▁avoid	-2541
▁fence	-2542
▁fired	-2543
▁press	-2544
▁usual	-2545
▁breath	-2546
▁history	-2547
▁listened	-2548
per	-2549
set	-2550
▁Sm	-2551
▁ur	-2552
▁Two	-2553
iture	-2554
▁hates	-2555
▁keeps	-2556
▁island	-2557
▁covered	-2558
▁dropped	-2559
▁forever	-2560
▁missing	-2561
▁noticed	-2562
▁respons	-2563
▁windows	-2564
▁returned	-2565
▁classroom	-2566
▁understood	-2567
▁yourselves	-2568
ili	-2569
▁Ne	-2570
▁So	-2571
barr	-2572
rodu	-2573
▁Sha	-2574
▁equ	-2575
ouses	-2576
ushed	-2577
▁calm	-2578
▁form	-2579
▁nine	-2580
▁norm	-2581
▁purp	-2582
▁paint	-2583
▁truck	-2584
anation	-2585
barrass	-2586
▁chocol	-2587
▁concer	-2588
▁convin	-2589
▁jacket	-2590
▁nobody	-2591
▁washing	-2592
▁believes	-2593
▁embarrass	-2594
▁furniture	-2595
fortunately	-2596
▁government	-2597
▁explanation	-2598
sh	-2599
key	-2600
ury	-2601
resh	-2602
▁lic	-2603
▁unc	-2604
▁Ital	-2605
▁bike	-2606
▁cent	-2607
▁cous	-2608
▁cust	-2609
▁dest	-2610
▁heat	-2611
▁alarm	-2612
▁ended	-2613
▁direct	-2614
▁ability	-2615
▁bedroom	-2616
▁belongs	-2617
▁reached	-2618
▁innocent	-2619
▁Sometimes	-2620
▁delicious	-2621
▁explained	-2622
▁vegetables	-2623
▁complaining	-2624
▁disappointed	-2625
ogn	-2626
omm	-2627
reas	-2628
▁eff	-2629
asket	-2630
erman	-2631
hamed	-2632
▁Last	-2633
▁loud	-2634
▁step	-2635
▁flute	-2636
▁absent	-2637
▁recogn	-2638
▁scream	-2639
▁ashamed	-2640
▁courage	-2641
▁introdu	-2642
▁protect	-2643
▁purpose	-2644
▁sisters	-2645
▁arrested	-2646
▁realized	-2647
ety	-2648
aded	-2649
aret	-2650
ires	-2651
uses	-2652
▁aut	-2653
▁bow	-2654
▁idi	-2655
▁map	-2656
▁shy	-2657
ments	-2658
▁cash	-2659
▁cool	-2660
▁gent	-2661
▁liar	-2662
▁mill	-2663
▁rock	-2664
▁birds	-2665
▁climb	-2666
▁feels	-2667
▁gener	-2668
▁judge	-2669
▁persu	-2670
▁stole	-2671
▁stuck	-2672
▁basket	-2673
▁caused	-2674
▁dishes	-2675
▁invest	-2676
▁notice	-2677
▁useful	-2678
iversity	-2679
▁account	-2680
▁cigaret	-2681
▁injured	-2682
▁ordered	-2683
▁product	-2684
▁subject	-2685
▁answered	-2686
▁midnight	-2687
▁straight	-2688
▁convinced	-2689
nfortunately	-2690
mpt	-2691
pen	-2692
ines	-2693
▁Hey	-2694
▁hob	-2695
▁opt	-2696
icked	-2697
utely	-2698
▁Help	-2699
▁aunt	-2700
▁duty	-2701
▁gain	-2702
▁lead	-2703
▁rent	-2704
▁scen	-2705
▁shar	-2706
▁view	-2707
ission	-2708
▁exerc	-2709
▁ideas	-2710
▁German	-2711
▁flower	-2712
▁gentle	-2713
▁partic	-2714
▁sports	-2715
▁cookies	-2716
▁support	-2717
▁theater	-2718
▁involved	-2719
▁absolutely	-2720
izz	-2721
gers	-2722
host	-2723
▁Read	-2724
▁fond	-2725
▁legs	-2726
▁mail	-2727
▁race	-2728
▁sang	-2729
▁admit	-2730
▁fever	-2731
▁habit	-2732
▁impro	-2733
▁saved	-2734
▁afford	-2735
▁course	-2736
▁extrem	-2737
▁houses	-2738
▁sooner	-2739
▁attract	-2740
▁soldiers	-2741
▁whatever	-2742
▁intention	-2743
▁intelligent	-2744
ides	-2745
▁cow	-2746
▁flu	-2747
▁neck	-2748
▁rule	-2749
ealous	-2750
▁divor	-2751
▁fresh	-2752
▁human	-2753
▁tears	-2754
▁cancer	-2755
▁compet	-2756
▁flight	-2757
▁result	-2758
▁talent	-2759
▁accused	-2760
▁collect	-2761
▁million	-2762
▁believed	-2763
▁fighting	-2764
▁headache	-2765
▁appreciate	-2766
▁themselves	-2767
sy	-2768
hem	-2769
▁ju	-2770
book	-2771
cell	-2772
ilar	-2773
ldom	-2774
▁Oct	-2775
▁fed	-2776
▁par	-2777
anted	-2778
▁cell	-2779
▁lock	-2780
▁mood	-2781
▁toil	-2782
▁wore	-2783
urious	-2784
▁behav	-2785
▁chick	-2786
▁ghost	-2787
▁sandw	-2788
▁tight	-2789
ational	-2790
▁bigger	-2791
▁custom	-2792
▁middle	-2793
▁seldom	-2794
▁simple	-2795
▁capital	-2796
▁license	-2797
▁profess	-2798
▁prepared	-2799
▁chocolate	-2800
dd	-2801
eg	-2802
gan	-2803
oon	-2804
par	-2805
rab	-2806
ific	-2807
ings	-2808
ober	-2809
oint	-2810
▁bom	-2811
▁tow	-2812
▁zoo	-2813
cious	-2814
fered	-2815
▁Didn	-2816
▁diet	-2817
▁hung	-2818
▁sock	-2819
▁stom	-2820
▁woke	-2821
▁Never	-2822
▁awake	-2823
▁crime	-2824
▁dirty	-2825
▁event	-2826
▁stuff	-2827
ibility	-2828
▁butter	-2829
▁dreams	-2830
▁October	-2831
▁assumed	-2832
▁earthqu	-2833
▁healthy	-2834
▁speaker	-2835
▁behavior	-2836
▁interrup	-2837
▁laughing	-2838
▁passport	-2839
▁Yesterday	-2840
▁countries	-2841
▁seriously	-2842
ik	-2843
ns	-2844
gest	-2845
▁amb	-2846
▁dam	-2847
▁tot	-2848
usted	-2849
▁lean	-2850
▁lone	-2851
▁nose	-2852
▁pizz	-2853
ording	-2854
▁cheap	-2855
▁exist	-2856
▁meant	-2857
▁throw	-2858
▁wound	-2859
▁allerg	-2860
▁entire	-2861
▁handed	-2862
▁invite	-2863
▁nearly	-2864
▁rained	-2865
▁toilet	-2866
▁jealous	-2867
▁pleased	-2868
▁sweater	-2869
▁willing	-2870
▁accepted	-2871
▁magazine	-2872
▁certainly	-2873
▁extremely	-2874
▁forgotten	-2875
rop	-2876
sit	-2877
▁30	-2878
▁dad	-2879
▁mir	-2880
conom	-2881
itive	-2882
▁amaz	-2883
▁auth	-2884
▁cast	-2885
▁farm	-2886
▁feet	-2887
▁harm	-2888
▁prin	-2889
▁roof	-2890
▁suic	-2891
▁gradu	-2892
▁jokes	-2893
▁juice	-2894
▁prize	-2895
▁stick	-2896
▁sweet	-2897
▁whose	-2898
▁descri	-2899
▁superm	-2900
▁calling	-2901
▁dancing	-2902
▁potatoes	-2903
▁solution	-2904
rat	-2905
ues	-2906
▁ben	-2907
▁deb	-2908
▁wet	-2909
itely	-2910
unity	-2911
▁Only	-2912
▁repe	-2913
▁suff	-2914
▁Speak	-2915
▁becom	-2916
▁calls	-2917
▁cause	-2918
▁fixed	-2919
▁songs	-2920
cellent	-2921
sidered	-2922
▁Friday	-2923
▁begins	-2924
▁econom	-2925
▁filled	-2926
▁forced	-2927
▁lights	-2928
▁lonely	-2929
▁raised	-2930
▁regard	-2931
▁singer	-2932
▁unlike	-2933
▁helping	-2934
▁pretend	-2935
▁followed	-2936
▁employees	-2937
▁excellent	-2938
▁expecting	-2939
▁supermarket	-2940
bey	-2941
▁Ky	-2942
ield	-2943
▁War	-2944
▁lay	-2945
gress	-2946
▁lady	-2947
▁sear	-2948
▁tour	-2949
▁vote	-2950
▁Sorry	-2951
▁among	-2952
▁cried	-2953
▁hobby	-2954
▁idiot	-2955
▁demand	-2956
▁giving	-2957
▁opport	-2958
▁pocket	-2959
▁recomm	-2960
▁slight	-2961
▁suspic	-2962
▁mention	-2963
▁admitted	-2964
▁electric	-2965
▁recently	-2966
▁ourselves	-2967
▁considered	-2968
gl	-2969
che	-2970
ume	-2971
ests	-2972
ones	-2973
phan	-2974
▁Per	-2975
▁dev	-2976
▁fac	-2977
▁yes	-2978
istic	-2979
▁adop	-2980
▁dumb	-2981
▁obey	-2982
▁pity	-2983
▁separ	-2984
▁upset	-2985
▁author	-2986
▁engine	-2987
▁moving	-2988
▁spring	-2989
▁washed	-2990
▁letters	-2991
▁managed	-2992
▁neither	-2993
▁obvious	-2994
▁unlikely	-2995
bye	-2996
els	-2997
ule	-2998
▁cir	-2999
▁cit	-3000
▁doc	-3001
▁fro	-3002
▁und	-3003
apers	-3004
arter	-3005
ining	-3006
riger	-3007
▁Open	-3008
▁Span	-3009
▁area	-3010
▁math	-3011
▁noon	-3012
▁scar	-3013
▁Their	-3014
▁shout	-3015
▁space	-3016
▁thief	-3017
▁Mother	-3018
▁School	-3019
▁accust	-3020
▁assume	-3021
▁barely	-3022
▁bright	-3023
▁corner	-3024
▁saving	-3025
▁stairs	-3026
▁chicken	-3027
▁meaning	-3028
▁bathroom	-3029
▁distance	-3030
▁document	-3031
▁refriger	-3032
▁stranger	-3033
▁suitcase	-3034
▁whenever	-3035
▁continued	-3036
▁3	-3037
oto	-3038
uge	-3039
▁Sw	-3040
empt	-3041
over	-3042
▁ban	-3043
▁nor	-3044
ashed	-3045
isted	-3046
ograp	-3047
▁band	-3048
▁camp	-3049
▁drop	-3050
▁fort	-3051
▁size	-3052
▁skin	-3053
▁vide	-3054
▁weap	-3055
stairs	-3056
▁brave	-3057
▁citiz	-3058
▁helps	-3059
▁raise	-3060
▁tempt	-3061
▁Canada	-3062
▁denied	-3063
▁losing	-3064
▁memory	-3065
▁normal	-3066
▁pieces	-3067
▁tastes	-3068
▁Spanish	-3069
▁appoint	-3070
▁escaped	-3071
▁excited	-3072
▁suicide	-3073
▁accustomed	-3074
▁university	-3075
▁temperature	-3076
▁refrigerator	-3077
ney	-3078
ung	-3079
eral	-3080
▁Hur	-3081
▁ant	-3082
▁dry	-3083
▁nur	-3084
▁Send	-3085
▁blew	-3086
▁chat	-3087
▁dise	-3088
▁main	-3089
▁rope	-3090
▁rude	-3091
▁sour	-3092
▁Kyoto	-3093
▁cance	-3094
▁defin	-3095
▁drove	-3096
▁kinds	-3097
▁pizza	-3098
▁socks	-3099
▁Should	-3100
▁proper	-3101
▁season	-3102
▁climbed	-3103
▁deserve	-3104
▁factory	-3105
▁fingers	-3106
▁trusted	-3107
▁welcome	-3108
▁confused	-3109
▁exercise	-3110
▁handsome	-3111
▁remained	-3112
▁starting	-3113
rel	-3114
ases	-3115
gent	-3116
haps	-3117
hess	-3118
iest	-3119
tern	-3120
▁unf	-3121
anges	-3122
right	-3123
stand	-3124
▁Germ	-3125
▁None	-3126
▁bark	-3127
▁betr	-3128
▁coin	-3129
▁drow	-3130
▁emer	-3131
▁fill	-3132
▁lots	-3133
▁menu	-3134
▁note	-3135
ically	-3136
omeday	-3137
▁annoy	-3138
▁drugs	-3139
▁games	-3140
▁animal	-3141
▁clever	-3142
▁intend	-3143
▁jumped	-3144
▁resemb	-3145
▁silent	-3146
▁solved	-3147
▁spends	-3148
▁thirst	-3149
▁England	-3150
▁contact	-3151
▁instead	-3152
▁matters	-3153
▁request	-3154
▁continue	-3155
▁teachers	-3156
▁earthquake	-3157
cut	-3158
ify	-3159
ism	-3160
▁na	-3161
▁ow	-3162
ngue	-3163
stem	-3164
▁Acc	-3165
▁Say	-3166
▁fle	-3167
▁kil	-3168
▁loc	-3169
▁toy	-3170
▁wit	-3171
ction	-3172
▁Good	-3173
▁copy	-3174
▁cute	-3175
▁peel	-3176
▁pred	-3177
▁priv	-3178
▁runs	-3179
▁text	-3180
▁weak	-3181
rently	-3182
▁Watch	-3183
▁chess	-3184
▁cloud	-3185
▁creat	-3186
▁hesit	-3187
▁naive	-3188
▁sched	-3189
▁taste	-3190
▁burned	-3191
▁buying	-3192
▁object	-3193
▁salary	-3194
▁sleepy	-3195
▁supper	-3196
▁tongue	-3197
▁clearly	-3198
▁foolish	-3199
▁hearing	-3200
▁allergic	-3201
▁gentleman	-3202
▁mountains	-3203
▁suggested	-3204
▁permission	-3205
▁appointment	-3206
eaf	-3207
iqu	-3208
ler	-3209
nic	-3210
elve	-3211
lebr	-3212
osal	-3213
ster	-3214
ulty	-3215
▁Che	-3216
▁cab	-3217
▁neg	-3218
▁oil	-3219
▁pic	-3220
gency	-3221
▁bell	-3222
▁buck	-3223
▁hero	-3224
▁lazy	-3225
▁meal	-3226
▁pool	-3227
▁tend	-3228
▁wise	-3229
▁worn	-3230
▁costs	-3231
▁gives	-3232
▁hurts	-3233
▁instr	-3234
▁nurse	-3235
▁organ	-3236
▁popul	-3237
▁scold	-3238
▁weird	-3239
▁celebr	-3240
▁excuse	-3241
▁joking	-3242
▁lasted	-3243
▁repair	-3244
▁smells	-3245
▁theory	-3246
▁results	-3247
▁Tomorrow	-3248
▁football	-3249
▁stealing	-3250
▁traveled	-3251
▁Americans	-3252
▁translate	-3253
▁opportunity	-3254
▁responsible	-3255
0.	-3256
na	-3257
exic	-3258
gram	-3259
inal	-3260
ners	-3261
ores	-3262
tery	-3263
uing	-3264
ality	-3265
icted	-3266
ipped	-3267
iting	-3268
orter	-3269
ugged	-3270
under	-3271
using	-3272
▁From	-3273
▁bull	-3274
▁cred	-3275
▁crit	-3276
▁dece	-3277
▁educ	-3278
▁hole	-3279
▁self	-3280
▁sore	-3281
atural	-3282
▁Hurry	-3283
▁Mexic	-3284
▁airpl	-3285
▁energ	-3286
▁miles	-3287
▁naked	-3288
▁named	-3289
▁skirt	-3290
▁video	-3291
▁passen	-3292
▁system	-3293
▁goodbye	-3294
▁similar	-3295
▁snowing	-3296
▁studies	-3297
▁attended	-3298
▁friendly	-3299
▁emergency	-3300
▁prevented	-3301
▁relations	-3302
▁discovered	-3303
▁examination	-3304
▁neighborhood	-3305
fa	-3306
ma	-3307
men	-3308
raz	-3309
▁Mt	-3310
▁bud	-3311
▁lit	-3312
▁spl	-3313
astic	-3314
iable	-3315
iliar	-3316
iment	-3317
ology	-3318
orses	-3319
ouder	-3320
▁appl	-3321
▁deaf	-3322
▁desp	-3323
▁elev	-3324
▁jail	-3325
▁rose	-3326
▁grass	-3327
▁match	-3328
▁prove	-3329
▁reach	-3330
▁sharp	-3331
▁stone	-3332
ilities	-3333
▁credit	-3334
▁distur	-3335
▁plenty	-3336
▁pulled	-3337
▁urgent	-3338
▁answers	-3339
▁changes	-3340
▁depends	-3341
▁fifteen	-3342
▁holiday	-3343
▁smiling	-3344
▁proposal	-3345
▁difficulty	-3346
▁eventually	-3347
ji	-3348
zz	-3349
rib	-3350
uel	-3351
yed	-3352
▁By	-3353
▁CD	-3354
▁Tr	-3355
entr	-3356
omen	-3357
pper	-3358
▁Few	-3359
▁tur	-3360
aired	-3361
ances	-3362
anged	-3363
asses	-3364
bling	-3365
hemat	-3366
idays	-3367
razil	-3368
▁arri	-3369
▁prov	-3370
▁trap	-3371
▁uses	-3372
ateful	-3373
▁Three	-3374
▁acted	-3375
▁conce	-3376
▁cover	-3377
▁dying	-3378
▁fifty	-3379
▁flash	-3380
▁hated	-3381
▁names	-3382
▁occur	-3383
▁Brazil	-3384
▁bottom	-3385
▁bucket	-3386
▁deeply	-3387
▁energy	-3388
▁fright	-3389
▁ground	-3390
▁prices	-3391
▁twelve	-3392
▁writes	-3393
standing	-3394
▁Sundays	-3395
▁attempt	-3396
▁confess	-3397
▁crossed	-3398
▁imagine	-3399
▁offered	-3400
▁stories	-3401
▁teaches	-3402
▁thirsty	-3403
▁concentr	-3404
▁repaired	-3405
▁happiness	-3406
▁neighbors	-3407
▁definitely	-3408
No	-3409
gn	-3410
pe	-3411
ald	-3412
asc	-3413
ipe	-3414
ony	-3415
▁Dr	-3416
▁Of	-3417
aled	-3418
icle	-3419
line	-3420
▁Won	-3421
▁maj	-3422
▁mod	-3423
▁rum	-3424
▁sew	-3425
cause	-3426
▁Russ	-3427
▁bomb	-3428
▁hill	-3429
▁huge	-3430
▁inse	-3431
▁iron	-3432
▁lift	-3433
▁oper	-3434
▁India	-3435
▁bench	-3436
▁brush	-3437
▁moder	-3438
▁shoot	-3439
▁stars	-3440
▁cousin	-3441
▁depart	-3442
▁easier	-3443
▁hoping	-3444
▁louder	-3445
▁picnic	-3446
▁remark	-3447
▁resign	-3448
▁skiing	-3449
▁subway	-3450
▁Germany	-3451
▁complic	-3452
▁ignored	-3453
▁impress	-3454
▁knocked	-3455
▁tickets	-3456
▁airplane	-3457
▁attacked	-3458
▁elevator	-3459
▁grateful	-3460
▁patience	-3461
▁stronger	-3462
▁teaching	-3463
▁perfectly	-3464
▁photograp	-3465
▁recommend	-3466
▁flashlight	-3467
apt	-3468
cha	-3469
▁Pl	-3470
▁Su	-3471
coho	-3472
▁Rem	-3473
▁pan	-3474
cture	-3475
eding	-3476
eless	-3477
ering	-3478
ising	-3479
▁Comp	-3480
▁bite	-3481
▁brow	-3482
▁ears	-3483
▁fain	-3484
▁none	-3485
▁page	-3486
▁pill	-3487
▁resc	-3488
▁webs	-3489
though	-3490
▁Italy	-3491
▁Jacks	-3492
▁above	-3493
▁badly	-3494
▁brief	-3495
▁couch	-3496
▁email	-3497
▁round	-3498
▁sport	-3499
▁woods	-3500
▁Father	-3501
▁anyway	-3502
▁destro	-3503
▁detail	-3504
▁flying	-3505
▁gotten	-3506
▁market	-3507
▁orange	-3508
▁paying	-3509
▁starts	-3510
▁threat	-3511
hematics	-3512
▁Perhaps	-3513
▁carried	-3514
▁climate	-3515
▁convers	-3516
▁manager	-3517
▁oranges	-3518
▁smaller	-3519
▁totally	-3520
▁sandwich	-3521
▁agreement	-3522
▁following	-3523
▁passengers	-3524
▁population	-3525
3.	-3526
hib	-3527
▁ug	-3528
cean	-3529
▁Day	-3530
▁Eat	-3531
▁Sit	-3532
▁mel	-3533
▁ste	-3534
▁wis	-3535
isten	-3536
obile	-3537
ulous	-3538
▁Cats	-3539
▁Rome	-3540
▁exha	-3541
▁serv	-3542
▁sofa	-3543
▁unha	-3544
▁Money	-3545
▁argue	-3546
▁awful	-3547
▁motor	-3548
▁photo	-3549
▁shall	-3550
▁shelf	-3551
▁using	-3552
itation	-3553
▁Listen	-3554
▁amount	-3555
▁artist	-3556
▁assist	-3557
▁buried	-3558
▁castle	-3559
▁design	-3560
▁forest	-3561
▁guests	-3562
▁remove	-3563
▁kidding	-3564
▁natural	-3565
▁prepare	-3566
▁program	-3567
▁scolded	-3568
▁suspect	-3569
▁Although	-3570
▁contract	-3571
▁familiar	-3572
▁practice	-3573
▁shoulder	-3574
▁survived	-3575
▁committed	-3576
▁apologized	-3577
▁suspicious	-3578
▁temptation	-3579
▁possibility	-3580
hys	-3581
ius	-3582
llo	-3583
zen	-3584
▁Os	-3585
amps	-3586
ased	-3587
look	-3588
▁aud	-3589
▁div	-3590
otion	-3591
▁dent	-3592
▁goal	-3593
▁ones	-3594
▁sale	-3595
ashion	-3596
▁Think	-3597
▁Women	-3598
▁cheek	-3599
▁extra	-3600
▁third	-3601
▁advant	-3602
▁highly	-3603
▁horses	-3604
▁insult	-3605
▁record	-3606
▁scient	-3607
▁unless	-3608
▁within	-3609
▁Because	-3610
▁Jackson	-3611
▁Smoking	-3612
▁abandon	-3613
▁article	-3614
▁curious	-3615
▁disease	-3616
▁example	-3617
▁funeral	-3618
▁members	-3619
▁tallest	-3620
▁treated	-3621
▁becoming	-3622
▁betrayed	-3623
▁According	-3624
▁graduated	-3625
▁traveling	-3626
▁complained	-3627
▁particular	-3628
▁complicated	-3629
▁understands	-3630
ms	-3631
od	-3632
aka	-3633
lex	-3634
ows	-3635
▁Fu	-3636
coat	-3637
irts	-3638
▁100	-3639
▁aim	-3640
▁deg	-3641
▁env	-3642
▁iss	-3643
▁lim	-3644
▁tou	-3645
▁uns	-3646
hings	-3647
umped	-3648
▁baff	-3649
▁bald	-3650
▁disl	-3651
▁grap	-3652
▁lies	-3653
▁wild	-3654
▁avail	-3655
▁board	-3656
▁brown	-3657
▁cough	-3658
▁hopes	-3659
▁illeg	-3660
▁offic	-3661
▁voted	-3662
▁Things	-3663
▁exchan	-3664
▁garage	-3665
▁ghosts	-3666
▁larger	-3667
▁master	-3668
▁unable	-3669
▁amazing	-3670
▁captain	-3671
▁command	-3672
▁details	-3673
▁illness	-3674
▁largest	-3675
▁someday	-3676
▁stomach	-3677
▁useless	-3678
▁website	-3679
▁winning	-3680
▁argument	-3681
▁borrowed	-3682
▁holidays	-3683
▁musician	-3684
▁progress	-3685
▁childhood	-3686
▁introduce	-3687
▁basketball	-3688
▁conversation	-3689
ai	-3690
to	-3691
acy	-3692
aid	-3693
amm	-3694
gth	-3695
isy	-3696
zed	-3697
▁ef	-3698
iche	-3699
▁bes	-3700
▁due	-3701
▁enc	-3702
▁imm	-3703
▁nea	-3704
asons	-3705
ences	-3706
riage	-3707
▁Each	-3708
▁Fuji	-3709
▁circ	-3710
▁gate	-3711
▁pale	-3712
▁perf	-3713
▁pond	-3714
▁pron	-3715
▁sens	-3716
▁ugly	-3717
▁Close	-3718
▁autom	-3719
▁blank	-3720
▁chose	-3721
▁field	-3722
▁greet	-3723
▁ridic	-3724
▁tough	-3725
▁clouds	-3726
▁drives	-3727
▁eleven	-3728
▁modern	-3729
▁search	-3730
▁stamps	-3731
▁toward	-3732
▁warned	-3733
▁writer	-3734
▁Without	-3735
▁arguing	-3736
▁classes	-3737
▁curtain	-3738
▁disturb	-3739
▁express	-3740
▁nearest	-3741
▁percent	-3742
▁suppose	-3743
▁trapped	-3744
▁appeared	-3745
▁greatest	-3746
▁invented	-3747
▁schedule	-3748
▁available	-3749
▁cigarette	-3750
▁depressed	-3751
▁education	-3752
▁discussion	-3753
▁friendship	-3754
▁translated	-3755
▁disappeared	-3756
▁embarrassed	-3757
kn	-3758
sc	-3759
awn	-3760
ker	-3761
sen	-3762
tes	-3763
ains	-3764
itch	-3765
lect	-3766
orth	-3767
ters	-3768
▁Har	-3769
▁ach	-3770
▁dig	-3771
abbit	-3772
antly	-3773
itude	-3774
▁Brit	-3775
▁arms	-3776
▁dish	-3777
▁lack	-3778
▁laid	-3779
▁nuts	-3780
▁pean	-3781
▁phys	-3782
▁puzz	-3783
▁sons	-3784
▁thin	-3785
▁warn	-3786
▁Osaka	-3787
▁mater	-3788
▁postp	-3789
▁puppy	-3790
▁tooth	-3791
▁walks	-3792
▁center	-3793
▁commun	-3794
▁critic	-3795
▁effect	-3796
▁fallen	-3797
▁mirror	-3798
▁novels	-3799
▁robbed	-3800
▁signed	-3801
▁sleeps	-3802
▁strang	-3803
▁violin	-3804
▁illegal	-3805
▁private	-3806
▁whoever	-3807
▁changing	-3808
▁cleaning	-3809
▁complete	-3810
▁deserted	-3811
▁investig	-3812
▁accidents	-3813
▁exhausted	-3814
bb	-3815
ux	-3816
chn	-3817
its	-3818
uly	-3819
king	-3820
roat	-3821
uted	-3822
▁ess	-3823
▁ham	-3824
▁rev	-3825
anced	-3826
enced	-3827
ieved	-3828
round	-3829
▁diam	-3830
▁incl	-3831
▁jour	-3832
▁ours	-3833
▁outf	-3834
▁sink	-3835
▁sort	-3836
▁stri	-3837
▁weal	-3838
▁Shall	-3839
▁Spain	-3840
▁cruel	-3841
▁facts	-3842
▁major	-3843
▁mayor	-3844
▁towel	-3845
▁value	-3846
▁alcoho	-3847
▁beauty	-3848
▁cooked	-3849
▁effort	-3850
▁photos	-3851
▁pushed	-3852
▁dentist	-3853
▁falling	-3854
▁fortune	-3855
▁politic	-3856
▁reminds	-3857
▁soldier	-3858
▁spilled	-3859
▁unhappy	-3860
▁witness	-3861
▁workers	-3862
▁distract	-3863
▁divorced	-3864
▁marriage	-3865
▁mistaken	-3866
▁misunder	-3867
▁violence	-3868
▁advantage	-3869
▁recognize	-3870
▁succeeded	-3871
▁experiment	-3872
▁relationship	-3873
het	-3874
ium	-3875
nal	-3876
und	-3877
▁Ap	-3878
▁Bl	-3879
aced	-3880
orld	-3881
rets	-3882
▁Mar	-3883
▁Mom	-3884
▁hig	-3885
▁tap	-3886
aring	-3887
cient	-3888
hache	-3889
hered	-3890
licop	-3891
▁Find	-3892
▁Fort	-3893
▁Gree	-3894
▁Love	-3895
▁army	-3896
▁dess	-3897
▁evil	-3898
▁fasc	-3899
▁flat	-3900
▁jobs	-3901
▁numb	-3902
▁orig	-3903
▁pray	-3904
▁push	-3905
▁roll	-3906
▁wins	-3907
▁Water	-3908
▁cares	-3909
▁crash	-3910
▁diary	-3911
▁flood	-3912
▁honey	-3913
▁relig	-3914
▁wheel	-3915
▁whist	-3916
▁Mexico	-3917
▁affect	-3918
▁orders	-3919
▁outfit	-3920
▁pepper	-3921
▁polite	-3922
▁puzzle	-3923
▁ruined	-3924
▁spread	-3925
▁stared	-3926
▁actress	-3927
▁appears	-3928
▁baffled	-3929
▁cheated	-3930
▁citizen	-3931
▁claimed	-3932
▁cleaned	-3933
▁dessert	-3934
▁enemies	-3935
▁failure	-3936
▁helicop	-3937
▁planted	-3938
▁ringing	-3939
▁audience	-3940
▁evidence	-3941
▁persuade	-3942
▁pleasant	-3943
▁talented	-3944
▁wherever	-3945
▁concerned	-3946
▁confident	-3947
▁impressed	-3948
▁interrupt	-3949
▁resembles	-3950
▁attractive	-3951
▁everywhere	-3952
gs	-3953
me	-3954
ne	-3955
bel	-3956
esp	-3957
iff	-3958
irm	-3959
pha	-3960
rer	-3961
▁Fo	-3962
ards	-3963
aste	-3964
ents	-3965
hand	-3966
oses	-3967
vard	-3968
▁Gen	-3969
▁wol	-3970
ained	-3971
chief	-3972
ified	-3973
izing	-3974
velop	-3975
▁Kore	-3976
▁Time	-3977
▁acqu	-3978
▁bush	-3979
▁cand	-3980
▁cong	-3981
▁cult	-3982
▁defe	-3983
▁hire	-3984
▁infl	-3985
▁soci	-3986
▁tail	-3987
▁vict	-3988
verage	-3989
▁World	-3990
▁bound	-3991
▁candy	-3992
▁disgu	-3993
▁final	-3994
▁ident	-3995
▁magic	-3996
▁noisy	-3997
▁occas	-3998
▁spite	-3999
▁uncom	-4000
looking	-4001
▁accomp	-4002
▁acting	-4003
▁closet	-4004
▁fascin	-4005
▁fought	-4006
▁handle	-4007
▁insane	-4008
▁itself	-4009
▁kicked	-4010
▁member	-4011
▁punish	-4012
▁refuse	-4013
▁strict	-4014
▁volume	-4015
kerchief	-4016
▁Harvard	-4017
▁diamond	-4018
▁disgust	-4019
▁knowing	-4020
▁lecture	-4021
▁survive	-4022
▁thanked	-4023
▁election	-4024
▁exciting	-4025
▁promises	-4026
▁punished	-4027
▁abilities	-4028
▁disappoint	-4029
▁frightened	-4030
▁invitation	-4031
▁reasonable	-4032
▁ridiculous	-4033
▁successful	-4034
▁mathematics	-4035
▁handkerchief	-4036
▁uncomfortable	-4037
go	-4038
iP	-4039
ago	-4040
att	-4041
cul	-4042
eds	-4043
exp	-4044
har	-4045
law	-4046
lig	-4047
mon	-4048
pir	-4049
ram	-4050
ron	-4051
uce	-4052
val	-4053
▁De	-4054
▁iP	-4055
gage	-4056
ibly	-4057
ique	-4058
lace	-4059
▁App	-4060
▁Cle	-4061
▁Sud	-4062
▁anx	-4063
▁est	-4064
▁fox	-4065
▁jog	-4066
▁pil	-4067
▁psy	-4068
▁raw	-4069
▁tun	-4070
▁unp	-4071
antic	-4072
bered	-4073
imate	-4074
inary	-4075
mates	-4076
stron	-4077
usion	-4078
▁Well	-4079
▁cott	-4080
▁crim	-4081
▁flag	-4082
▁grab	-4083
▁nons	-4084
▁rely	-4085
▁soft	-4086
▁tied	-4087
▁vain	-4088
▁vase	-4089
irteen	-4090
lished	-4091
▁First	-4092
▁actor	-4093
▁banan	-4094
▁horri	-4095
▁oblig	-4096
▁pregn	-4097
▁produ	-4098
▁sells	-4099
▁tells	-4100
arently	-4101
▁begged	-4102
▁encour	-4103
▁expert	-4104
▁genius	-4105
▁lately	-4106
▁shared	-4107
▁Neither	-4108
▁capable	-4109
▁dreamed	-4110
▁fashion	-4111
▁growing	-4112
▁hunting	-4113
▁kissing	-4114
▁nowhere	-4115
▁predict	-4116
▁receive	-4117
▁silence	-4118
▁staring	-4119
▁annoying	-4120
▁communic	-4121
▁incident	-4122
▁murdered	-4123
▁nonsense	-4124
▁computers	-4125
▁conscious	-4126
▁direction	-4127
▁discussed	-4128
▁forgetful	-4129
▁professor	-4130
▁cigarettes	-4131
▁helicopter	-4132
▁introduced	-4133
▁recognized	-4134
▁electricity	-4135
▁embarrassing	-4136
raw	-4137
▁Oh	-4138
▁Se	-4139
▁bi	-4140
erve	-4141
ivil	-4142
lies	-4143
ompl	-4144
word	-4145
▁Fin	-4146
▁jam	-4147
▁rub	-4148
▁sou	-4149
denly	-4150
icago	-4151
owing	-4152
utter	-4153
▁Lear	-4154
▁conn	-4155
▁flew	-4156
▁lion	-4157
▁loss	-4158
▁whis	-4159
employ	-4160
struct	-4161
▁Check	-4162
▁adopt	-4163
▁ambul	-4164
▁freed	-4165
▁glove	-4166
▁poems	-4167
▁reput	-4168
▁salad	-4169
▁scene	-4170
▁seats	-4171
▁sings	-4172
▁skill	-4173
▁techn	-4174
▁twins	-4175
▁weigh	-4176
hibited	-4177
onsider	-4178
▁astron	-4179
▁closer	-4180
▁drawer	-4181
▁gained	-4182
▁grapes	-4183
▁incred	-4184
▁invent	-4185
▁poison	-4186
▁repeat	-4187
▁throat	-4188
▁trains	-4189
▁wished	-4190
▁Chicago	-4191
▁average	-4192
▁elected	-4193
▁increas	-4194
▁removed	-4195
▁shorter	-4196
▁Suddenly	-4197
▁bleeding	-4198
▁canceled	-4199
▁deserves	-4200
▁kindness	-4201
▁occurred	-4202
▁presents	-4203
▁visiting	-4204
▁persuaded	-4205
▁strangers	-4206
▁prohibited	-4207
▁remembered	-4208
▁reputation	-4209
▁suggestion	-4210
cts	-4211
kay	-4212
oll	-4213
sed	-4214
▁Ar	-4215
▁En	-4216
ives	-4217
vere	-4218
▁foc	-4219
▁tig	-4220
▁tor	-4221
▁var	-4222
abbed	-4223
cycle	-4224
ratul	-4225
rease	-4226
▁Shut	-4227
▁Wash	-4228
▁carp	-4229
▁chem	-4230
▁crop	-4231
▁decl	-4232
▁deer	-4233
▁deny	-4234
▁dust	-4235
▁fold	-4236
▁fork	-4237
▁kidn	-4238
▁okay	-4239
▁poet	-4240
▁shed	-4241
▁task	-4242
▁thor	-4243
▁unus	-4244
▁wave	-4245
ential	-4246
▁Afric	-4247
▁anger	-4248
▁appet	-4249
▁boots	-4250
▁earns	-4251
▁equal	-4252
▁freez	-4253
▁hello	-4254
▁ignor	-4255
▁metho	-4256
▁model	-4257
▁negot	-4258
▁pants	-4259
▁plant	-4260
▁reads	-4261
▁reply	-4262
▁sales	-4263
▁thick	-4264
▁withd	-4265
▁Almost	-4266
▁action	-4267
▁battle	-4268
▁danced	-4269
▁defend	-4270
▁doubts	-4271
▁gloves	-4272
▁leaned	-4273
▁planet	-4274
▁plants	-4275
expected	-4276
▁accompl	-4277
▁advance	-4278
▁anxious	-4279
▁divorce	-4280
▁economy	-4281
▁greeted	-4282
▁heavily	-4283
▁options	-4284
▁reasons	-4285
▁regular	-4286
▁respond	-4287
▁service	-4288
▁smarter	-4289
▁touched	-4290
▁wounded	-4291
▁crossing	-4292
▁politics	-4293
▁properly	-4294
▁screamed	-4295
▁thirteen	-4296
▁thorough	-4297
▁ambulance	-4298
▁destroyed	-4299
▁wondering	-4300
▁motorcycle	-4301
▁newspapers	-4302
▁photograph	-4303
ph	-4304
xy	-4305
Yes	-4306
ata	-4307
azz	-4308
dom	-4309
oom	-4310
▁Ab	-4311
▁Br	-4312
▁Bu	-4313
▁Gu	-4314
bage	-4315
cast	-4316
fety	-4317
ingu	-4318
mble	-4319
yond	-4320
▁Act	-4321
▁Dad	-4322
▁Rep	-4323
▁jew	-4324
▁nap	-4325
▁ver	-4326
alled	-4327
bborn	-4328
ilies	-4329
ledge	-4330
ption	-4331
▁June	-4332
▁Next	-4333
▁file	-4334
▁hall	-4335
▁knee	-4336
▁loan	-4337
▁mark	-4338
▁sail	-4339
▁spin	-4340
▁apply	-4341
▁coins	-4342
▁oppos	-4343
▁optim	-4344
▁south	-4345
▁stren	-4346
▁trick	-4347
ference	-4348
▁admire	-4349
▁announ	-4350
▁beyond	-4351
▁claims	-4352
▁conven	-4353
▁dating	-4354
▁determ	-4355
▁explos	-4356
▁hidden	-4357
▁ignore	-4358
▁interp	-4359
▁ladder	-4360
▁parked	-4361
▁places	-4362
▁priest	-4363
▁reserv	-4364
▁screen	-4365
▁served	-4366
▁severe	-4367
▁wishes	-4368
▁British	-4369
▁barking	-4370
▁charged	-4371
▁cousins	-4372
▁degrees	-4373
▁delayed	-4374
▁drunken	-4375
▁granted	-4376
▁improve	-4377
▁peanuts	-4378
▁peeling	-4379
▁quality	-4380
▁quietly	-4381
▁science	-4382
▁shouted	-4383
▁watches	-4384
▁weapons	-4385
▁exchange	-4386
▁insisted	-4387
▁national	-4388
▁notebook	-4389
▁occasion	-4390
▁password	-4391
▁pregnant	-4392
▁pressure	-4393
▁relative	-4394
▁stubborn	-4395
▁upstairs	-4396
▁Canadians	-4397
▁construct	-4398
▁classmates	-4399
▁importance	-4400
▁profession	-4401
▁unexpected	-4402
▁concentrate	-4403
gy	-4404
pa	-4405
iny	-4406
ped	-4407
▁Hi	-4408
▁Re	-4409
alse	-4410
case	-4411
hoon	-4412
illy	-4413
ites	-4414
lead	-4415
mail	-4416
oker	-4417
osqu	-4418
uary	-4419
year	-4420
▁201	-4421
▁Spr	-4422
▁adj	-4423
▁ast	-4424
▁err	-4425
▁fog	-4426
▁fre	-4427
▁obs	-4428
▁pet	-4429
▁vit	-4430
aches	-4431
derer	-4432
ember	-4433
icing	-4434
rance	-4435
unate	-4436
▁Hang	-4437
▁cave	-4438
▁debt	-4439
▁ease	-4440
▁jazz	-4441
▁lawn	-4442
▁reve	-4443
▁rode	-4444
▁shoe	-4445
▁stat	-4446
atient	-4447
leased	-4448
velope	-4449
▁Start	-4450
▁baked	-4451
▁brand	-4452
▁burgl	-4453
▁burst	-4454
▁const	-4455
▁decor	-4456
▁false	-4457
▁force	-4458
▁grown	-4459
▁issue	-4460
▁mosqu	-4461
▁ocean	-4462
▁psych	-4463
▁roses	-4464
▁rumor	-4465
▁shame	-4466
▁stops	-4467
▁sushi	-4468
glasses	-4469
ization	-4470
ometers	-4471
▁Spring	-4472
▁charac	-4473
▁damage	-4474
▁desert	-4475
▁fridge	-4476
▁height	-4477
▁lesson	-4478
▁manage	-4479
▁negoti	-4480
▁rabbit	-4481
▁rented	-4482
▁weapon	-4483
▁However	-4484
▁adopted	-4485
▁baggage	-4486
▁bottles	-4487
▁breathe	-4488
▁complex	-4489
▁concern	-4490
▁contest	-4491
▁despise	-4492
▁develop	-4493
▁divided	-4494
▁efforts	-4495
▁garbage	-4496
▁pointed	-4497
▁prevent	-4498
▁typhoon	-4499
▁unusual	-4500
▁arriving	-4501
▁carrying	-4502
▁compared	-4503
▁employee	-4504
▁envelope	-4505
▁horrible	-4506
▁imagined	-4507
▁instruct	-4508
▁murderer	-4509
▁opposite	-4510
▁personal	-4511
▁prisoner	-4512
▁restless	-4513
▁strength	-4514
▁conceited	-4515
▁confessed	-4516
▁congratul	-4517
▁explosion	-4518
▁impatient	-4519
▁preparing	-4520
▁collecting	-4521
▁confidence	-4522
▁downstairs	-4523
▁kilometers	-4524
▁personally	-4525
bow	-4526
erk	-4527
ern	-4528
iev	-4529
ril	-4530
yle	-4531
▁Ad	-4532
lley	-4533
rupt	-4534
uded	-4535
▁And	-4536
▁Dis	-4537
▁Haw	-4538
▁Tha	-4539
▁arr	-4540
▁dim	-4541
▁eld	-4542
▁hug	-4543
▁ink	-4544
▁mic	-4545
▁nin	-4546
▁rom	-4547
▁spo	-4548
▁van	-4549
▁web	-4550
adays	-4551
agers	-4552
agger	-4553
allow	-4554
ankly	-4555
aptop	-4556
cence	-4557
ittee	-4558
known	-4559
stery	-4560
▁More	-4561
▁Pres	-4562
▁ange	-4563
▁chew	-4564
▁drew	-4565
▁fate	-4566
▁hers	-4567
▁owns	-4568
▁spot	-4569
▁teen	-4570
▁upon	-4571
▁valu	-4572
▁visa	-4573
▁wide	-4574
cially	-4575
ducted	-4576
erally	-4577
uggled	-4578
urance	-4579
▁Alice	-4580
▁April	-4581
▁Yours	-4582
▁coinc	-4583
▁disag	-4584
▁grave	-4585
▁harsh	-4586
▁hired	-4587
▁honor	-4588
▁influ	-4589
▁memor	-4590
▁mouse	-4591
▁plate	-4592
▁sheep	-4593
▁shook	-4594
▁speed	-4595
▁spell	-4596
▁squee	-4597
▁stake	-4598
▁stove	-4599
▁sunny	-4600
▁swear	-4601
▁taxes	-4602
▁toler	-4603
▁treas	-4604
▁trunk	-4605
▁Dinner	-4606
▁Intern	-4607
▁access	-4608
▁bitter	-4609
▁bullet	-4610
▁causes	-4611
▁chosen	-4612
▁cities	-4613
▁colors	-4614
▁decent	-4615
▁double	-4616
▁fairly	-4617
▁hugged	-4618
▁income	-4619
▁laptop	-4620
▁meters	-4621
▁method	-4622
▁nature	-4623
▁oldest	-4624
▁papers	-4625
▁rarely	-4626
▁reject	-4627
▁silver	-4628
▁snakes	-4629
▁snowed	-4630
▁unfair	-4631
▁volley	-4632
▁volunt	-4633
▁Italian	-4634
▁alcohol	-4635
▁ceiling	-4636
▁cheaper	-4637
▁closely	-4638
▁contrib	-4639
▁elephan	-4640
▁engaged	-4641
▁exagger	-4642
▁figured	-4643
▁listens	-4644
▁mystery	-4645
▁package	-4646
▁perform	-4647
▁planned	-4648
▁players	-4649
▁pronoun	-4650
▁remains	-4651
▁rescued	-4652
▁scenery	-4653
▁selling	-4654
▁stabbed	-4655
▁wasting	-4656
▁babbling	-4657
▁describe	-4658
▁dreaming	-4659
▁entrance	-4660
▁families	-4661
▁products	-4662
▁raincoat	-4663
▁surround	-4664
▁terrific	-4665
▁committee	-4666
▁decisions	-4667
▁exception	-4668
▁insurance	-4669
▁scientist	-4670
▁separated	-4671
▁conference	-4672
▁sunglasses	-4673
▁volleyball	-4674
▁outstanding	-4675
▁instructions	-4676
do	-4677
bon	-4678
box	-4679
ole	-4680
son	-4681
umn	-4682
atic	-4683
ears	-4684
hips	-4685
iles	-4686
llen	-4687
unte	-4688
▁Cal	-4689
▁Eve	-4690
▁Run	-4691
▁Sum	-4692
▁fur	-4693
▁lux	-4694
▁nar	-4695
▁ner	-4696
▁pig	-4697
▁sax	-4698
▁tar	-4699
▁wha	-4700
aries	-4701
eered	-4702
holic	-4703
overy	-4704
xygen	-4705
▁Fill	-4706
▁Once	-4707
▁Play	-4708
▁bare	-4709
▁coun	-4710
▁firm	-4711
▁hoax	-4712
▁leak	-4713
▁mass	-4714
▁quar	-4715
▁rare	-4716
▁symp	-4717
▁ways	-4718
iverse	-4719
ophone	-4720
▁begun	-4721
▁bowed	-4722
▁cheer	-4723
▁gifts	-4724
▁hoped	-4725
▁level	-4726
▁pilot	-4727
▁poker	-4728
▁punct	-4729
▁revol	-4730
▁screw	-4731
▁shock	-4732
▁stage	-4733
▁stamp	-4734
▁sweat	-4735
▁terms	-4736
▁unrel	-4737
▁vitam	-4738
achache	-4739
▁Africa	-4740
▁Follow	-4741
▁banged	-4742
▁coward	-4743
▁desper	-4744
▁framed	-4745
▁lovely	-4746
▁policy	-4747
▁riding	-4748
▁rights	-4749
▁sewing	-4750
▁target	-4751
▁toothp	-4752
employed	-4753
▁Russian	-4754
▁absence	-4755
▁amusing	-4756
▁burning	-4757
▁damaged	-4758
▁hanging	-4759
▁helpful	-4760
▁journal	-4761
▁manners	-4762
▁mission	-4763
▁quarter	-4764
▁require	-4765
▁selfish	-4766
▁shocked	-4767
▁society	-4768
▁volunte	-4769
▁Whatever	-4770
▁demanded	-4771
▁distingu	-4772
▁hesitate	-4773
▁intended	-4774
▁interpre	-4775
▁keyboard	-4776
▁material	-4777
▁particip	-4778
▁presence	-4779
▁suitable	-4780
▁disguised	-4781
▁political	-4782
▁sensitive	-4783
▁suffering	-4784
▁appearance	-4785
▁blackboard	-4786
▁impression	-4787
▁threatened	-4788
▁Fortunately	-4789
▁imagination	-4790
▁stomachache	-4791
2.	-4792
lo	-4793
igr	-4794
leg	-4795
nel	-4796
nes	-4797
okk	-4798
rog	-4799
uff	-4800
▁cy	-4801
aido	-4802
corn	-4803
dded	-4804
ency	-4805
irds	-4806
ucky	-4807
umst	-4808
wise	-4809
writ	-4810
▁Lin	-4811
▁Ten	-4812
▁Win	-4813
▁bal	-4814
▁gro	-4815
▁hyp	-4816
▁pou	-4817
▁rot	-4818
▁tid	-4819
arant	-4820
ators	-4821
chite	-4822
erved	-4823
iring	-4824
sters	-4825
store	-4826
urity	-4827
▁Cont	-4828
▁Face	-4829
▁Hand	-4830
▁Hokk	-4831
▁Pass	-4832
▁Save	-4833
▁Such	-4834
▁asse	-4835
▁comb	-4836
▁craw	-4837
▁cree	-4838
▁cups	-4839
▁data	-4840
▁earn	-4841
▁espe	-4842
▁goat	-4843
▁iPad	-4844
▁imit	-4845
▁magn	-4846
▁mild	-4847
▁poll	-4848
▁stew	-4849
▁twin	-4850
orrect	-4851
▁Hawai	-4852
▁South	-4853
▁While	-4854
▁adult	-4855
▁beans	-4856
▁civil	-4857
▁concl	-4858
▁conse	-4859
▁court	-4860
▁faith	-4861
▁foods	-4862
▁frame	-4863
▁knock	-4864
▁lemon	-4865
▁maybe	-4866
▁nails	-4867
▁pages	-4868
▁proof	-4869
▁purse	-4870
▁rainy	-4871
▁rough	-4872
▁scare	-4873
▁scary	-4874
▁shake	-4875
▁split	-4876
▁tower	-4877
▁turns	-4878
▁Forget	-4879
▁cancel	-4880
▁grades	-4881
▁hammer	-4882
▁leader	-4883
▁narrow	-4884
▁nerves	-4885
▁orphan	-4886
▁poured	-4887
▁resour	-4888
▁safety	-4889
▁switch	-4890
▁thanks	-4891
▁treaty	-4892
lication	-4893
▁Welcome	-4894
▁Whoever	-4895
▁apology	-4896
▁approve	-4897
▁archite	-4898
▁biggest	-4899
▁challen	-4900
▁cottage	-4901
▁crashed	-4902
▁crowded	-4903
▁fainted	-4904
▁finding	-4905
▁grabbed	-4906
▁guarant	-4907
▁opening	-4908
▁opposed	-4909
▁parking	-4910
▁popcorn	-4911
▁typical	-4912
▁vegetar	-4913
▁warning	-4914
▁Hokkaido	-4915
▁Internet	-4916
▁Remember	-4917
▁abducted	-4918
▁approved	-4919
▁attitude	-4920
▁breaking	-4921
▁careless	-4922
▁disaster	-4923
▁drowning	-4924
▁enjoying	-4925
▁informed	-4926
▁register	-4927
▁released	-4928
▁spending	-4929
▁universe	-4930
▁attempted	-4931
▁innocence	-4932
▁knowledge	-4933
▁obviously	-4934
▁promotion	-4935
▁sentenced	-4936
▁convenient	-4937
▁especially	-4938
▁punishment	-4939
▁toothpaste	-4940
▁unreliable	-4941
FO	-4942
ym	-4943
ama	-4944
ano	-4945
cip	-4946
jam	-4947
met	-4948
nam	-4949
now	-4950
▁Fl	-4951
▁Sc	-4952
aire	-4953
aise	-4954
fers	-4955
five	-4956
iens	-4957
iron	-4958
mate	-4959
mber	-4960
▁200	-4961
▁Air	-4962
▁Bel	-4963
▁Jud	-4964
▁Man	-4965
▁Pay	-4966
▁avo	-4967
▁coo	-4968
▁gri	-4969
▁log	-4970
▁non	-4971
▁pal	-4972
▁row	-4973
aving	-4974
iches	-4975
ierce	-4976
iform	-4977
rices	-4978
tured	-4979
▁Dogs	-4980
▁Tues	-4981
▁asks	-4982
▁bowl	-4983
▁ends	-4984
▁junk	-4985
▁lent	-4986
▁lugg	-4987
▁meas	-4988
▁owes	-4989
▁port	-4990
▁slam	-4991
▁soap	-4992
▁spec	-4993
▁trad	-4994
ective	-4995
issors	-4996
▁Enjoy	-4997
▁aside	-4998
▁budge	-4999
▁crack	-5000
▁delay	-5001
▁doors	-5002
▁dozen	-5003
▁finan	-5004
▁gramm	-5005
▁hunch	-5006
▁knees	-5007
▁lacks	-5008
▁lower	-5009
▁meals	-5010
▁mirac	-5011
▁overs	-5012
▁risks	-5013
▁rooms	-5014
▁silly	-5015
▁skate	-5016
▁state	-5017
▁sweep	-5018
ologist	-5019
▁Hawaii	-5020
▁Prices	-5021
▁adults	-5022
▁aliens	-5023
▁behave	-5024
▁commit	-5025
▁dollar	-5026
▁enjoys	-5027
▁nation	-5028
▁nearby	-5029
▁nodded	-5030
▁pillow	-5031
▁resist	-5032
▁resort	-5033
▁retire	-5034
▁reward	-5035
▁seated	-5036
▁settle	-5037
▁social	-5038
▁stands	-5039
▁surren	-5040
▁theirs	-5041
▁wealth	-5042
▁Frankly	-5043
▁Tuesday	-5044
▁Washing	-5045
▁avoided	-5046
▁boiling	-5047
▁checked	-5048
▁cheered	-5049
▁devoted	-5050
▁environ	-5051
▁further	-5052
▁grandpa	-5053
▁happier	-5054
▁holding	-5055
▁insects	-5056
▁killing	-5057
▁located	-5058
▁luggage	-5059
▁medical	-5060
▁mosquit	-5061
▁painter	-5062
▁pressed	-5063
▁putting	-5064
▁regards	-5065
▁savings	-5066
▁secrets	-5067
▁streets	-5068
▁tourist	-5069
▁uniform	-5070
umstances	-5071
▁absolute	-5072
▁appetite	-5073
▁deserved	-5074
▁eyesight	-5075
▁increase	-5076
▁pleasure	-5077
▁powerful	-5078
▁rejected	-5079
▁repeated	-5080
▁scissors	-5081
▁sweating	-5082
▁thrilled	-5083
▁treasure	-5084
▁Generally	-5085
▁authority	-5086
▁cellphone	-5087
▁classical	-5088
▁magazines	-5089
▁operation	-5090
▁recovered	-5091
▁saxophone	-5092
▁suitcases	-5093
▁apparently	-5094
▁journalist	-5095
▁remarkable	-5096
▁sandwiches	-5097
▁application	-5098
▁coincidence	-5099
▁competition	-5100
▁reservation	-5101
▁volunteered	-5102
▁understanding	-5103
ks	-5104
lk	-5105
bum	-5106
ixt	-5107
mar	-5108
rig	-5109
zzy	-5110
▁Co	-5111
▁Te	-5112
arch	-5113
bell	-5114
coln	-5115
eans	-5116
gger	-5117
icip	-5118
iped	-5119
izes	-5120
swer	-5121
uled	-5122
vant	-5123
yard	-5124
▁Col	-5125
▁Cut	-5126
▁Hun	-5127
▁Pol	-5128
▁bas	-5129
▁gym	-5130
▁lat	-5131
▁led	-5132
▁odd	-5133
▁ord	-5134
▁rac	-5135
▁tip	-5136
epend	-5137
house	-5138
jamas	-5139
ropri	-5140
stick	-5141
tered	-5142
▁Park	-5143
▁atom	-5144
▁belt	-5145
▁boil	-5146
▁cage	-5147
▁carr	-5148
▁clar	-5149
▁dare	-5150
▁guns	-5151
▁oven	-5152
▁pens	-5153
▁pink	-5154
▁puts	-5155
▁qual	-5156
▁rush	-5157
▁snee	-5158
▁tore	-5159
ushing	-5160
▁Bible	-5161
▁Birds	-5162
▁Break	-5163
▁Clear	-5164
▁Drink	-5165
▁album	-5166
▁below	-5167
▁blond	-5168
▁brain	-5169
▁contr	-5170
▁crown	-5171
▁dizzy	-5172
▁faces	-5173
▁faint	-5174
▁falls	-5175
▁forty	-5176
▁guard	-5177
▁local	-5178
▁owner	-5179
▁snake	-5180
▁spoon	-5181
▁stays	-5182
athered	-5183
writing	-5184
▁Answer	-5185
▁Before	-5186
▁Korean	-5187
▁Russia	-5188
▁assure	-5189
▁beside	-5190
▁blamed	-5191
▁border	-5192
▁candle	-5193
▁career	-5194
▁fierce	-5195
▁heater	-5196
▁higher	-5197
▁humili	-5198
▁intern	-5199
▁latest	-5200
▁luxury	-5201
▁makeup	-5202
▁mobile	-5203
▁monkey	-5204
▁oxygen	-5205
▁prince	-5206
▁reluct	-5207
▁rising	-5208
▁smokes	-5209
▁struck	-5210
▁warmer	-5211
▁Lincoln	-5212
▁acquain	-5213
▁admired	-5214
▁consequ	-5215
▁content	-5216
▁furious	-5217
▁haircut	-5218
▁jogging	-5219
▁lottery	-5220
▁numbers	-5221
▁painful	-5222
▁pajamas	-5223
▁picking	-5224
▁showing	-5225
▁trigger	-5226
▁unknown	-5227
▁Actually	-5228
▁approach	-5229
▁cheating	-5230
▁citizens	-5231
▁eighteen	-5232
▁fluently	-5233
▁independ	-5234
▁punctual	-5235
▁reminded	-5236
▁romantic	-5237
▁searched	-5238
▁tourists	-5239
▁underest	-5240
▁valuable	-5241
▁worrying	-5242
▁President	-5243
▁according	-5244
▁bookstore	-5245
▁completed	-5246
▁documents	-5247
▁published	-5248
▁seventeen	-5249
▁tradition	-5250
▁automobile	-5251
▁department	-5252
▁determined	-5253
▁encouraged	-5254
▁foreigners	-5255
▁practicing	-5256
▁communicate	-5257
▁distinguish	-5258
▁environment	-5259
▁fascinating	-5260
▁handwriting	-5261
▁professional	-5262
▁circumstances	-5263
▁responsibility	-5264
?"	-5265
It	-5266
gu	-5267
00.	-5268
bly	-5269
ept	-5270
ids	-5271
int	-5272
min	-5273
udy	-5274
▁11	-5275
▁Or	-5276
▁hy	-5277
aves	-5278
fact	-5279
iber	-5280
ival	-5281
made	-5282
oudy	-5283
roll	-5284
▁But	-5285
▁gam	-5286
▁hom	-5287
▁joy	-5288
▁lip	-5289
▁shr	-5290
▁vot	-5291
ardon	-5292
lance	-5293
onest	-5294
shirt	-5295
ungle	-5296
▁Cook	-5297
▁Five	-5298
▁Happ	-5299
▁Sing	-5300
▁Walk	-5301
▁item	-5302
▁lamp	-5303
▁lips	-5304
▁nail	-5305
▁path	-5306
▁rate	-5307
▁sank	-5308
▁soul	-5309
▁stun	-5310
▁tent	-5311
▁tire	-5312
▁toys	-5313
▁tune	-5314
▁wand	-5315
▁west	-5316
thirty	-5317
▁2013.	-5318
▁Guess	-5319
▁North	-5320
▁Stand	-5321
▁Study	-5322
▁added	-5323
▁angel	-5324
▁arrow	-5325
▁beard	-5326
▁bills	-5327
▁buses	-5328
▁coach	-5329
▁deleg	-5330
▁erase	-5331
▁exams	-5332
▁flour	-5333
▁frequ	-5334
▁humor	-5335
▁loose	-5336
▁loses	-5337
▁minor	-5338
▁notes	-5339
▁occup	-5340
▁parts	-5341
▁pound	-5342
▁scarf	-5343
▁shape	-5344
▁shove	-5345
▁shows	-5346
▁spade	-5347
▁stock	-5348
▁stool	-5349
▁straw	-5350
▁super	-5351
▁swims	-5352
▁thumb	-5353
▁troub	-5354
▁wheat	-5355
▁wings	-5356
ressing	-5357
▁Anyone	-5358
▁Summer	-5359
▁accent	-5360
▁advise	-5361
▁amazed	-5362
▁calcul	-5363
▁chairs	-5364
▁cloudy	-5365
▁dislik	-5366
▁earned	-5367
▁fluent	-5368
▁frozen	-5369
▁headed	-5370
▁joined	-5371
▁jungle	-5372
▁loudly	-5373
▁myster	-5374
▁packed	-5375
▁purcha	-5376
▁rotten	-5377
▁source	-5378
▁sympat	-5379
▁terror	-5380
ropriate	-5381
▁arrival	-5382
▁arrives	-5383
▁becomes	-5384
▁closest	-5385
▁consult	-5386
▁culture	-5387
▁dealing	-5388
▁digging	-5389
▁drowned	-5390
▁earring	-5391
▁excuses	-5392
▁freedom	-5393
▁harvest	-5394
▁longest	-5395
▁officer	-5396
▁pencils	-5397
▁pockets	-5398
▁possess	-5399
▁princip	-5400
▁provide	-5401
▁relaxed	-5402
▁retired	-5403
▁stepped	-5404
▁violent	-5405
▁whistle	-5406
▁achieved	-5407
▁charming	-5408
▁climbing	-5409
▁contains	-5410
▁counting	-5411
▁criminal	-5412
▁deceived	-5413
▁forecast	-5414
▁forehead	-5415
▁gathered	-5416
▁generous	-5417
▁helpless	-5418
▁improved	-5419
▁insulted	-5420
▁mosquito	-5421
▁ordinary	-5422
▁thoughts	-5423
▁unlocked	-5424
▁visitors	-5425
▁assistant	-5426
▁briefcase	-5427
▁currently	-5428
▁daughters	-5429
▁financial	-5430
▁generally	-5431
▁lightning	-5432
▁mentioned	-5433
▁pronounce	-5434
▁resources	-5435
▁treatment	-5436
▁Washington	-5437
▁complaints	-5438
▁surprising	-5439
▁surrounded	-5440
▁independent	-5441
▁interpreter	-5442
▁difficulties	-5443
ev	-5444
uk	-5445
aly	-5446
ara	-5447
bet	-5448
eat	-5449
ibi	-5450
ocr	-5451
ses	-5452
thi	-5453
▁Gr	-5454
▁Kn	-5455
▁ly	-5456
anta	-5457
geon	-5458
gery	-5459
ilos	-5460
load	-5461
moon	-5462
owed	-5463
plom	-5464
tles	-5465
▁Add	-5466
▁Hot	-5467
▁Jan	-5468
▁Men	-5469
▁Pic	-5470
▁Str	-5471
▁Wed	-5472
▁hel	-5473
▁ket	-5474
▁pin	-5475
▁scr	-5476
althy	-5477
arily	-5478
avery	-5479
fight	-5480
iders	-5481
istry	-5482
ogram	-5483
venge	-5484
wards	-5485
▁Four	-5486
▁Sign	-5487
▁Wake	-5488
▁bags	-5489
▁butt	-5490
▁fake	-5491
▁fauc	-5492
▁jury	-5493
▁pipe	-5494
▁plus	-5495
▁sett	-5496
▁silk	-5497
▁swam	-5498
▁unhe	-5499
▁wolf	-5500
alling	-5501
cience	-5502
ealand	-5503
handed	-5504
icated	-5505
ichest	-5506
ilosop	-5507
inated	-5508
phabet	-5509
▁Being	-5510
▁activ	-5511
▁aimed	-5512
▁aspir	-5513
▁bribe	-5514
▁broom	-5515
▁cakes	-5516
▁chalk	-5517
▁crops	-5518
▁dried	-5519
▁error	-5520
▁fifth	-5521
▁focus	-5522
▁jeans	-5523
▁liter	-5524
▁lyric	-5525
▁metal	-5526
▁north	-5527
▁plain	-5528
▁spicy	-5529
▁stret	-5530
▁style	-5531
▁truly	-5532
▁walls	-5533
ichever	-5534
▁Choose	-5535
▁Disney	-5536
▁Picass	-5537
▁active	-5538
▁agrees	-5539
▁argued	-5540
▁autumn	-5541
▁budget	-5542
▁bumped	-5543
▁cookie	-5544
▁dancer	-5545
▁diplom	-5546
▁farmer	-5547
▁hatred	-5548
▁indust	-5549
▁misses	-5550
▁online	-5551
▁racket	-5552
▁robber	-5553
▁square	-5554
▁squeak	-5555
▁suffer	-5556
▁sunset	-5557
▁tigers	-5558
▁turkey	-5559
▁uncons	-5560
▁upside	-5561
▁wooden	-5562
antastic	-5563
▁Clearly	-5564
▁January	-5565
▁aggress	-5566
▁anticip	-5567
▁anytime	-5568
▁applied	-5569
▁bananas	-5570
▁carrots	-5571
▁comment	-5572
▁connect	-5573
▁defense	-5574
▁dislike	-5575
▁doctors	-5576
▁drawing	-5577
▁dresses	-5578
▁mislead	-5579
▁mistook	-5580
▁physics	-5581
▁prefers	-5582
▁protest	-5583
▁richest	-5584
▁section	-5585
▁solving	-5586
▁unlucky	-5587
▁Anything	-5588
▁Facebook	-5589
▁Learning	-5590
▁alphabet	-5591
▁comments	-5592
▁defeated	-5593
▁entering	-5594
▁expenses	-5595
▁normally	-5596
▁postpone	-5597
▁princess	-5598
▁property	-5599
▁provided	-5600
▁security	-5601
▁separate	-5602
▁sometime	-5603
▁supplies	-5604
▁accompany	-5605
▁announced	-5606
▁astronaut	-5607
▁character	-5608
▁competent	-5609
▁desperate	-5610
▁honeymoon	-5611
▁otherwise	-5612
▁overslept	-5613
▁prisoners	-5614
▁remembers	-5615
▁searching	-5616
▁secretary	-5617
▁suspected	-5618
▁whichever	-5619
▁disgusting	-5620
▁increasing	-5621
▁instrument	-5622
▁optimistic	-5623
▁politician	-5624
▁appreciated	-5625
▁celebrating	-5626
▁composition	-5627
▁politicians	-5628
▁unconscious	-5629
!"	-5630
lc	-5631
ero	-5632
fet	-5633
iod	-5634
lph	-5635
oha	-5636
oos	-5637
oot	-5638
sis	-5639
ulf	-5640
ums	-5641
▁da	-5642
▁dy	-5643
ales	-5644
iece	-5645
inet	-5646
ints	-5647
ivid	-5648
lied	-5649
mare	-5650
mind	-5651
rain	-5652
sper	-5653
view	-5654
wood	-5655
▁Exp	-5656
▁ack	-5657
▁bot	-5658
▁fan	-5659
▁lab	-5660
▁mud	-5661
▁ple	-5662
▁pra	-5663
▁suf	-5664
esome	-5665
ilton	-5666
ocrat	-5667
overs	-5668
rated	-5669
rogen	-5670
▁Arab	-5671
▁Food	-5672
▁July	-5673
▁Luck	-5674
▁Part	-5675
▁ages	-5676
▁disp	-5677
▁dyed	-5678
▁fits	-5679
▁forb	-5680
▁frog	-5681
▁gang	-5682
▁irre	-5683
▁maid	-5684
▁pear	-5685
▁pled	-5686
▁prec	-5687
▁ruin	-5688
▁sunb	-5689
▁welc	-5690
▁yard	-5691
illing	-5692
minded	-5693
nesday	-5694
▁About	-5695
▁Doesn	-5696
▁Great	-5697
▁Greek	-5698
▁Hotel	-5699
▁Raise	-5700
▁Santa	-5701
▁based	-5702
▁boxes	-5703
▁breed	-5704
▁burns	-5705
▁campa	-5706
▁cared	-5707
▁cloth	-5708
▁cooks	-5709
▁creep	-5710
▁deals	-5711
▁depos	-5712
▁disor	-5713
▁eager	-5714
▁essay	-5715
▁estab	-5716
▁finds	-5717
▁freak	-5718
▁goods	-5719
▁goose	-5720
▁homes	-5721
▁legal	-5722
▁lines	-5723
▁medal	-5724
▁outdo	-5725
▁scrap	-5726
▁sides	-5727
▁steak	-5728
▁sting	-5729
▁suits	-5730
▁track	-5731
▁unatt	-5732
▁windy	-5733
ousands	-5734
▁Having	-5735
▁Though	-5736
▁acknow	-5737
▁advent	-5738
▁blouse	-5739
▁candid	-5740
▁carpet	-5741
▁chores	-5742
▁circle	-5743
▁driven	-5744
▁fooled	-5745
▁gather	-5746
▁lyrics	-5747
▁potato	-5748
▁repres	-5749
▁rescue	-5750
▁rubbed	-5751
▁scarce	-5752
▁skinny	-5753
▁stress	-5754
▁strike	-5755
▁tasted	-5756
▁treats	-5757
▁victim	-5758
▁Anybody	-5759
▁Picasso	-5760
▁Playing	-5761
▁aspirin	-5762
▁battery	-5763
▁beating	-5764
▁blanket	-5765
▁candles	-5766
▁charity	-5767
▁conceal	-5768
▁honesty	-5769
▁hurried	-5770
▁leather	-5771
▁miracle	-5772
▁pianist	-5773
▁seatbel	-5774
▁shallow	-5775
▁shining	-5776
▁slipped	-5777
▁surgery	-5778
▁various	-5779
▁Consider	-5780
▁avoiding	-5781
▁clothing	-5782
▁consists	-5783
▁economic	-5784
▁elephant	-5785
▁forgiven	-5786
▁graduate	-5787
▁hundreds	-5788
▁kilogram	-5789
▁meetings	-5790
▁necklace	-5791
▁novelist	-5792
▁reliable	-5793
▁relieved	-5794
▁religion	-5795
▁secretly	-5796
▁squeezed	-5797
▁strawber	-5798
▁suffered	-5799
▁terribly	-5800
▁welcomed	-5801
▁Christian	-5802
▁Thousands	-5803
▁Wednesday	-5804
▁answering	-5805
▁attracted	-5806
▁bothering	-5807
▁buildings	-5808
▁customers	-5809
▁described	-5810
▁effective	-5811
▁essential	-5812
▁foreigner	-5813
▁guarantee	-5814
▁ignorance	-5815
▁influence	-5816
▁invention	-5817
▁kidnapped	-5818
▁nightmare	-5819
▁postponed	-5820
▁unhealthy	-5821
▁volunteer	-5822
▁accomplish	-5823
▁collection	-5824
▁disturbing	-5825
▁unemployed	-5826
▁description	-5827
▁interrupted	-5828
▁millionaire	-5829
▁personality	-5830
▁construction	-5831
▁particularly	-5832
▁international	-5833
▁underestimate	-5834
ale	-5835
alf	-5836
asy	-5837
bag	-5838
eag	-5839
eed	-5840
hus	-5841
ipt	-5842
isp	-5843
itz	-5844
jud	-5845
ked	-5846
lin	-5847
ndy	-5848
uls	-5849
urd	-5850
urs	-5851
▁12	-5852
▁Sl	-5853
▁nu	-5854
anch	-5855
assy	-5856
atin	-5857
cure	-5858
fire	-5859
food	-5860
hlet	-5861
ials	-5862
ifle	-5863
mosp	-5864
oard	-5865
oyal	-5866
resp	-5867
town	-5868
ural	-5869
vert	-5870
walk	-5871
ware	-5872
▁Bus	-5873
▁Cat	-5874
▁Min	-5875
▁Sho	-5876
▁Yes	-5877
▁mix	-5878
▁rew	-5879
▁rib	-5880
▁sac	-5881
▁sem	-5882
▁sir	-5883
▁spr	-5884
▁spy	-5885
▁unb	-5886
▁unw	-5887
aming	-5888
iding	-5889
igned	-5890
inals	-5891
irmed	-5892
osity	-5893
▁Asia	-5894
▁Grab	-5895
▁Half	-5896
▁King	-5897
▁Push	-5898
▁Shak	-5899
▁Stud	-5900
▁Swim	-5901
▁coal	-5902
▁cops	-5903
▁cure	-5904
▁dawn	-5905
▁dism	-5906
▁hook	-5907
▁host	-5908
▁jerk	-5909
▁lung	-5910
▁oath	-5911
▁owed	-5912
▁pure	-5913
▁rail	-5914
▁sees	-5915
▁simp	-5916
▁stir	-5917
▁surf	-5918
▁tool	-5919
▁wink	-5920
icient	-5921
itable	-5922
levant	-5923
romise	-5924
▁Black	-5925
▁Count	-5926
▁Earth	-5927
▁Haven	-5928
▁Latin	-5929
▁Light	-5930
▁Ocean	-5931
▁Trans	-5932
▁absor	-5933
▁alike	-5934
▁appla	-5935
▁armed	-5936
▁bunch	-5937
▁camer	-5938
▁champ	-5939
▁fully	-5940
▁handy	-5941
▁medit	-5942
▁motiv	-5943
▁opens	-5944
▁opera	-5945
▁paran	-5946
▁pills	-5947
▁queen	-5948
▁react	-5949
▁refer	-5950
▁sheet	-5951
▁shoel	-5952
▁sword	-5953
▁tends	-5954
▁tools	-5955
▁tries	-5956
▁usern	-5957
▁whale	-5958
▁wiped	-5959
agement	-5960
olished	-5961
working	-5962
▁Either	-5963
▁Winter	-5964
▁aboard	-5965
▁absurd	-5966
▁adjust	-5967
▁altern	-5968
▁athlet	-5969
▁atmosp	-5970
▁bitten	-5971
▁breaks	-5972
▁chased	-5973
▁compan	-5974
▁cooper	-5975
▁defeat	-5976
▁eighty	-5977
▁faucet	-5978
▁folded	-5979
▁forbid	-5980
▁includ	-5981
▁landed	-5982
▁laughs	-5983
▁ninety	-5984
▁period	-5985
▁phoned	-5986
▁pounds	-5987
▁prayed	-5988
▁proved	-5989
▁rested	-5990
▁sheets	-5991
▁skills	-5992
▁teleph	-5993
▁vacant	-5994
▁wasted	-5995
▁wolves	-5996
▁yelled	-5997
atically	-5998
uriosity	-5999
▁Finally	-6000
▁achieve	-6001
▁awesome	-6002
▁balance	-6003
▁besides	-6004
▁blaming	-6005
▁burglar	-6006
▁century	-6007
▁cleared	-6008
▁colleag	-6009
▁comfort	-6010
▁created	-6011
▁feeding	-6012
▁general	-6013
▁hurting	-6014
▁keeping	-6015
▁lessons	-6016
▁musical	-6017
▁parties	-6018
▁passing	-6019
▁passion	-6020
▁process	-6021
▁quarrel	-6022
▁reality	-6023
▁related	-6024
▁seconds	-6025
▁shortly	-6026
▁skating	-6027
▁victory	-6028
▁yelling	-6029
▁Compared	-6030
▁Swimming	-6031
▁addicted	-6032
▁advanced	-6033
▁backyard	-6034
▁curtains	-6035
▁discount	-6036
▁downtown	-6037
▁freezing	-6038
▁happiest	-6039
▁memorize	-6040
▁messages	-6041
▁original	-6042
▁outdoors	-6043
▁patients	-6044
▁philosop	-6045
▁requires	-6046
▁research	-6047
▁resigned	-6048
▁shooting	-6049
▁teenager	-6050
▁troubles	-6051
▁withdraw	-6052
▁breathing	-6053
▁challenge	-6054
▁chemistry	-6055
▁collected	-6056
▁dependent	-6057
▁discovery	-6058
▁interview	-6059
▁kilograms	-6060
▁paintings	-6061
▁repairing	-6062
▁aggressive	-6063
▁approached	-6064
▁assistance	-6065
▁atmosphere	-6066
▁conditions	-6067
▁incredible	-6068
▁incredibly	-6069
▁pretending	-6070
▁production	-6071
▁differently	-6072
▁reluctantly	-6073
▁resemblance	-6074
▁translation	-6075
▁investigating	-6076
af	-6077
my	-6078
ti	-6079
aus	-6080
cis	-6081
omb	-6082
oms	-6083
sty	-6084
tub	-6085
ube	-6086
▁Ob	-6087
ague	-6088
cond	-6089
each	-6090
eare	-6091
erly	-6092
gypt	-6093
hest	-6094
isis	-6095
ivor	-6096
mbol	-6097
mbur	-6098
mpoo	-6099
oded	-6100
onna	-6101
raff	-6102
rime	-6103
uine	-6104
ulge	-6105
ulse	-6106
utes	-6107
what	-6108
▁Atl	-6109
▁Ber	-6110
▁Buy	-6111
▁CDs	-6112
▁Old	-6113
▁Pac	-6114
▁Red	-6115
▁Wow	-6116
▁aid	-6117
▁cre	-6118
▁exe	-6119
▁laz	-6120
▁nic	-6121
▁pir	-6122
▁pos	-6123
▁rap	-6124
▁ske	-6125
▁tre	-6126
aghet	-6127
anded	-6128
anied	-6129
chair	-6130
child	-6131
clear	-6132
ctors	-6133
herry	-6134
hetic	-6135
iddle	-6136
istol	-6137
itzer	-6138
oline	-6139
onstr	-6140
orney	-6141
ortug	-6142
pered	-6143
umbus	-6144
undry	-6145
▁Mars	-6146
▁Mill	-6147
▁Move	-6148
▁Nice	-6149
▁Work	-6150
▁bang	-6151
▁cart	-6152
▁cock	-6153
▁cows	-6154
▁dire	-6155
▁diss	-6156
▁envy	-6157
▁exit	-6158
▁flea	-6159
▁insp	-6160
▁kite	-6161
▁link	-6162
▁mere	-6163
▁outr	-6164
▁rout	-6165
▁sake	-6166
▁tatt	-6167
everal	-6168
itched	-6169
lected	-6170
ousers	-6171
prints	-6172
▁Claus	-6173
▁Cross	-6174
▁Egypt	-6175
▁Knock	-6176
▁Music	-6177
▁Throw	-6178
▁abuse	-6179
▁alibi	-6180
▁awoke	-6181
▁cerem	-6182
▁dolls	-6183
▁elbow	-6184
▁feeds	-6185
▁fried	-6186
▁goats	-6187
▁holes	-6188
▁horiz	-6189
▁inher	-6190
▁irrit	-6191
▁jewel	-6192
▁leads	-6193
▁limit	-6194
▁mustn	-6195
▁owned	-6196
▁pluck	-6197
▁prett	-6198
▁ranch	-6199
▁regul	-6200
▁salty	-6201
▁shine	-6202
▁solid	-6203
▁spare	-6204
▁spill	-6205
▁stiff	-6206
▁stink	-6207
▁theft	-6208
▁toast	-6209
▁topic	-6210
▁trait	-6211
▁trash	-6212
▁waved	-6213
▁weeds	-6214
aghetti	-6215
espeare	-6216
leasant	-6217
▁Greece	-6218
▁Portug	-6219
▁addict	-6220
▁antiqu	-6221
▁atomic	-6222
▁banana	-6223
▁blames	-6224
▁boiled	-6225
▁brakes	-6226
▁brings	-6227
▁cherry	-6228
▁consum	-6229
▁crisis	-6230
▁experi	-6231
▁extent	-6232
▁fellow	-6233
▁groups	-6234
▁habits	-6235
▁hambur	-6236
▁hunger	-6237
▁infect	-6238
▁intrig	-6239
▁jewels	-6240
▁permit	-6241
▁pistol	-6242
▁recent	-6243
▁reduce	-6244
▁remote	-6245
▁rumors	-6246
▁rushed	-6247
▁safely	-6248
▁seized	-6249
▁simply	-6250
▁slower	-6251
▁statue	-6252
▁symbol	-6253
▁tomato	-6254
▁tricks	-6255
▁tunnel	-6256
▁waiter	-6257
▁washes	-6258
▁Judging	-6259
▁Mexican	-6260
▁Pacific	-6261
▁Several	-6262
▁Switzer	-6263
▁Whether	-6264
▁ancient	-6265
▁bathtub	-6266
▁camping	-6267
▁conduct	-6268
▁current	-6269
▁discour	-6270
▁follows	-6271
▁genuine	-6272
▁handbag	-6273
▁healthi	-6274
▁heavier	-6275
▁highest	-6276
▁individ	-6277
▁jumping	-6278
▁laundry	-6279
▁lightly	-6280
▁matches	-6281
▁moments	-6282
▁praised	-6283
▁replace	-6284
▁scratch	-6285
▁settled	-6286
▁sincere	-6287
▁sinking	-6288
▁slammed	-6289
▁spinach	-6290
▁travels	-6291
▁turning	-6292
▁wealthy	-6293
▁worries	-6294
cientists	-6295
niversity	-6296
▁Columbus	-6297
▁Students	-6298
▁Whenever	-6299
▁arranged	-6300
▁attorney	-6301
▁bankrupt	-6302
▁brushing	-6303
▁cheerful	-6304
▁coughing	-6305
▁declined	-6306
▁demonstr	-6307
▁disagree	-6308
▁exploded	-6309
▁insecure	-6310
▁knocking	-6311
▁nowadays	-6312
▁occupied	-6313
▁official	-6314
▁overcoat	-6315
▁positive	-6316
▁possibly	-6317
▁precious	-6318
▁promoted	-6319
▁revealed	-6320
▁roommate	-6321
▁salesman	-6322
▁signific	-6323
▁somewhat	-6324
▁sympathy	-6325
▁textbook	-6326
▁thankful	-6327
▁trousers	-6328
▁architect	-6329
▁celebrate	-6330
▁complains	-6331
▁confirmed	-6332
▁correctly	-6333
▁curiosity	-6334
▁delegates	-6335
▁detective	-6336
▁disgusted	-6337
▁fantastic	-6338
▁finishing	-6339
▁fortunate	-6340
▁guitarist	-6341
▁housework	-6342
▁improving	-6343
▁incorrect	-6344
▁leftovers	-6345
▁organized	-6346
▁regularly	-6347
▁represent	-6348
▁shoelaces	-6349
▁spaghetti	-6350
▁struggled	-6351
▁surrender	-6352
▁talkative	-6353
▁terrified	-6354
▁whispered	-6355
▁acquainted	-6356
▁distracted	-6357
▁frequently	-6358
▁misleading	-6359
▁technology	-6360
▁undressing	-6361
▁unpleasant	-6362
▁Shakespeare	-6363
▁Switzerland	-6364
▁accompanied	-6365
▁alternative	-6366
▁appropriate	-6367
▁conditioner	-6368
▁participate	-6369
▁performance	-6370
▁recommended	-6371
▁consequences	-6372
fl	-6373
ka	-6374
ky	-6375
ox	-6376
sm	-6377
30?	-6378
avy	-6379
com	-6380
iar	-6381
ipp	-6382
irl	-6383
isk	-6384
mit	-6385
▁13	-6386
▁Pa	-6387
▁oy	-6388
▁pi	-6389
▁wa	-6390
ades	-6391
ador	-6392
anna	-6393
asts	-6394
berg	-6395
chup	-6396
ctic	-6397
down	-6398
eria	-6399
hend	-6400
husi	-6401
idly	-6402
inct	-6403
inos	-6404
isit	-6405
lymp	-6406
onse	-6407
ooth	-6408
orge	-6409
rase	-6410
ript	-6411
ssip	-6412
stit	-6413
unci	-6414
▁Boy	-6415
▁Dem	-6416
▁Ele	-6417
▁Hum	-6418
▁Rom	-6419
▁San	-6420
▁Tur	-6421
▁Yok	-6422
▁ain	-6423
▁cas	-6424
▁cro	-6425
▁ded	-6426
▁dug	-6427
▁dye	-6428
▁lob	-6429
▁nod	-6430
▁poo	-6431
▁rug	-6432
▁sue	-6433
▁tag	-6434
▁vet	-6435
alley	-6436
arted	-6437
chiev	-6438
cking	-6439
cribe	-6440
ender	-6441
going	-6442
ients	-6443
iking	-6444
inate	-6445
issed	-6446
itled	-6447
mbled	-6448
ohama	-6449
olves	-6450
stead	-6451
uggle	-6452
verty	-6453
water	-6454
▁Cent	-6455
▁Draw	-6456
▁Kids	-6457
▁Lend	-6458
▁Lock	-6459
▁Nove	-6460
▁acts	-6461
▁blow	-6462
▁chap	-6463
▁chef	-6464
▁chop	-6465
▁crew	-6466
▁drag	-6467
▁east	-6468
▁fest	-6469
▁fled	-6470
▁gall	-6471
▁gray	-6472
▁horn	-6473
▁inev	-6474
▁inha	-6475
▁laws	-6476
▁mask	-6477
▁neat	-6478
▁onto	-6479
▁pays	-6480
▁role	-6481
▁seas	-6482
▁shel	-6483
▁sixt	-6484
▁snor	-6485
▁sung	-6486
▁tank	-6487
▁term	-6488
▁toes	-6489
▁trop	-6490
▁unne	-6491
▁vent	-6492
▁vers	-6493
▁virt	-6494
▁volc	-6495
▁wrap	-6496
▁zero	-6497
agious	-6498
ground	-6499
ipment	-6500
tually	-6501
▁1,000	-6502
▁Korea	-6503
▁March	-6504
▁Olymp	-6505
▁Young	-6506
▁baref	-6507
▁bears	-6508
▁bites	-6509
▁block	-6510
▁broad	-6511
▁cases	-6512
▁cheat	-6513
▁chest	-6514
▁compl	-6515
▁debts	-6516
▁dread	-6517
▁fewer	-6518
▁flows	-6519
▁froze	-6520
▁guide	-6521
▁hasty	-6522
▁holds	-6523
▁nicer	-6524
▁panic	-6525
▁prior	-6526
▁risky	-6527
▁ruins	-6528
▁schem	-6529
▁shade	-6530
▁ships	-6531
▁sixty	-6532
▁teams	-6533
▁trial	-6534
▁unmar	-6535
▁utter	-6536
▁yield	-6537
cessary	-6538
▁10,000	-6539
▁Hallow	-6540
▁Hilton	-6541
▁Transl	-6542
▁affair	-6543
▁baking	-6544
▁barber	-6545
▁blonde	-6546
▁checks	-6547
▁colder	-6548
▁collar	-6549
▁commer	-6550
▁copies	-6551
▁devast	-6552
▁dining	-6553
▁elders	-6554
▁errors	-6555
▁golden	-6556
▁gossip	-6557
▁grocer	-6558
▁helmet	-6559
▁incomp	-6560
▁insens	-6561
▁ironed	-6562
▁needle	-6563
▁onions	-6564
▁palace	-6565
▁recipe	-6566
▁refund	-6567
▁region	-6568
▁relief	-6569
▁rolled	-6570
▁script	-6571
▁shaved	-6572
▁shirts	-6573
▁smiles	-6574
▁smooth	-6575
▁spider	-6576
▁states	-6577
▁stones	-6578
▁unfort	-6579
▁weighs	-6580
▁worker	-6581
chievous	-6582
▁Classes	-6583
▁Instead	-6584
▁Someday	-6585
▁actions	-6586
▁antique	-6587
▁billion	-6588
▁butterf	-6589
▁chances	-6590
▁charges	-6591
▁choices	-6592
▁closing	-6593
▁compass	-6594
▁contain	-6595
▁customs	-6596
▁deliver	-6597
▁destiny	-6598
▁elderly	-6599
▁enthusi	-6600
▁glanced	-6601
▁guessed	-6602
▁indulge	-6603
▁ketchup	-6604
▁lawyers	-6605
▁mailbox	-6606
▁obliged	-6607
▁operate	-6608
▁oysters	-6609
▁pleaded	-6610
▁poverty	-6611
▁pulling	-6612
▁recover	-6613
▁regrets	-6614
▁revenge	-6615
▁sailing	-6616
▁sailors	-6617
▁sandbar	-6618
▁seafood	-6619
▁sending	-6620
▁sharpen	-6621
▁surgeon	-6622
▁tightly	-6623
▁twisted	-6624
▁visible	-6625
▁vitamin	-6626
▁whining	-6627
▁Business	-6628
▁Catholic	-6629
▁Wherever	-6630
▁Yokohama	-6631
▁affected	-6632
▁assemble	-6633
▁astronom	-6634
▁beginner	-6635
▁bringing	-6636
▁campaign	-6637
▁catching	-6638
▁ceremony	-6639
▁chatting	-6640
▁creative	-6641
▁customer	-6642
▁declared	-6643
▁directly	-6644
▁diseases	-6645
▁dislikes	-6646
▁earrings	-6647
▁examined	-6648
▁festival	-6649
▁hangover	-6650
▁hopeless	-6651
▁interven	-6652
▁majority	-6653
▁offended	-6654
▁opinions	-6655
▁paranoid	-6656
▁pronunci	-6657
▁proposed	-6658
▁purchase	-6659
▁railroad	-6660
▁regarded	-6661
▁required	-6662
▁resemble	-6663
▁respects	-6664
▁response	-6665
▁seatbelt	-6666
▁severely	-6667
▁slightly	-6668
▁survivor	-6669
▁tomatoes	-6670
▁tortured	-6671
▁uniforms	-6672
▁username	-6673
▁wandered	-6674
▁weekends	-6675
▁Halloween	-6676
▁applauded	-6677
▁beginners	-6678
▁connected	-6679
▁criminals	-6680
▁defendant	-6681
▁dismissed	-6682
▁equipment	-6683
▁gradually	-6684
▁hesitated	-6685
▁identical	-6686
▁necessity	-6687
▁relatives	-6688
▁respected	-6689
▁satisfact	-6690
▁scheduled	-6691
▁slightest	-6692
▁suspicion	-6693
▁unmarried	-6694
▁Eventually	-6695
▁Scientists	-6696
▁acceptable	-6697
▁contagious	-6698
▁directions	-6699
▁engagement	-6700
▁inevitable	-6701
▁literature	-6702
▁telephoned	-6703
▁approaching	-6704
▁contributed	-6705
▁insensitive	-6706
▁mischievous	-6707
▁restaurants	-6708
▁unfortunate	-6709
▁unnecessary	-6710
▁accidentally	-6711
▁congratulate	-6712
▁grandparents	-6713
▁interrupting	-6714
▁photographer	-6715
▁congratulated	-6716
▁consideration	-6717
1.	-6718
So	-6719
bl	-6720
oe	-6721
sk	-6722
yl	-6723
awa	-6724
hew	-6725
how	-6726
ita	-6727
kle	-6728
lee	-6729
mel	-6730
oci	-6731
ota	-6732
xim	-6733
▁Fe	-6734
▁ID	-6735
▁II	-6736
▁Me	-6737
▁Mo	-6738
▁Sk	-6739
▁ic	-6740
acts	-6741
anes	-6742
ango	-6743
asty	-6744
conf	-6745
easy	-6746
esus	-6747
fere	-6748
gain	-6749
hern	-6750
iter	-6751
male	-6752
phew	-6753
rial	-6754
ubes	-6755
umsy	-6756
zing	-6757
▁300	-6758
▁Att	-6759
▁Aug	-6760
▁Con	-6761
▁Ice	-6762
▁Los	-6763
▁Pri	-6764
▁Pro	-6765
▁Six	-6766
▁Ste	-6767
▁awk	-6768
▁bee	-6769
▁bug	-6770
▁gaz	-6771
▁gum	-6772
▁hoc	-6773
▁lid	-6774
▁rat	-6775
▁ric	-6776
▁sib	-6777
▁sip	-6778
▁sow	-6779
▁tin	-6780
▁vir	-6781
▁wag	-6782
▁wid	-6783
atell	-6784
eness	-6785
ength	-6786
enses	-6787
ewrit	-6788
hibit	-6789
ieves	-6790
imney	-6791
lings	-6792
oosen	-6793
orary	-6794
rived	-6795
stood	-6796
unted	-6797
▁Bell	-6798
▁Boys	-6799
▁Burn	-6800
▁Dece	-6801
▁Fish	-6802
▁Lake	-6803
▁Like	-6804
▁Long	-6805
▁Lots	-6806
▁Mind	-6807
▁Scot	-6808
▁Seen	-6809
▁ador	-6810
▁bore	-6811
▁clue	-6812
▁edge	-6813
▁fart	-6814
▁flir	-6815
▁fulf	-6816
▁icon	-6817
▁mall	-6818
▁pier	-6819
▁plun	-6820
▁seek	-6821
▁shad	-6822
▁subs	-6823
▁tidy	-6824
▁tiny	-6825
▁toot	-6826
▁toss	-6827
▁trim	-6828
aholic	-6829
artial	-6830
entive	-6831
fering	-6832
imated	-6833
istics	-6834
ivered	-6835
lphins	-6836
phones	-6837
raffic	-6838
ricult	-6839
teries	-6840
umbled	-6841
weight	-6842
▁2,000	-6843
▁Brush	-6844
▁Clean	-6845
▁Doing	-6846
▁Drive	-6847
▁Grand	-6848
▁Happy	-6849
▁Jesus	-6850
▁Learn	-6851
▁White	-6852
▁aback	-6853
▁accur	-6854
▁alert	-6855
▁alleg	-6856
▁ankle	-6857
▁aston	-6858
▁attic	-6859
▁beers	-6860
▁belie	-6861
▁bloom	-6862
▁burnt	-6863
▁camel	-6864
▁chase	-6865
▁cigar	-6866
▁click	-6867
▁cliff	-6868
▁colds	-6869
▁conqu	-6870
▁eaves	-6871
▁empha	-6872
▁files	-6873
▁flies	-6874
▁flush	-6875
▁forms	-6876
▁gains	-6877
▁gonna	-6878
▁grade	-6879
▁hitch	-6880
▁homet	-6881
▁image	-6882
▁liber	-6883
▁loyal	-6884
▁oppon	-6885
▁penny	-6886
▁picky	-6887
▁pride	-6888
▁pulse	-6889
▁rifle	-6890
▁scrat	-6891
▁serve	-6892
▁shave	-6893
▁squir	-6894
▁steps	-6895
▁swept	-6896
▁tiger	-6897
▁twent	-6898
▁urged	-6899
▁valid	-6900
▁verge	-6901
▁waist	-6902
▁wakes	-6903
▁wanna	-6904
lection	-6905
ocratic	-6906
viously	-6907
▁Arabic	-6908
▁August	-6909
▁Berlin	-6910
▁Coffee	-6911
▁Finish	-6912
▁Soccer	-6913
▁Street	-6914
▁advert	-6915
▁amused	-6916
▁branch	-6917
▁cattle	-6918
▁cheeks	-6919
▁closes	-6920
▁clumsy	-6921
▁cockro	-6922
▁collap	-6923
▁debate	-6924
▁degree	-6925
▁dumped	-6926
▁execut	-6927
▁facing	-6928
▁faults	-6929
▁female	-6930
▁forces	-6931
▁former	-6932
▁hiking	-6933
▁hockey	-6934
▁horror	-6935
▁hunter	-6936
▁idiots	-6937
▁immigr	-6938
▁loving	-6939
▁melted	-6940
▁misled	-6941
▁motion	-6942
▁nephew	-6943
▁origin	-6944
▁patron	-6945
▁placed	-6946
▁points	-6947
▁recess	-6948
▁reveal	-6949
▁richer	-6950
▁scheme	-6951
▁skirts	-6952
▁stingy	-6953
▁string	-6954
▁sweets	-6955
▁tattoo	-6956
▁thread	-6957
▁unsure	-6958
▁visits	-6959
▁voices	-6960
alentine	-6961
ervative	-6962
▁Doctors	-6963
▁Mondays	-6964
▁Reading	-6965
▁Traffic	-6966
▁affairs	-6967
▁awkward	-6968
▁behaved	-6969
▁biology	-6970
▁blocked	-6971
▁blowing	-6972
▁catches	-6973
▁chewing	-6974
▁chimney	-6975
▁clapped	-6976
▁compete	-6977
▁confuse	-6978
▁demands	-6979
▁destroy	-6980
▁harmful	-6981
▁interse	-6982
▁jewelry	-6983
▁journey	-6984
▁landing	-6985
▁leaning	-6986
▁nuclear	-6987
▁punched	-6988
▁rapidly	-6989
▁receipt	-6990
▁remarks	-6991
▁reserve	-6992
▁shaking	-6993
▁shampoo	-6994
▁shelter	-6995
▁sixteen	-6996
▁slapped	-6997
▁smelled	-6998
▁snowman	-6999
▁spiders	-7000
▁spoiled	-7001
▁stirred	-7002
▁swallow	-7003
▁swimmer	-7004
▁thunder	-7005
▁traitor	-7006
▁volcano	-7007
▁November	-7008
▁Nowadays	-7009
▁Scotland	-7010
▁adorable	-7011
▁antiques	-7012
▁chemical	-7013
▁darkness	-7014
▁delicate	-7015
▁designed	-7016
▁director	-7017
▁discover	-7018
▁doubtful	-7019
▁download	-7020
▁engineer	-7021
▁entirely	-7022
▁gasoline	-7023
▁hometown	-7024
▁identify	-7025
▁interrog	-7026
▁inviting	-7027
▁memories	-7028
▁politely	-7029
▁semester	-7030
▁siblings	-7031
▁stunning	-7032
▁sunlight	-7033
▁tolerate	-7034
▁vitamins	-7035
▁youngest	-7036
▁Translate	-7037
▁acknowled	-7038
▁addressed	-7039
▁adventure	-7040
▁attentive	-7041
▁delivered	-7042
▁exchanged	-7043
▁forbidden	-7044
▁immediate	-7045
▁interests	-7046
▁interfere	-7047
▁objection	-7048
▁patiently	-7049
▁permitted	-7050
▁policemen	-7051
▁pollution	-7052
▁practical	-7053
▁qualified	-7054
▁scratched	-7055
▁sentences	-7056
▁vegetable	-7057
▁afterwards	-7058
▁colleagues	-7059
▁compliment	-7060
▁conclusion	-7061
▁dependable	-7062
▁devastated	-7063
▁explaining	-7064
▁fascinated	-7065
▁generation	-7066
▁humiliated	-7067
▁individual	-7068
▁intentions	-7069
▁intervened	-7070
▁investment	-7071
▁mysterious	-7072
▁overweight	-7073
▁reconsider	-7074
▁revolution	-7075
▁vegetarian	-7076
▁defenseless	-7077
▁destination	-7078
▁earthquakes	-7079
▁established	-7080
▁hardworking	-7081
▁interfering	-7082
▁remembering	-7083
▁vegetarians	-7084
▁accomplished	-7085
▁conservative	-7086
▁satisfactory	-7087
▁investigation	-7088
▁misunderstood	-7089
▁pronunciation	-7090
,"	-7091
SA	-7092
ah	-7093
nt	-7094
ams	-7095
ban	-7096
cel	-7097
duc	-7098
elt	-7099
gle	-7100
ham	-7101
iat	-7102
ift	-7103
ina	-7104
obe	-7105
ode	-7106
osh	-7107
ria	-7108
rim	-7109
udd	-7110
ulb	-7111
ups	-7112
urt	-7113
▁et	-7114
adle	-7115
aker	-7116
alth	-7117
anny	-7118
anto	-7119
back	-7120
bies	-7121
cher	-7122
etic	-7123
fall	-7124
ieth	-7125
itle	-7126
kind	-7127
knob	-7128
nels	-7129
oomy	-7130
ords	-7131
reck	-7132
rosc	-7133
uate	-7134
umps	-7135
utch	-7136
▁Big	-7137
▁Emb	-7138
▁Had	-7139
▁Ill	-7140
▁Mat	-7141
▁Mil	-7142
▁Nag	-7143
▁Sal	-7144
▁Sea	-7145
▁Toy	-7146
▁bik	-7147
▁bre	-7148
▁bun	-7149
▁der	-7150
▁enl	-7151
▁exh	-7152
▁gig	-7153
▁hog	-7154
▁jar	-7155
▁lun	-7156
▁mow	-7157
▁mut	-7158
▁ped	-7159
▁sam	-7160
▁vig	-7161
▁voc	-7162
▁voy	-7163
0,000	-7164
amped	-7165
ander	-7166
cakes	-7167
cling	-7168
eable	-7169
elled	-7170
ement	-7171
ental	-7172
ented	-7173
erson	-7174
etent	-7175
geons	-7176
grand	-7177
guard	-7178
ially	-7179
icies	-7180
icket	-7181
idges	-7182
iforn	-7183
iland	-7184
imals	-7185
itals	-7186
itary	-7187
nless	-7188
rying	-7189
sized	-7190
tingu	-7191
ublic	-7192
ushes	-7193
▁Cold	-7194
▁Cows	-7195
▁Desp	-7196
▁Drop	-7197
▁Fire	-7198
▁Gold	-7199
▁Hope	-7200
▁Iron	-7201
▁Shin	-7202
▁Stat	-7203
▁Supp	-7204
▁Swed	-7205
▁Talk	-7206
▁Thai	-7207
▁Wind	-7208
▁Year	-7209
▁bake	-7210
▁beef	-7211
▁bone	-7212
▁bunk	-7213
▁buys	-7214
▁cane	-7215
▁caut	-7216
▁clog	-7217
▁curb	-7218
▁cuts	-7219
▁dies	-7220
▁fuss	-7221
▁harp	-7222
▁hats	-7223
▁inde	-7224
▁kick	-7225
▁knot	-7226
▁lets	-7227
▁liqu	-7228
▁load	-7229
▁mamm	-7230
▁mice	-7231
▁mile	-7232
▁mort	-7233
▁pace	-7234
▁pant	-7235
▁plat	-7236
▁pork	-7237
▁pour	-7238
▁pump	-7239
▁rats	-7240
▁reap	-7241
▁rise	-7242
▁sets	-7243
▁sits	-7244
▁smok	-7245
▁spir	-7246
▁stif	-7247
▁stro	-7248
▁tame	-7249
▁tons	-7250
▁wire	-7251
▁yawn	-7252
abbits	-7253
aughty	-7254
ercise	-7255
estern	-7256
hended	-7257
idents	-7258
ighted	-7259
iously	-7260
ocracy	-7261
onesty	-7262
ormous	-7263
orters	-7264
rected	-7265
rolled	-7266
▁Esper	-7267
▁Langu	-7268
▁Paper	-7269
▁River	-7270
▁Shoot	-7271
▁Sleep	-7272
▁Teach	-7273
▁Weren	-7274
▁adapt	-7275
▁agent	-7276
▁alley	-7277
▁areas	-7278
▁arrog	-7279
▁award	-7280
▁basic	-7281
▁blink	-7282
▁blunt	-7283
▁bombs	-7284
▁bones	-7285
▁bride	-7286
▁cafet	-7287
▁choir	-7288
▁comed	-7289
▁daily	-7290
▁exhib	-7291
▁forth	-7292
▁frust	-7293
▁goals	-7294
▁greed	-7295
▁grows	-7296
▁heave	-7297
▁indic	-7298
▁loser	-7299
▁marks	-7300
▁nasty	-7301
▁parks	-7302
▁postc	-7303
▁prime	-7304
▁quant	-7305
▁sacri	-7306
▁score	-7307
▁shown	-7308
▁signs	-7309
▁slice	-7310
▁snack	-7311
▁sneak	-7312
▁snows	-7313
▁stain	-7314
▁stare	-7315
▁stead	-7316
▁title	-7317
▁total	-7318
▁trace	-7319
▁veter	-7320
▁wreck	-7321
▁youth	-7322
ewriter	-7323
ifornia	-7324
inosaur	-7325
isitors	-7326
olution	-7327
orthern	-7328
otional	-7329
▁Always	-7330
▁Anyway	-7331
▁Eating	-7332
▁Health	-7333
▁Indian	-7334
▁Loosen	-7335
▁Making	-7336
▁Remain	-7337
▁associ	-7338
▁baboon	-7339
▁betray	-7340
▁biting	-7341
▁brains	-7342
▁carved	-7343
▁darker	-7344
▁desire	-7345
▁electr	-7346
▁ending	-7347
▁exists	-7348
▁gloomy	-7349
▁hotels	-7350
▁hotter	-7351
▁impact	-7352
▁issues	-7353
▁kitten	-7354
▁lifted	-7355
▁limits	-7356
▁loaded	-7357
▁melody	-7358
▁obeyed	-7359
▁offend	-7360
▁option	-7361
▁planes	-7362
▁plates	-7363
▁raises	-7364
▁recall	-7365
▁satell	-7366
▁shovel	-7367
▁sneeze	-7368
▁stinks	-7369
▁stores	-7370
▁supply	-7371
▁unbear	-7372
▁uneasy	-7373
▁valley	-7374
▁vision	-7375
▁voyage	-7376
piration	-7377
ximately	-7378
▁Animals	-7379
▁Believe	-7380
▁Compare	-7381
▁Embassy	-7382
▁Everest	-7383
▁Explain	-7384
▁Honesty	-7385
▁Luckily	-7386
▁Rabbits	-7387
▁Strange	-7388
▁applies	-7389
▁arrange	-7390
▁awfully	-7391
▁babysit	-7392
▁bargain	-7393
▁bathing	-7394
▁begging	-7395
▁bridges	-7396
▁cameras	-7397
▁carpent	-7398
▁compare	-7399
▁compuls	-7400
▁contrad	-7401
▁counter	-7402
▁cycling	-7403
▁deceive	-7404
▁erected	-7405
▁exhilar	-7406
▁expects	-7407
▁extingu	-7408
▁farmers	-7409
▁farther	-7410
▁fastest	-7411
▁firemen	-7412
▁flights	-7413
▁focused	-7414
▁grammar	-7415
▁greatly	-7416
▁haunted	-7417
▁heating	-7418
▁hobbies	-7419
▁horizon	-7420
▁imitate	-7421
▁imports	-7422
▁imposed	-7423
▁inhabit	-7424
▁insists	-7425
▁ironing	-7426
▁kidnapp	-7427
▁limited	-7428
▁measure	-7429
▁microsc	-7430
▁naughty	-7431
▁plastic	-7432
▁pledged	-7433
▁plunged	-7434
▁produce	-7435
▁refuses	-7436
▁sharing	-7437
▁singers	-7438
▁slavery	-7439
▁snoring	-7440
▁sounded	-7441
▁surface	-7442
▁thieves	-7443
▁turtles	-7444
▁univers	-7445
▁version	-7446
confident	-7447
ibilities	-7448
▁December	-7449
▁Exercise	-7450
▁Speaking	-7451
▁Thailand	-7452
▁barefoot	-7453
▁blankets	-7454
▁chairman	-7455
▁clarinet	-7456
▁composed	-7457
▁constant	-7458
▁creature	-7459
▁critical	-7460
▁cupboard	-7461
▁deadline	-7462
▁deprived	-7463
▁despises	-7464
▁detailed	-7465
▁doorbell	-7466
▁doorknob	-7467
▁enormous	-7468
▁entitled	-7469
▁escaping	-7470
▁firewood	-7471
▁fountain	-7472
▁gambling	-7473
▁imported	-7474
▁lipstick	-7475
▁maintain	-7476
▁negative	-7477
▁opponent	-7478
▁pathetic	-7479
▁physical	-7480
▁policies	-7481
▁produces	-7482
▁psychiat	-7483
▁relaxing	-7484
▁reserved	-7485
▁shortcut	-7486
▁sidewalk	-7487
▁starving	-7488
▁supplied	-7489
▁tendency	-7490
▁tolerant	-7491
▁training	-7492
▁transfer	-7493
▁ventured	-7494
▁watermel	-7495
▁withdrew	-7496
▁Brazilian	-7497
▁Esperanto	-7498
▁alcoholic	-7499
▁batteries	-7500
▁cafeteria	-7501
▁chopstick	-7502
▁community	-7503
▁companies	-7504
▁confusing	-7505
▁decorated	-7506
▁departure	-7507
▁disappear	-7508
▁exercises	-7509
▁expressed	-7510
▁increased	-7511
▁inherited	-7512
▁instantly	-7513
▁materials	-7514
▁objective	-7515
▁principal	-7516
▁promising	-7517
▁receiving	-7518
▁referring	-7519
▁regretted	-7520
▁statement	-7521
▁temporary	-7522
▁toothache	-7523
▁transport	-7524
▁unwilling	-7525
▁Apparently	-7526
▁California	-7527
▁Disneyland	-7528
▁calculator	-7529
▁commercial	-7530
▁criticized	-7531
▁discussing	-7532
▁exhibition	-7533
▁forgetting	-7534
▁grandchild	-7535
▁hamburgers	-7536
▁immigrants	-7537
▁irrelevant	-7538
▁obligation	-7539
▁typewriter	-7540
▁workaholic	-7541
▁Mathematics	-7542
▁apprehended	-7543
▁incompetent	-7544
▁translating	-7545
▁acknowledged	-7546
▁intelligence	-7547
▁intersection	-7548
▁strawberries	-7549
▁automatically	-7550
▁consciousness	-7551
▁exceptionally	-7552
▁overconfident	-7553
BI	-7554
sp	-7555
The	-7556
asm	-7557
boy	-7558
dka	-7559
ene	-7560
for	-7561
hop	-7562
hor	-7563
idy	-7564
ils	-7565
kin	-7566
lam	-7567
oal	-7568
oug	-7569
oul	-7570
rav	-7571
rid	-7572
uum	-7573
▁MP	-7574
▁Ow	-7575
▁Sa	-7576
▁Sy	-7577
▁ge	-7578
▁od	-7579
▁uk	-7580
acco	-7581
aine	-7582
aith	-7583
alty	-7584
arge	-7585
arse	-7586
avor	-7587
chae	-7588
chan	-7589
cles	-7590
cope	-7591
erry	-7592
fice	-7593
form	-7594
four	-7595
gged	-7596
harm	-7597
iant	-7598
ilig	-7599
illa	-7600
inis	-7601
ipul	-7602
nder	-7603
oger	-7604
olve	-7605
oops	-7606
otes	-7607
pock	-7608
rels	-7609
shot	-7610
tuce	-7611
ueen	-7612
umer	-7613
velt	-7614
verb	-7615
▁Car	-7616
▁Cha	-7617
▁Dri	-7618
▁FBI	-7619
▁Ign	-7620
▁Nor	-7621
▁Pre	-7622
▁Ser	-7623
▁Sil	-7624
▁Swe	-7625
▁Too	-7626
▁bac	-7627
▁bak	-7628
▁dom	-7629
▁emb	-7630
▁fol	-7631
▁gag	-7632
▁hyd	-7633
▁ing	-7634
▁lap	-7635
▁nit	-7636
▁ove	-7637
▁pes	-7638
▁por	-7639
▁sin	-7640
▁upd	-7641
▁wig	-7642
▁yog	-7643
about	-7644
adium	-7645
agons	-7646
allel	-7647
ancis	-7648
andal	-7649
apore	-7650
apted	-7651
armed	-7652
ategy	-7653
aters	-7654
dling	-7655
dress	-7656
endar	-7657
enice	-7658
ening	-7659
ipper	-7660
isher	-7661
ivery	-7662
ivity	-7663
kered	-7664
laced	-7665
naire	-7666
ooked	-7667
piece	-7668
place	-7669
proof	-7670
quate	-7671
ships	-7672
ugees	-7673
ulele	-7674
▁Back	-7675
▁Budd	-7676
▁Calm	-7677
▁Char	-7678
▁Educ	-7679
▁Febr	-7680
▁Feel	-7681
▁Fore	-7682
▁Nara	-7683
▁Over	-7684
▁Pull	-7685
▁Soon	-7686
▁Step	-7687
▁Stir	-7688
▁Wall	-7689
▁anch	-7690
▁bars	-7691
▁bass	-7692
▁bent	-7693
▁bulb	-7694
▁coma	-7695
▁damp	-7696
▁dang	-7697
▁dict	-7698
▁duck	-7699
▁dull	-7700
▁emot	-7701
▁evac	-7702
▁foul	-7703
▁fuel	-7704
▁hail	-7705
▁indo	-7706
▁keen	-7707
▁male	-7708
▁obst	-7709
▁pois	-7710
▁reck	-7711
▁ripe	-7712
▁skip	-7713
▁slee	-7714
▁slim	-7715
▁snob	-7716
▁snoo	-7717
▁tear	-7718
▁unim	-7719
▁unre	-7720
▁unsu	-7721
▁vary	-7722
▁ware	-7723
allows	-7724
athing	-7725
believ	-7726
ensive	-7727
ership	-7728
lights	-7729
minute	-7730
nament	-7731
ounded	-7732
phants	-7733
ration	-7734
ricane	-7735
ursday	-7736
▁Above	-7737
▁Breat	-7738
▁Catch	-7739
▁Crime	-7740
▁Dutch	-7741
▁Green	-7742
▁Hello	-7743
▁Islam	-7744
▁Right	-7745
▁Roger	-7746
▁Roose	-7747
▁Seven	-7748
▁Smell	-7749
▁Taste	-7750
▁Tears	-7751
▁Times	-7752
▁amate	-7753
▁analy	-7754
▁banks	-7755
▁basis	-7756
▁benef	-7757
▁bless	-7758
▁blown	-7759
▁boils	-7760
▁brake	-7761
▁cabin	-7762
▁carol	-7763
▁chain	-7764
▁cured	-7765
▁downs	-7766
▁drain	-7767
▁fails	-7768
▁films	-7769
▁flock	-7770
▁grief	-7771
▁handc	-7772
▁humid	-7773
▁leaks	-7774
▁liver	-7775
▁meets	-7776
▁meter	-7777
▁minds	-7778
▁pharm	-7779
▁print	-7780
▁restr	-7781
▁rings	-7782
▁roast	-7783
▁rocks	-7784
▁ruled	-7785
▁sauce	-7786
▁skept	-7787
▁slipp	-7788
▁tasty	-7789
▁teles	-7790
▁tests	-7791
▁tires	-7792
▁trade	-7793
▁types	-7794
▁untie	-7795
▁virus	-7796
▁vodka	-7797
▁woken	-7798
ancisco	-7799
assador	-7800
mission	-7801
onsible	-7802
umerous	-7803
▁Asians	-7804
▁Better	-7805
▁Cookie	-7806
▁During	-7807
▁Little	-7808
▁Miller	-7809
▁Pardon	-7810
▁Repeat	-7811
▁Toyota	-7812
▁adores	-7813
▁agency	-7814
▁archae	-7815
▁attrib	-7816
▁bakery	-7817
▁banker	-7818
▁barked	-7819
▁belief	-7820
▁calmed	-7821
▁calmly	-7822
▁carbon	-7823
▁cotton	-7824
▁cradle	-7825
▁create	-7826
▁deceit	-7827
▁dialed	-7828
▁duties	-7829
▁errand	-7830
▁excess	-7831
▁fatter	-7832
▁fiddle	-7833
▁fixing	-7834
▁flames	-7835
▁formed	-7836
▁garlic	-7837
▁greedy	-7838
▁humans	-7839
▁irresp	-7840
▁knives	-7841
▁ladies	-7842
▁leaped	-7843
▁magnet	-7844
▁margar	-7845
▁messed	-7846
▁microw	-7847
▁noises	-7848
▁pardon	-7849
▁passes	-7850
▁peanut	-7851
▁phrase	-7852
▁poorly	-7853
▁racist	-7854
▁rebell	-7855
▁ribbon	-7856
▁risked	-7857
▁scraps	-7858
▁secure	-7859
▁shadow	-7860
▁slices	-7861
▁smoked	-7862
▁soaked	-7863
▁sorrow	-7864
▁stream	-7865
▁temple	-7866
▁territ	-7867
▁troops	-7868
▁undone	-7869
▁untied	-7870
▁vacuum	-7871
▁virtue	-7872
▁wisdom	-7873
▁worthy	-7874
ccessful	-7875
uttering	-7876
▁Britain	-7877
▁Control	-7878
▁Correct	-7879
▁Despite	-7880
▁Dragons	-7881
▁Hunting	-7882
▁Illness	-7883
▁Indians	-7884
▁Nations	-7885
▁Oranges	-7886
▁Shouldn	-7887
▁adapted	-7888
▁airmail	-7889
▁annoyed	-7890
▁backing	-7891
▁chatted	-7892
▁cowards	-7893
▁crawled	-7894
▁crushed	-7895
▁drivers	-7896
▁edition	-7897
▁evident	-7898
▁flipped	-7899
▁flooded	-7900
▁forgave	-7901
▁forgets	-7902
▁founded	-7903
▁freezes	-7904
▁halfway	-7905
▁install	-7906
▁instant	-7907
▁intends	-7908
▁invaded	-7909
▁letting	-7910
▁lettuce	-7911
▁lowered	-7912
▁mankind	-7913
▁monster	-7914
▁natives	-7915
▁outcome	-7916
▁partner	-7917
▁passage	-7918
▁penalty	-7919
▁perfume	-7920
▁perhaps	-7921
▁plugged	-7922
▁prescri	-7923
▁privacy	-7924
▁profile	-7925
▁rabbits	-7926
▁refrain	-7927
▁reports	-7928
▁scandal	-7929
▁schools	-7930
▁seasons	-7931
▁seventy	-7932
▁shaving	-7933
▁stadium	-7934
▁ticking	-7935
▁totaled	-7936
▁ukulele	-7937
riculture	-7938
▁February	-7939
▁Thursday	-7940
▁accurate	-7941
▁addition	-7942
▁adjusted	-7943
▁appalled	-7944
▁arrogant	-7945
▁basement	-7946
▁calendar	-7947
▁captured	-7948
▁champion	-7949
▁childish	-7950
▁competed	-7951
▁contempt	-7952
▁disguise	-7953
▁disgusts	-7954
▁educated	-7955
▁gardener	-7956
▁handmade	-7957
▁humanity	-7958
▁industry	-7959
▁inspired	-7960
▁knitting	-7961
▁magician	-7962
▁marrying	-7963
▁pancakes	-7964
▁panicked	-7965
▁pickpock	-7966
▁planting	-7967
▁platform	-7968
▁prettier	-7969
▁previous	-7970
▁quantity	-7971
▁recovery	-7972
▁refugees	-7973
▁reported	-7974
▁restroom	-7975
▁resulted	-7976
▁sickness	-7977
▁snuggled	-7978
▁software	-7979
▁speakers	-7980
▁specific	-7981
▁stranded	-7982
▁strategy	-7983
▁strongly	-7984
▁struggle	-7985
▁throwing	-7986
▁vanished	-7987
▁warnings	-7988
▁Accidents	-7989
▁Elephants	-7990
▁Francisco	-7991
▁Lightning	-7992
▁Obviously	-7993
▁Roosevelt	-7994
▁Singapore	-7995
▁abolished	-7996
▁accepting	-7997
▁associate	-7998
▁blackmail	-7999
▁candidate	-8000
▁criticism	-8001
▁dedicated	-8002
▁deposited	-8003
▁dishonest	-8004
▁disturbed	-8005
▁efficient	-8006
▁elephants	-8007
▁existence	-8008
▁factories	-8009
▁hairdress	-8010
▁imitating	-8011
▁impartial	-8012
▁including	-8013
▁intrigued	-8014
▁negotiate	-8015
▁potential	-8016
▁predicted	-8017
▁protected	-8018
▁realistic	-8019
▁religions	-8020
▁religious	-8021
▁requested	-8022
▁responded	-8023
▁screaming	-8024
▁shoulders	-8025
▁signature	-8026
▁squeaking	-8027
▁stressful	-8028
▁surprises	-8029
▁technique	-8030
▁teenagers	-8031
▁telescope	-8032
▁thousands	-8033
▁travelers	-8034
▁villagers	-8035
▁warehouse	-8036
▁worthless	-8037
▁Christians	-8038
▁accountant	-8039
▁babysitter	-8040
▁characters	-8041
▁chocolates	-8042
▁chopsticks	-8043
▁compromise	-8044
▁connection	-8045
▁exaggerate	-8046
▁expression	-8047
▁hesitation	-8048
▁impressive	-8049
▁meditating	-8050
▁microscope	-8051
▁mosquitoes	-8052
▁philosophy	-8053
▁regardless	-8054
▁relatively	-8055
▁separately	-8056
▁sunbathing	-8057
▁throughout	-8058
▁tournament	-8059
▁translator	-8060
▁unattended	-8061
▁unbearable	-8062
▁cooperation	-8063
▁discouraged	-8064
▁inhabitants	-8065
▁masterpiece	-8066
▁nationality	-8067
▁necessarily	-8068
▁significant	-8069
▁architecture	-8070
▁carelessness	-8071
▁dictionaries	-8072
▁exaggerating	-8073
▁exhilarating	-8074
▁housesitting	-8075
▁psychiatrist	-8076
▁unsuccessful	-8077
▁approximately	-8078
▁communication	-8079
▁intentionally	-8080
▁irresponsible	-8081
▁questionnaire	-8082
▁disappointment	-8083
".	-8084
20	-8085
DS	-8086
He	-8087
NA	-8088
hj	-8089
ij	-8090
jo	-8091
ta	-8092
Don	-8093
You	-8094
bia	-8095
bor	-8096
cod	-8097
eer	-8098
ete	-8099
ffe	-8100
ggy	-8101
gun	-8102
hic	-8103
ima	-8104
inc	-8105
ino	-8106
iro	-8107
isc	-8108
iti	-8109
lor	-8110
lps	-8111
oli	-8112
oro	-8113
put	-8114
ris	-8115
sle	-8116
ste	-8117
uba	-8118
was	-8119
zes	-8120
▁AI	-8121
▁Ed	-8122
▁Im	-8123
▁ut	-8124
▁vi	-8125
abul	-8126
alog	-8127
anic	-8128
atis	-8129
bble	-8130
bled	-8131
bras	-8132
brow	-8133
dict	-8134
gled	-8135
hecy	-8136
hold	-8137
iety	-8138
ille	-8139
imet	-8140
keys	-8141
like	-8142
lish	-8143
mark	-8144
ntil	-8145
onia	-8146
oons	-8147
oppy	-8148
oral	-8149
orse	-8150
oser	-8151
pack	-8152
pler	-8153
resa	-8154
rote	-8155
seas	-8156
term	-8157
ties	-8158
uese	-8159
umul	-8160
urbs	-8161
▁Art	-8162
▁Bew	-8163
▁Bur	-8164
▁DNA	-8165
▁Dar	-8166
▁Del	-8167
▁Fam	-8168
▁Lad	-8169
▁Lay	-8170
▁Lie	-8171
▁Mus	-8172
▁Nar	-8173
▁Oil	-8174
▁Pal	-8175
▁Tex	-8176
▁Tit	-8177
▁Wha	-8178
▁ade	-8179
▁bru	-8180
▁fra	-8181
▁hay	-8182
▁net	-8183
▁nut	-8184
▁oak	-8185
▁rud	-8186
▁sch	-8187
▁sen	-8188
▁tob	-8189
▁tum	-8190
▁ups	-8191
▁vul	-8192
abies	-8193
aders	-8194
agedy	-8195
aging	-8196
angle	-8197
arian	-8198
ascul	-8199
asted	-8200
backs	-8201
brows	-8202
ccoli	-8203
emned	-8204
essim	-8205
geles	-8206
great	-8207
hjong	-8208
ighed	-8209
itter	-8210
lands	-8211
olite	-8212
olved	-8213
oning	-8214
order	-8215
ounts	-8216
owers	-8217
point	-8218
react	-8219
rover	-8220
teria	-8221
ustle	-8222
venir	-8223
works	-8224
▁Alps	-8225
▁Beat	-8226
▁Belg	-8227
▁Chan	-8228
▁Exam	-8229
▁Fear	-8230
▁Foot	-8231
▁Holl	-8232
▁Hong	-8233
▁Kong	-8234
▁Paul	-8235
▁Pick	-8236
▁Then	-8237
▁Wood	-8238
▁ache	-8239
▁agon	-8240
▁ants	-8241
▁bicy	-8242
▁corn	-8243
▁diab	-8244
▁diag	-8245
▁dice	-8246
▁disk	-8247
▁flaw	-8248
▁gull	-8249
▁hack	-8250
▁hens	-8251
▁intr	-8252
▁itch	-8253
▁merc	-8254
▁mult	-8255
▁pand	-8256
▁peas	-8257
▁pies	-8258
▁pigs	-8259
▁prem	-8260
▁prim	-8261
▁rung	-8262
▁rust	-8263
▁saus	-8264
▁skis	-8265
▁slip	-8266
▁tape	-8267
▁tort	-8268
▁tuna	-8269
▁urge	-8270
▁wars	-8271
▁wate	-8272
▁wept	-8273
▁wool	-8274
00,000	-8275
abouts	-8276
apable	-8277
astrop	-8278
atical	-8279
ceeded	-8280
hibits	-8281
ietnam	-8282
ioneer	-8283
isible	-8284
ometer	-8285
oodles	-8286
oughed	-8287
rovers	-8288
screen	-8289
sonist	-8290
urable	-8291
witted	-8292
▁Bears	-8293
▁Buddh	-8294
▁Civil	-8295
▁Elect	-8296
▁Exper	-8297
▁Fight	-8298
▁Forty	-8299
▁Seize	-8300
▁Shake	-8301
▁Share	-8302
▁Small	-8303
▁Stick	-8304
▁Tower	-8305
▁Trust	-8306
▁Words	-8307
▁admir	-8308
▁backs	-8309
▁banjo	-8310
▁bleed	-8311
▁bores	-8312
▁cling	-8313
▁coast	-8314
▁crane	-8315
▁crawl	-8316
▁cubes	-8317
▁delet	-8318
▁devil	-8319
▁dilig	-8320
▁discl	-8321
▁disgr	-8322
▁drums	-8323
▁eater	-8324
▁exped	-8325
▁faced	-8326
▁fined	-8327
▁float	-8328
▁gazed	-8329
▁gorge	-8330
▁grace	-8331
▁gross	-8332
▁guest	-8333
▁guilt	-8334
▁heels	-8335
▁hypoc	-8336
▁ideal	-8337
▁items	-8338
▁kites	-8339
▁kneel	-8340
▁lobby	-8341
▁logic	-8342
▁lungs	-8343
▁marsh	-8344
▁miner	-8345
▁miser	-8346
▁moral	-8347
▁orche	-8348
▁pairs	-8349
▁pesos	-8350
▁porch	-8351
▁recon	-8352
▁robot	-8353
▁slave	-8354
▁staff	-8355
▁sympt	-8356
▁tango	-8357
▁tense	-8358
▁trips	-8359
▁votes	-8360
▁waves	-8361
▁whirl	-8362
▁widow	-8363
▁wives	-8364
▁wrink	-8365
aughter	-8366
autions	-8367
ethical	-8368
fashion	-8369
ificial	-8370
inished	-8371
ractive	-8372
smoking	-8373
umbling	-8374
▁Attack	-8375
▁Beware	-8376
▁Comput	-8377
▁Easter	-8378
▁Ignore	-8379
▁Living	-8380
▁Narita	-8381
▁Palace	-8382
▁Recent	-8383
▁Second	-8384
▁Teresa	-8385
▁Turkey	-8386
▁Whales	-8387
▁Wouldn	-8388
▁abused	-8389
▁allows	-8390
▁appeal	-8391
▁astute	-8392
▁attach	-8393
▁banned	-8394
▁beggar	-8395
▁blocks	-8396
▁boasts	-8397
▁braces	-8398
▁breast	-8399
▁breeds	-8400
▁burden	-8401
▁choked	-8402
▁counts	-8403
▁creepy	-8404
▁defect	-8405
▁eavesd	-8406
▁eighth	-8407
▁equals	-8408
▁fasten	-8409
▁flavor	-8410
▁floors	-8411
▁formal	-8412
▁frying	-8413
▁golfer	-8414
▁growth	-8415
▁hassle	-8416
▁indisp	-8417
▁ingred	-8418
▁injury	-8419
▁judged	-8420
▁kisser	-8421
▁learns	-8422
▁length	-8423
▁lenses	-8424
▁licked	-8425
▁madman	-8426
▁mechan	-8427
▁milder	-8428
▁minisk	-8429
▁modest	-8430
▁nights	-8431
▁notify	-8432
▁overfl	-8433
▁owners	-8434
▁parade	-8435
▁parcel	-8436
▁parent	-8437
▁pearls	-8438
▁pessim	-8439
▁plague	-8440
▁prejud	-8441
▁profit	-8442
▁proves	-8443
▁reform	-8444
▁refres	-8445
▁relied	-8446
▁review	-8447
▁rivers	-8448
▁rubber	-8449
▁runner	-8450
▁sample	-8451
▁shiver	-8452
▁sloppy	-8453
▁softly	-8454
▁splend	-8455
▁spouse	-8456
▁steady	-8457
▁topics	-8458
▁trusts	-8459
▁unique	-8460
▁united	-8461
▁voting	-8462
▁whales	-8463
asculine	-8464
inosaurs	-8465
umulated	-8466
▁Airport	-8467
▁Angeles	-8468
▁Breathe	-8469
▁Central	-8470
▁Contact	-8471
▁Falling	-8472
▁Science	-8473
▁Silence	-8474
▁Twitter	-8475
▁amateur	-8476
▁assured	-8477
▁athlete	-8478
▁balloon	-8479
▁bandage	-8480
▁banging	-8481
▁behaves	-8482
▁causing	-8483
▁cleaner	-8484
▁clients	-8485
▁cricket	-8486
▁damages	-8487
▁decreas	-8488
▁deepest	-8489
▁desires	-8490
▁devious	-8491
▁discrim	-8492
▁donated	-8493
▁doubted	-8494
▁effects	-8495
▁extinct	-8496
▁feather	-8497
▁fiction	-8498
▁folding	-8499
▁fulfill	-8500
▁guesses	-8501
▁handful	-8502
▁happily	-8503
▁heights	-8504
▁humming	-8505
▁include	-8506
▁indoors	-8507
▁justice	-8508
▁leading	-8509
▁lighter	-8510
▁mahjong	-8511
▁mailman	-8512
▁manipul	-8513
▁melting	-8514
▁monkeys	-8515
▁museums	-8516
▁objects	-8517
▁observe	-8518
▁packing	-8519
▁pattern	-8520
▁pigeons	-8521
▁printed	-8522
▁proverb	-8523
▁rainbow	-8524
▁release	-8525
▁resting	-8526
▁rewrote	-8527
▁routine	-8528
▁ruining	-8529
▁seeking	-8530
▁simpler	-8531
▁slumped	-8532
▁species	-8533
▁spotted	-8534
▁squeeze	-8535
▁stalled	-8536
▁starved	-8537
▁stifled	-8538
▁strings	-8539
▁stunned	-8540
▁suburbs	-8541
▁sucking	-8542
▁suffers	-8543
▁sunburn	-8544
▁tighten	-8545
▁tobacco	-8546
▁towards	-8547
▁tragedy	-8548
▁tripped	-8549
▁uncanny	-8550
▁vanilla	-8551
▁verdict	-8552
▁watered	-8553
▁wonders	-8554
fashioned	-8555
▁Atlantic	-8556
▁European	-8557
▁absorbed	-8558
▁adequate	-8559
▁ambition	-8560
▁approval	-8561
▁arsonist	-8562
▁belonged	-8563
▁bothered	-8564
▁burglary	-8565
▁channels	-8566
▁checking	-8567
▁chickens	-8568
▁contrary	-8569
▁cultural	-8570
▁deceased	-8571
▁delivery	-8572
▁designer	-8573
▁diabetic	-8574
▁diligent	-8575
▁dreadful	-8576
▁dripping	-8577
▁emotions	-8578
▁evacuate	-8579
▁extended	-8580
▁eyebrows	-8581
▁flirting	-8582
▁gorgeous	-8583
▁handcuff	-8584
▁homeless	-8585
▁hydrogen	-8586
▁identity	-8587
▁ignoring	-8588
▁illusion	-8589
▁immature	-8590
▁impolite	-8591
▁included	-8592
▁invaders	-8593
▁lemonade	-8594
▁machines	-8595
▁military	-8596
▁monument	-8597
▁numerous	-8598
▁observed	-8599
▁overcome	-8600
▁overseas	-8601
▁parallel	-8602
▁peaceful	-8603
▁poisoned	-8604
▁polluted	-8605
▁prophecy	-8606
▁rational	-8607
▁realizes	-8608
▁replaced	-8609
▁scarcely	-8610
▁sensible	-8611
▁shortage	-8612
▁silently	-8613
▁souvenir	-8614
▁spoonful	-8615
▁squirrel	-8616
▁stalling	-8617
▁stressed	-8618
▁strictly	-8619
▁superior	-8620
▁swimsuit	-8621
▁switched	-8622
▁treating	-8623
▁unbeliev	-8624
▁weakness	-8625
▁whistled	-8626
▁Education	-8627
▁Happiness	-8628
▁Saturdays	-8629
▁affection	-8630
▁announcer	-8631
▁arguments	-8632
▁assembled	-8633
▁astronomy	-8634
▁catastrop	-8635
▁commander	-8636
▁condemned	-8637
▁convicted	-8638
▁criticize	-8639
▁deceitful	-8640
▁delighted	-8641
▁demanding	-8642
▁developed	-8643
▁earphones	-8644
▁easygoing	-8645
▁economics	-8646
▁emotional	-8647
▁firefight	-8648
▁gentlemen	-8649
▁groceries	-8650
▁hospitals	-8651
▁incapable	-8652
▁installed	-8653
▁invisible	-8654
▁margarine	-8655
▁microwave	-8656
▁motivated	-8657
▁mysteries	-8658
▁neglected	-8659
▁offensive	-8660
▁overreact	-8661
▁poisonous	-8662
▁preferred	-8663
▁railroads	-8664
▁recession	-8665
▁sacrifice	-8666
▁skeptical	-8667
▁strangely	-8668
▁strongest	-8669
▁sunscreen	-8670
▁survivors	-8671
▁twentieth	-8672
▁whistling	-8673
▁witnessed	-8674
▁Englishman	-8675
▁Portuguese	-8676
▁activities	-8677
▁ambassador	-8678
▁anticipate	-8679
▁appetizing	-8680
▁astonished	-8681
▁background	-8682
▁bankruptcy	-8683
▁belongings	-8684
▁cautiously	-8685
▁celebrated	-8686
▁conscience	-8687
▁controvers	-8688
▁decorating	-8689
▁democratic	-8690
▁diplomatic	-8691
▁exceptions	-8692
▁expedition	-8693
▁frustrated	-8694
▁headlights	-8695
▁kidnappers	-8696
▁medication	-8697
▁principles	-8698
▁questioned	-8699
▁reflection	-8700
▁scientific	-8701
▁scientists	-8702
▁speechless	-8703
▁volunteers	-8704
▁watermelon	-8705
▁wheelchair	-8706
▁accumulated	-8707
▁anticipated	-8708
▁blackmailed	-8709
▁cockroaches	-8710
▁differences	-8711
▁forgiveness	-8712
▁grammatical	-8713
▁hairdresser	-8714
▁inspiration	-8715
▁photographs	-8716
▁practically	-8717
▁precautions	-8718
▁resignation	-8719
▁suggestions	-8720
▁surrendered	-8721
▁traditional	-8722
▁whereabouts	-8723
▁fingerprints	-8724
▁occasionally	-8725
▁organization	-8726
▁participated	-8727
▁unattractive	-8728
▁archaeologist	-8729
▁concentrating	-8730
▁representative	-8731
ae	-8732
rm	-8733
tr	-8734
amb	-8735
bes	-8736
bul	-8737
dam	-8738
ded	-8739
edo	-8740
eek	-8741
few	-8742
hik	-8743
hol	-8744
iam	-8745
ica	-8746
icc	-8747
ien	-8748
igs	-8749
imp	-8750
ims	-8751
ini	-8752
lif	-8753
mes	-8754
och	-8755
ogy	-8756
ola	-8757
roe	-8758
rot	-8759
sse	-8760
the	-8761
uke	-8762
ula	-8763
utt	-8764
win	-8765
▁2.	-8766
▁22	-8767
▁Ak	-8768
▁El	-8769
▁Em	-8770
▁Gl	-8771
▁Ir	-8772
▁Ma	-8773
▁Mc	-8774
▁Ph	-8775
▁Pr	-8776
▁ax	-8777
▁ze	-8778
300.	-8779
abor	-8780
agle	-8781
agne	-8782
alls	-8783
aned	-8784
anji	-8785
apes	-8786
apor	-8787
ardv	-8788
ares	-8789
ario	-8790
aser	-8791
away	-8792
bish	-8793
bows	-8794
bted	-8795
cake	-8796
cest	-8797
cott	-8798
eapp	-8799
ends	-8800
esar	-8801
fish	-8802
free	-8803
hens	-8804
hole	-8805
inge	-8806
ipes	-8807
irth	-8808
isen	-8809
itis	-8810
itor	-8811
itty	-8812
just	-8813
keep	-8814
lers	-8815
mers	-8816
misp	-8817
name	-8818
nuts	-8819
oids	-8820
olar	-8821
oped	-8822
opin	-8823
othe	-8824
page	-8825
park	-8826
quil	-8827
rise	-8828
sing	-8829
sive	-8830
stra	-8831
text	-8832
udge	-8833
wife	-8834
▁10.	-8835
▁Aim	-8836
▁Aut	-8837
▁Bad	-8838
▁Bes	-8839
▁Bun	-8840
▁Cop	-8841
▁Den	-8842
▁Des	-8843
▁Due	-8844
▁Ein	-8845
▁Fat	-8846
▁Fed	-8847
▁Fif	-8848
▁Gam	-8849
▁Gir	-8850
▁Ham	-8851
▁Hit	-8852
▁Nap	-8853
▁Out	-8854
▁Rio	-8855
▁Sen	-8856
▁Ski	-8857
▁Sup	-8858
▁Ton	-8859
▁alt	-8860
▁apt	-8861
▁bod	-8862
▁coc	-8863
▁cyn	-8864
▁fax	-8865
▁gal	-8866
▁jay	-8867
▁mer	-8868
▁nun	-8869
▁ome	-8870
▁pup	-8871
▁rhy	-8872
▁sop	-8873
▁tux	-8874
▁wax	-8875
abled	-8876
acked	-8877
ading	-8878
arten	-8879
cloth	-8880
cohol	-8881
dream	-8882
eight	-8883
estic	-8884
ienna	-8885
ilant	-8886
incts	-8887
inent	-8888
ishes	-8889
lects	-8890
lines	-8891
mares	-8892
metic	-8893
oleon	-8894
orous	-8895
oxide	-8896
reasy	-8897
stein	-8898
table	-8899
uctor	-8900
umpet	-8901
▁AIDS	-8902
▁Alex	-8903
▁Cong	-8904
▁Corn	-8905
▁Ford	-8906
▁Jane	-8907
▁Merc	-8908
▁Milk	-8909
▁Musl	-8910
▁Nile	-8911
▁Owls	-8912
▁Pain	-8913
▁Peru	-8914
▁Pole	-8915
▁Rain	-8916
▁Rats	-8917
▁Roll	-8918
▁Sold	-8919
▁Toss	-8920
▁Warn	-8921
▁abst	-8922
▁alto	-8923
▁athe	-8924
▁bart	-8925
▁bias	-8926
▁blog	-8927
▁boun	-8928
▁bugs	-8929
▁bury	-8930
▁cafe	-8931
▁chin	-8932
▁chol	-8933
▁code	-8934
▁cope	-8935
▁dign	-8936
▁dorm	-8937
▁drum	-8938
▁erup	-8939
▁feat	-8940
▁fist	-8941
▁folk	-8942
▁grin	-8943
▁heir	-8944
▁hicc	-8945
▁hunt	-8946
▁inch	-8947
▁inqu	-8948
▁knit	-8949
▁koal	-8950
▁mini	-8951
▁mixt	-8952
▁mole	-8953
▁nick	-8954
▁nude	-8955
▁odds	-8956
▁pepp	-8957
▁pony	-8958
▁rehe	-8959
▁robe	-8960
▁sigh	-8961
▁site	-8962
▁slap	-8963
▁smir	-8964
▁sole	-8965
▁sout	-8966
▁sued	-8967
▁teas	-8968
▁torn	-8969
▁tube	-8970
▁unac	-8971
▁vibr	-8972
▁wage	-8973
▁weep	-8974
acious	-8975
alogue	-8976
arison	-8977
coming	-8978
culiar	-8979
ending	-8980
ferior	-8981
iation	-8982
iberty	-8983
icking	-8984
igning	-8985
intend	-8986
ipping	-8987
issant	-8988
istent	-8989
judged	-8990
leader	-8991
ocated	-8992
oosing	-8993
ortion	-8994
oshima	-8995
pering	-8996
redded	-8997
tering	-8998
uction	-8999
unning	-9000
urning	-9001
utions	-9002
washer	-9003
▁3,000	-9004
▁Among	-9005
▁Blood	-9006
▁Cheer	-9007
▁Daddy	-9008
▁Death	-9009
▁Faith	-9010
▁Flash	-9011
▁Going	-9012
▁Lunch	-9013
▁Party	-9014
▁abhor	-9015
▁accus	-9016
▁admin	-9017
▁ambig	-9018
▁ambit	-9019
▁await	-9020
▁bakes	-9021
▁barbe	-9022
▁barks	-9023
▁beats	-9024
▁belts	-9025
▁bloss	-9026
▁boats	-9027
▁brill	-9028
▁broch	-9029
▁canoe	-9030
▁cello	-9031
▁chips	-9032
▁clerk	-9033
▁clown	-9034
▁cries	-9035
▁crush	-9036
▁cryst	-9037
▁curse	-9038
▁dozed	-9039
▁drawn	-9040
▁eagle	-9041
▁equiv	-9042
▁fairy	-9043
▁fears	-9044
▁foxes	-9045
▁frank	-9046
▁fries	-9047
▁grind	-9048
▁hangs	-9049
▁hilar	-9050
▁kanji	-9051
▁knelt	-9052
▁labor	-9053
▁lasts	-9054
▁moves	-9055
▁muddy	-9056
▁newly	-9057
▁niece	-9058
▁orbit	-9059
▁overd	-9060
▁renew	-9061
▁resum	-9062
▁risen	-9063
▁route	-9064
▁saves	-9065
▁scale	-9066
▁seeds	-9067
▁shack	-9068
▁shark	-9069
▁shore	-9070
▁sniff	-9071
▁snore	-9072
▁snuck	-9073
▁sober	-9074
▁solar	-9075
▁spect	-9076
▁steam	-9077
▁swine	-9078
▁sworn	-9079
▁taxis	-9080
▁therm	-9081
▁thorn	-9082
▁tract	-9083
▁tribe	-9084
▁tumor	-9085
▁tunes	-9086
▁unfor	-9087
▁urban	-9088
▁views	-9089
▁wages	-9090
▁witch	-9091
▁witty	-9092
▁wrist	-9093
▁wrung	-9094
ability	-9095
abulary	-9096
ardvark	-9097
bedroom	-9098
ception	-9099
covered	-9100
etition	-9101
ganized	-9102
hearted	-9103
ificent	-9104
imeters	-9105
inarian	-9106
incible	-9107
mallows	-9108
ression	-9109
uggling	-9110
visions	-9111
▁Butter	-9112
▁Chopin	-9113
▁Darwin	-9114
▁Edison	-9115
▁Horses	-9116
▁Indust	-9117
▁Invest	-9118
▁Monroe	-9119
▁Nature	-9120
▁Norway	-9121
▁Romans	-9122
▁Serbia	-9123
▁Sooner	-9124
▁Statue	-9125
▁abrupt	-9126
▁accord	-9127
▁ancest	-9128
▁anchor	-9129
▁backup	-9130
▁beaten	-9131
▁behalf	-9132
▁bushes	-9133
▁campus	-9134
▁circus	-9135
▁creeps	-9136
▁crimes	-9137
▁curfew	-9138
▁dances	-9139
▁differ	-9140
▁donate	-9141
▁dragon	-9142
▁drowsy	-9143
▁elbows	-9144
▁events	-9145
▁export	-9146
▁expose	-9147
▁fields	-9148
▁fights	-9149
▁fruits	-9150
▁gladly	-9151
▁glance	-9152
▁greasy	-9153
▁guards	-9154
▁heated	-9155
▁heaven	-9156
▁histor	-9157
▁hyster	-9158
▁immune	-9159
▁killer	-9160
▁locker	-9161
▁mainly	-9162
▁manner	-9163
▁nicely	-9164
▁obsess	-9165
▁omelet	-9166
▁oppose	-9167
▁overhe	-9168
▁owning	-9169
▁paraly	-9170
▁parrot	-9171
▁pastry	-9172
▁peeled	-9173
▁phones	-9174
▁pizzas	-9175
▁polish	-9176
▁proven	-9177
▁purple	-9178
▁quarre	-9179
▁resume	-9180
▁ripped	-9181
▁sealed	-9182
▁seller	-9183
▁serves	-9184
▁shares	-9185
▁sprang	-9186
▁spying	-9187
▁starve	-9188
▁sticks	-9189
▁stroke	-9190
▁stroll	-9191
▁summit	-9192
▁teased	-9193
▁tender	-9194
▁therap	-9195
▁thesis	-9196
▁ticked	-9197
▁timing	-9198
▁tiring	-9199
▁tuxedo	-9200
▁waking	-9201
▁whisky	-9202
▁wicked	-9203
▁winked	-9204
▁wisely	-9205
▁wounds	-9206
▁yogurt	-9207
▁zebras	-9208
▁zipper	-9209
asonable	-9210
atisfied	-9211
ceptable	-9212
ergarten	-9213
fighting	-9214
iversary	-9215
ological	-9216
ordinary	-9217
roverted	-9218
▁Ancient	-9219
▁Austria	-9220
▁Belgium	-9221
▁Besides	-9222
▁Denmark	-9223
▁Driving	-9224
▁Examine	-9225
▁Express	-9226
▁Foreign	-9227
▁Fridays	-9228
▁Iceland	-9229
▁Janeiro	-9230
▁Justice	-9231
▁Liberty	-9232
▁Mercury	-9233
▁Olympic	-9234
▁Promise	-9235
▁Swedish	-9236
▁Tonight	-9237
▁Walking	-9238
▁Winning	-9239
▁barbers	-9240
▁benefit	-9241
▁blushed	-9242
▁boarded	-9243
▁bothers	-9244
▁boycott	-9245
▁bullets	-9246
▁buttons	-9247
▁carries	-9248
▁clarify	-9249
▁clogged	-9250
▁confirm	-9251
▁conform	-9252
▁console	-9253
▁copying	-9254
▁coughed	-9255
▁counted	-9256
▁custody	-9257
▁cynical	-9258
▁deliber	-9259
▁deposit	-9260
▁dischar	-9261
▁distant	-9262
▁distrib	-9263
▁drained	-9264
▁drought	-9265
▁emptied	-9266
▁equator	-9267
▁ethical	-9268
▁examine	-9269
▁existed	-9270
▁expires	-9271
▁explore	-9272
▁figures	-9273
▁filling	-9274
▁fingern	-9275
▁fireman	-9276
▁freaked	-9277
▁gallons	-9278
▁gunfire	-9279
▁gunshot	-9280
▁handled	-9281
▁hardest	-9282
▁hitting	-9283
▁intense	-9284
▁islands	-9285
▁justify	-9286
▁kingdom	-9287
▁leaking	-9288
▁liberty	-9289
▁logical	-9290
▁mixture	-9291
▁monthly	-9292
▁noodles	-9293
▁overest	-9294
▁pastime	-9295
▁pierced	-9296
▁pinched	-9297
▁pineapp	-9298
▁pirates	-9299
▁plucked	-9300
▁plumber	-9301
▁pouring	-9302
▁precise	-9303
▁printer	-9304
▁prosper	-9305
▁reminis	-9306
▁rewrite	-9307
▁robbers	-9308
▁robbery	-9309
▁sausage	-9310
▁scripts	-9311
▁seaside	-9312
▁serving	-9313
▁setting	-9314
▁shotgun	-9315
▁showers	-9316
▁somehow	-9317
▁sources	-9318
▁spirits	-9319
▁stashed	-9320
▁stretch	-9321
▁sunrise	-9322
▁thinner	-9323
▁trained	-9324
▁trimmed	-9325
▁trumpet	-9326
▁undergo	-9327
▁victims	-9328
▁visitor	-9329
▁wanting	-9330
▁western	-9331
▁whiskey	-9332
istration	-9333
▁Describe	-9334
▁Einstein	-9335
▁Football	-9336
▁Language	-9337
▁Minister	-9338
▁Napoleon	-9339
▁Olympics	-9340
▁Portugal	-9341
▁Recently	-9342
▁Republic	-9343
▁Soldiers	-9344
▁acquaint	-9345
▁activity	-9346
▁amounted	-9347
▁armchair	-9348
▁assigned	-9349
▁backpack	-9350
▁balanced	-9351
▁bedrooms	-9352
▁brightly	-9353
▁buttoned	-9354
▁campfire	-9355
▁checkers	-9356
▁choosing	-9357
▁clearing	-9358
▁collapse	-9359
▁composer	-9360
▁concerns	-9361
▁contents	-9362
▁crawling	-9363
▁deciding	-9364
▁decorate	-9365
▁discreet	-9366
▁disliked	-9367
▁disorder	-9368
▁dolphins	-9369
▁earliest	-9370
▁emphasis	-9371
▁enlisted	-9372
▁equipped	-9373
▁executed	-9374
▁explored	-9375
▁fastened	-9376
▁floating	-9377
▁function	-9378
▁grandson	-9379
▁gullible	-9380
▁hostages	-9381
▁includes	-9382
▁indebted	-9383
▁inferior	-9384
▁internal	-9385
▁meanings	-9386
▁meditate	-9387
▁minerals	-9388
▁minister	-9389
▁nitrogen	-9390
▁northern	-9391
▁organize	-9392
▁overlook	-9393
▁overtime	-9394
▁peculiar	-9395
▁postcard	-9396
▁programs	-9397
▁quitting	-9398
▁reaction	-9399
▁regulate	-9400
▁retiring	-9401
▁scenario	-9402
▁services	-9403
▁shouting	-9404
▁shredded	-9405
▁shrugged	-9406
▁smoothly	-9407
▁snobbish	-9408
▁speeding	-9409
▁splashed	-9410
▁splendid	-9411
▁survival	-9412
▁symptoms	-9413
▁telegram	-9414
▁touching	-9415
▁unicycle	-9416
▁unsolved	-9417
▁vigilant	-9418
▁waitress	-9419
▁watering	-9420
employment	-9421
▁Admission	-9422
▁Breakfast	-9423
▁Computers	-9424
▁Dinosaurs	-9425
▁Europeans	-9426
▁admission	-9427
▁allergies	-9428
▁ambitious	-9429
▁apologies	-9430
▁believing	-9431
▁biologist	-9432
▁bodyguard	-9433
▁brilliant	-9434
▁butterfly	-9435
▁cardboard	-9436
▁carpenter	-9437
▁catalogue	-9438
▁complaint	-9439
▁croissant	-9440
▁democracy	-9441
▁engineers	-9442
▁evolution	-9443
▁fireplace	-9444
▁fireworks	-9445
▁gathering	-9446
▁handcuffs	-9447
▁headaches	-9448
▁healthier	-9449
▁heartless	-9450
▁hilarious	-9451
▁hurricane	-9452
▁imaginary	-9453
▁instincts	-9454
▁masculine	-9455
▁misjudged	-9456
▁muttering	-9457
▁obligated	-9458
▁orchestra	-9459
▁populated	-9460
▁returning	-9461
▁satellite	-9462
▁shivering	-9463
▁stretched	-9464
▁supported	-9465
▁suspended	-9466
▁swallowed	-9467
▁technical	-9468
▁territory	-9469
▁terrorist	-9470
▁testified	-9471
▁universal	-9472
▁witnesses	-9473
grandfather	-9474
▁Australian	-9475
▁altogether	-9476
▁artificial	-9477
▁candidates	-9478
▁challenged	-9479
▁cheesecake	-9480
▁comparison	-9481
▁compulsive	-9482
▁constantly	-9483
▁contradict	-9484
▁contribute	-9485
▁demolished	-9486
▁dishwasher	-9487
▁electrical	-9488
▁enthusiasm	-9489
▁equivalent	-9490
▁guaranteed	-9491
▁industrial	-9492
▁invincible	-9493
▁irritating	-9494
▁passionate	-9495
▁permitting	-9496
▁prediction	-9497
▁productive	-9498
▁protection	-9499
▁responding	-9500
▁scratching	-9501
▁settlement	-9502
▁sharpening	-9503
▁strawberry	-9504
▁suggesting	-9505
▁supporters	-9506
▁tablecloth	-9507
▁terrorists	-9508
▁thoroughly	-9509
▁unfinished	-9510
▁vocabulary	-9511
▁agriculture	-9512
▁allegations	-9513
▁anniversary	-9514
▁apologizing	-9515
▁businessman	-9516
▁centimeters	-9517
▁cheerleader	-9518
▁considerate	-9519
▁considering	-9520
▁constructed	-9521
▁experienced	-9522
▁experiences	-9523
▁firefighter	-9524
▁humiliating	-9525
▁instruments	-9526
▁investigate	-9527
▁magnificent	-9528
▁negotiation	-9529
▁patronizing	-9530
▁transferred	-9531
▁Christianity	-9532
▁concentrated	-9533
▁confidential	-9534
▁enthusiastic	-9535
▁expectations	-9536
▁extinguished	-9537
▁kindergarten	-9538
▁marshmallows	-9539
▁negotiations	-9540
▁presidential	-9541
▁suspiciously	-9542
▁unacceptable	-9543
▁unreasonable	-9544
▁veterinarian	-9545
▁controversial	-9546
▁demonstration	-9547
▁grandchildren	-9548
▁handkerchiefs	-9549
▁materialistic	-9550
▁relationships	-9551
TM	-9552
hu	-9553
ja	-9554
rs	-9555
sl	-9556
00?	-9557
10.	-9558
300	-9559
FOs	-9560
Get	-9561
Not	-9562
ali	-9563
arc	-9564
bic	-9565
cue	-9566
def	-9567
dge	-9568
edy	-9569
ena	-9570
gin	-9571
iac	-9572
ips	-9573
isa	-9574
juk	-9575
kes	-9576
ley	-9577
off	-9578
omn	-9579
oop	-9580
tan	-9581
ths	-9582
uan	-9583
ura	-9584
whe	-9585
you	-9586
▁21	-9587
▁3,	-9588
▁3.	-9589
▁Bi	-9590
▁Ev	-9591
▁Ge	-9592
▁Po	-9593
▁dw	-9594
▁ep	-9595
▁hi	-9596
They	-9597
Tube	-9598
adem	-9599
urb	-9600
affe	-9601
alid	-9602
aman	-9603
anan	-9604
ancy	-9605
anky	-9606
arts	-9607
atab	-9608
bler	-9609
cile	-9610
cled	-9611
clip	-9612
days	-9613
east	-9614
eged	-9615
emet	-9616
emor	-9617
enic	-9618
enth	-9619
etho	-9620
fted	-9621
gher	-9622
give	-9623
hell	-9624
hier	-9625
hies	-9626
ianc	-9627
idal	-9628
ilyn	-9629
imal	-9630
imed	-9631
imid	-9632
imum	-9633
inoc	-9634
inue	-9635
ixon	-9636
juku	-9637
lict	-9638
mons	-9639
mper	-9640
mpty	-9641
nate	-9642
neum	-9643
nies	-9644
obal	-9645
obey	-9646
odor	-9647
oler	-9648
oles	-9649
omas	-9650
omin	-9651
onge	-9652
ooks	-9653
opsy	-9654
ousy	-9655
ping	-9656
ples	-9657
rant	-9658
rawn	-9659
robe	-9660
ront	-9661
rous	-9662
ship	-9663
sion	-9664
ssel	-9665
stan	-9666
star	-9667
tail	-9668
test	-9669
uced	-9670
ugar	-9671
uiet	-9672
uros	-9673
wear	-9674
weds	-9675
wort	-9676
ylum	-9677
▁ATM	-9678
▁Ant	-9679
▁Bar	-9680
▁Bow	-9681
▁Cam	-9682
▁Coc	-9683
▁Com	-9684
▁Cup	-9685
▁Det	-9686
▁Div	-9687
▁Far	-9688
▁Fig	-9689
▁Gar	-9690
▁Hon	-9691
▁Int	-9692
▁Jup	-9693
▁Ken	-9694
▁Law	-9695
▁Lou	-9696
▁Mad	-9697
▁Med	-9698
▁Mic	-9699
▁Mow	-9700
▁Net	-9701
▁Pan	-9702
▁Pot	-9703
▁Rel	-9704
▁Rev	-9705
▁Squ	-9706
▁Ter	-9707
▁ace	-9708
▁ang	-9709
▁ash	-9710
▁asp	-9711
▁bra	-9712
▁ecc	-9713
▁fab	-9714
▁fug	-9715
▁god	-9716
▁hen	-9717
▁hub	-9718
▁jit	-9719
▁jun	-9720
▁kar	-9721
▁lif	-9722
▁mal	-9723
▁mug	-9724
▁owl	-9725
▁pac	-9726
▁pad	-9727
▁pip	-9728
▁pit	-9729
▁que	-9730
▁reb	-9731
▁rip	-9732
▁rut	-9733
▁syn	-9734
▁tab	-9735
▁toe	-9736
▁tuc	-9737
▁ven	-9738
▁via	-9739
acles	-9740
angar	-9741
antis	-9742
atory	-9743
aware	-9744
bbing	-9745
blind	-9746
celer	-9747
ckles	-9748
class	-9749
cript	-9750
dreds	-9751
eline	-9752
ertil	-9753
eself	-9754
esson	-9755
feree	-9756
gment	-9757
hable	-9758
hobic	-9759
hower	-9760
icate	-9761
icill	-9762
idesp	-9763
igsaw	-9764
insed	-9765
istan	-9766
lined	-9767
lphin	-9768
maker	-9769
onies	-9770
oshed	-9771
otein	-9772
plant	-9773
ports	-9774
print	-9775
quila	-9776
raham	-9777
reeze	-9778
river	-9779
rough	-9780
roved	-9781
spect	-9782
tress	-9783
uated	-9784
ufact	-9785
uffle	-9786
uries	-9787
valry	-9788
verse	-9789
wives	-9790
ywood	-9791
▁Care	-9792
▁Cels	-9793
▁City	-9794
▁Cock	-9795
▁Comm	-9796
▁East	-9797
▁Fast	-9798
▁Heed	-9799
▁Hide	-9800
▁Imag	-9801
▁Jump	-9802
▁Kick	-9803
▁Kiss	-9804
▁Kobe	-9805
▁Lack	-9806
▁Live	-9807
▁Mail	-9808
▁Mass	-9809
▁Meet	-9810
▁Mine	-9811
▁Need	-9812
▁Norm	-9813
▁Okin	-9814
▁Pack	-9815
▁Pizz	-9816
▁Plug	-9817
▁Pope	-9818
▁Pret	-9819
▁Resp	-9820
▁Rock	-9821
▁Salt	-9822
▁Sapp	-9823
▁Slow	-9824
▁Snow	-9825
▁Teen	-9826
▁Tele	-9827
▁True	-9828
▁Wipe	-9829
▁ally	-9830
▁bait	-9831
▁barn	-9832
▁beds	-9833
▁bees	-9834
▁bene	-9835
▁carn	-9836
▁clap	-9837
▁core	-9838
▁corp	-9839
▁dial	-9840
▁dock	-9841
▁dogh	-9842
▁dual	-9843
▁fans	-9844
▁fare	-9845
▁flab	-9846
▁frag	-9847
▁frow	-9848
▁germ	-9849
▁grie	-9850
▁grip	-9851
▁guts	-9852
▁heed	-9853
▁hell	-9854
▁hood	-9855
▁iPod	-9856
▁init	-9857
▁kitt	-9858
▁laun	-9859
▁lays	-9860
▁leaf	-9861
▁leap	-9862
▁loaf	-9863
▁loos	-9864
▁mour	-9865
▁neut	-9866
▁obsc	-9867
▁peak	-9868
▁plot	-9869
▁plum	-9870
▁pole	-9871
▁publ	-9872
▁pupp	-9873
▁purs	-9874
▁rear	-9875
▁root	-9876
▁sadd	-9877
▁scat	-9878
▁sche	-9879
▁slid	-9880
▁soil	-9881
▁soph	-9882
▁ster	-9883
▁subt	-9884
▁sunk	-9885
▁trem	-9886
▁unin	-9887
▁ward	-9888
▁worm	-9889
▁zone	-9890
Donald	-9891
advant	-9892
ananas	-9893
ashing	-9894
astern	-9895
barrow	-9896
cedure	-9897
codile	-9898
cooked	-9899
ection	-9900
egedly	-9901
entric	-9902
ferent	-9903
garian	-9904
hedral	-9905
ikings	-9906
isters	-9907
lessly	-9908
liness	-9909
mbling	-9910
ogenic	-9911
ogical	-9912
ombone	-9913
ounter	-9914
parked	-9915
ravity	-9916
resist	-9917
rewell	-9918
roatia	-9919
skirts	-9920
ughter	-9921
umbers	-9922
undant	-9923
usions	-9924
ustrop	-9925
utable	-9926
vation	-9927
worthy	-9928
▁Apart	-9929
▁Apple	-9930
▁Asian	-9931
▁Brace	-9932
▁Bread	-9933
▁Build	-9934
▁Canal	-9935
▁Carry	-9936
▁Cover	-9937
▁Dance	-9938
▁Eight	-9939
▁Eisen	-9940
▁Empty	-9941
▁Games	-9942
▁Girls	-9943
▁House	-9944
▁Human	-9945
▁Irish	-9946
▁Large	-9947
▁Lower	-9948
▁Memor	-9949
▁Nixon	-9950
▁Nobel	-9951
▁Organ	-9952
▁Peace	-9953
▁Press	-9954
▁Prime	-9955
▁Roman	-9956
▁Sales	-9957
▁Smoke	-9958
▁Sound	-9959
▁State	-9960
▁Steel	-9961
▁Sugar	-9962
▁Super	-9963
▁Swiss	-9964
▁Techn	-9965
▁Texas	-9966
▁aloof	-9967
▁aloud	-9968
▁angle	-9969
▁bache	-9970
▁bacon	-9971
▁balls	-9972
▁boxer	-9973
▁brass	-9974
▁bumps	-9975
▁cease	-9976
▁cents	-9977
▁chief	-9978
▁curry	-9979
▁datab	-9980
▁dates	-9981
▁dealt	-9982
▁diagn	-9983
▁displ	-9984
▁distr	-9985
▁drops	-9986
▁eclip	-9987
▁emigr	-9988
▁euros	-9989
▁fianc	-9990
▁fires	-9991
▁floss	-9992
▁flown	-9993
▁fools	-9994
▁forks	-9995
▁fract	-9996
▁frost	-9997
▁funds	-9998
▁galax	-9999
▁globe	-10000
▁hatch	-10001
▁heads	-10002
▁inapp	-10003
▁insol	-10004
▁intox	-10005
▁itchy	-10006
▁kilos	-10007
▁koala	-10008
▁label	-10009
▁liars	-10010
▁lifet	-10011
▁locks	-10012
▁lousy	-10013
▁madly	-10014
▁media	-10015
▁mercy	-10016
▁mince	-10017
▁moist	-10018
▁natur	-10019
▁nerve	-10020
▁pains	-10021
▁palms	-10022
▁pengu	-10023
▁races	-10024
▁rates	-10025
▁rebel	-10026
▁relat	-10027
▁rides	-10028
▁roads	-10029
▁rolls	-10030
▁rusty	-10031
▁seize	-10032
▁sewed	-10033
▁shots	-10034
▁skysc	-10035
▁spoil	-10036
▁stair	-10037
▁steep	-10038
▁stung	-10039
▁subst	-10040
▁surve	-10041
▁symph	-10042
▁tails	-10043
▁tales	-10044
▁tenth	-10045
▁theme	-10046
▁timid	-10047
▁towns	-10048
▁typos	-10049
▁unfit	-10050
▁union	-10051
▁unnot	-10052
▁vague	-10053
abiding	-10054
ceptive	-10055
defense	-10056
dominal	-10057
emetery	-10058
icillin	-10059
intendo	-10060
iolence	-10061
irstyle	-10062
istance	-10063
itement	-10064
ittered	-10065
itution	-10066
lexible	-10067
nerable	-10068
odorant	-10069
ography	-10070
parable	-10071
portant	-10072
reeable	-10073
renched	-10074
rophone	-10075
uttoned	-10076
▁Adjust	-10077
▁Apples	-10078
▁Autumn	-10079
▁Babies	-10080
▁Cheese	-10081
▁Divide	-10082
▁Employ	-10083
▁Friend	-10084
▁Hamlet	-10085
▁Leaves	-10086
▁Lesson	-10087
▁Madrid	-10088
▁Middle	-10089
▁Nagano	-10090
▁Nether	-10091
▁Panama	-10092
▁Poland	-10093
▁Police	-10094
▁Polish	-10095
▁Safety	-10096
▁Seeing	-10097
▁Social	-10098
▁Taking	-10099
▁Thames	-10100
▁Thomas	-10101
▁Twenty	-10102
▁Wolves	-10103
▁actual	-10104
▁adding	-10105
▁annual	-10106
▁appoin	-10107
▁arrows	-10108
▁assass	-10109
▁asylum	-10110
▁babies	-10111
▁backed	-10112
▁ballet	-10113
▁beasts	-10114
▁boxing	-10115
▁brandy	-10116
▁breeze	-10117
▁bribes	-10118
▁bubble	-10119
▁bundle	-10120
▁caller	-10121
▁carols	-10122
▁cheers	-10123
▁chilly	-10124
▁client	-10125
▁clocks	-10126
▁colony	-10127
▁combed	-10128
▁covers	-10129
▁cranky	-10130
▁crunch	-10131
▁cutest	-10132
▁deaths	-10133
▁digest	-10134
▁discip	-10135
▁divide	-10136
▁dreamt	-10137
▁drying	-10138
▁eraser	-10139
▁favors	-10140
▁fertil	-10141
▁filmed	-10142
▁folder	-10143
▁glared	-10144
▁goatee	-10145
▁groggy	-10146
▁hanged	-10147
▁harass	-10148
▁harbor	-10149
▁heartb	-10150
▁hectic	-10151
▁hoarse	-10152
▁hollow	-10153
▁hunted	-10154
▁hustle	-10155
▁indeed	-10156
▁insomn	-10157
▁jigsaw	-10158
▁joints	-10159
▁junior	-10160
▁kangar	-10161
▁karate	-10162
▁kettle	-10163
▁kindly	-10164
▁lacked	-10165
▁landsc	-10166
▁lazier	-10167
▁lemons	-10168
▁liquid	-10169
▁mammal	-10170
▁manual	-10171
▁mature	-10172
▁mental	-10173
▁merely	-10174
▁mostly	-10175
▁mugged	-10176
▁mutual	-10177
▁obtain	-10178
▁opener	-10179
▁pantry	-10180
▁partly	-10181
▁pigeon	-10182
▁pilots	-10183
▁pirate	-10184
▁pledge	-10185
▁poetry	-10186
▁posted	-10187
▁praise	-10188
▁prepar	-10189
▁refurb	-10190
▁remedy	-10191
▁rinsed	-10192
▁robots	-10193
▁roller	-10194
▁sacred	-10195
▁senior	-10196
▁series	-10197
▁server	-10198
▁signal	-10199
▁skates	-10200
▁skelet	-10201
▁slaves	-10202
▁southe	-10203
▁spaces	-10204
▁specul	-10205
▁sponge	-10206
▁stable	-10207
▁stains	-10208
▁status	-10209
▁steals	-10210
▁stored	-10211
▁storms	-10212
▁streak	-10213
▁struct	-10214
▁submar	-10215
▁submit	-10216
▁suntan	-10217
▁surely	-10218
▁surged	-10219
▁tomboy	-10220
▁tracks	-10221
▁trophy	-10222
▁typing	-10223
▁untidy	-10224
▁upload	-10225
▁vessel	-10226
▁warmed	-10227
▁wheels	-10228
▁widely	-10229
▁widesp	-10230
▁winner	-10231
ferences	-10232
gettable	-10233
ifferent	-10234
ithmetic	-10235
lessness	-10236
neumonia	-10237
ologists	-10238
▁Alcohol	-10239
▁Bananas	-10240
▁Celsius	-10241
▁Certain	-10242
▁Charles	-10243
▁Croatia	-10244
▁Finding	-10245
▁Forgive	-10246
▁Germans	-10247
▁Getting	-10248
▁Goodbye	-10249
▁Jupiter	-10250
▁Kingdom	-10251
▁Leaving	-10252
▁Marilyn	-10253
▁Okinawa	-10254
▁Parents	-10255
▁Respect	-10256
▁Sapporo	-10257
▁Slavery	-10258
▁Staying	-10259
▁Success	-10260
▁Suppose	-10261
▁Titanic	-10262
▁Workers	-10263
▁YouTube	-10264
▁absorbs	-10265
▁acceler	-10266
▁admirer	-10267
▁admires	-10268
▁advises	-10269
▁affects	-10270
▁aground	-10271
▁alarmed	-10272
▁allergy	-10273
▁attends	-10274
▁auction	-10275
▁autopsy	-10276
▁battles	-10277
▁bedtime	-10278
▁blacked	-10279
▁blinded	-10280
▁blondes	-10281
▁botched	-10282
▁bowling	-10283
▁bravely	-10284
▁brushed	-10285
▁cabinet	-10286
▁cashier	-10287
▁chained	-10288
▁chapter	-10289
▁chopped	-10290
▁classic	-10291
▁cocaine	-10292
▁conquer	-10293
▁context	-10294
▁corrupt	-10295
▁costume	-10296
▁couples	-10297
▁crystal	-10298
▁debated	-10299
▁decline	-10300
▁deleted	-10301
▁despite	-10302
▁dieting	-10303
▁dioxide	-10304
▁disobey	-10305
▁divides	-10306
▁dolphin	-10307
▁dreamer	-10308
▁dresser	-10309
▁embassy	-10310
▁enabled	-10311
▁envious	-10312
▁escapes	-10313
▁experts	-10314
▁extract	-10315
▁finance	-10316
▁fingert	-10317
▁freezer	-10318
▁frowned	-10319
▁fumbled	-10320
▁gambler	-10321
▁giggled	-10322
▁giraffe	-10323
▁greener	-10324
▁grocery	-10325
▁growled	-10326
▁guitars	-10327
▁harshly	-10328
▁heading	-10329
▁healing	-10330
▁honored	-10331
▁hottest	-10332
▁however	-10333
▁howling	-10334
▁iceberg	-10335
▁intimid	-10336
▁intoler	-10337
▁invalid	-10338
▁involve	-10339
▁jaywalk	-10340
▁jittery	-10341
▁joining	-10342
▁kittens	-10343
▁laziest	-10344
▁leaders	-10345
▁liberal	-10346
▁majored	-10347
▁massage	-10348
▁mineral	-10349
▁misfort	-10350
▁morally	-10351
▁mustard	-10352
▁oneself	-10353
▁organic	-10354
▁outrage	-10355
▁payment	-10356
▁peasant	-10357
▁peppers	-10358
▁pioneer	-10359
▁proceed	-10360
▁profits	-10361
▁psyched	-10362
▁psychic	-10363
▁radical	-10364
▁reduced	-10365
▁referee	-10366
▁rehears	-10367
▁relieve	-10368
▁repairs	-10369
▁replied	-10370
▁resumed	-10371
▁retires	-10372
▁returns	-10373
▁romance	-10374
▁screams	-10375
▁shuffle	-10376
▁skipped	-10377
▁sleeves	-10378
▁sloshed	-10379
▁smashed	-10380
▁specify	-10381
▁swamped	-10382
▁teasing	-10383
▁tempted	-10384
▁tequila	-10385
▁testify	-10386
▁tidying	-10387
▁toaster	-10388
▁torture	-10389
▁touches	-10390
▁tougher	-10391
▁tractor	-10392
▁tremble	-10393
▁unaware	-10394
▁utterly	-10395
▁wagging	-10396
▁webpage	-10397
▁wrapped	-10398
bergasted	-10399
stitution	-10400
▁Atlantis	-10401
▁Continue	-10402
▁Dolphins	-10403
▁Drinking	-10404
▁Electric	-10405
▁Gambling	-10406
▁Hundreds	-10407
▁Investig	-10408
▁McDonald	-10409
▁Memorize	-10410
▁Millions	-10411
▁Nintendo	-10412
▁Supplies	-10413
▁aardvark	-10414
▁agonized	-10415
▁applying	-10416
▁assisted	-10417
▁attached	-10418
▁bachelor	-10419
▁barbecue	-10420
▁believer	-10421
▁bicycles	-10422
▁blinking	-10423
▁bookkeep	-10424
▁broccoli	-10425
▁brochure	-10426
▁capsized	-10427
▁chapters	-10428
▁clinging	-10429
▁collided	-10430
▁comedian	-10431
▁commonly	-10432
▁concerts	-10433
▁conflict	-10434
▁constell	-10435
▁creating	-10436
▁cultures	-10437
▁cutbacks	-10438
▁dangling	-10439
▁database	-10440
▁daydream	-10441
▁defended	-10442
▁doghouse	-10443
▁domestic	-10444
▁elements	-10445
▁examples	-10446
▁exceeded	-10447
▁explains	-10448
▁fabulous	-10449
▁farewell	-10450
▁fourteen	-10451
▁freckles	-10452
▁frequent	-10453
▁frighten	-10454
▁fugitive	-10455
▁governed	-10456
▁homesick	-10457
▁ignorant	-10458
▁inclined	-10459
▁instinct	-10460
▁invested	-10461
▁irresist	-10462
▁judgment	-10463
▁laughter	-10464
▁launched	-10465
▁leftover	-10466
▁lighting	-10467
▁loosened	-10468
▁manufact	-10469
▁mattress	-10470
▁measured	-10471
▁mechanic	-10472
▁miracles	-10473
▁mornings	-10474
▁mortgage	-10475
▁mustache	-10476
▁narrowly	-10477
▁nickname	-10478
▁noticing	-10479
▁objected	-10480
▁obsessed	-10481
▁optimism	-10482
▁outraged	-10483
▁overwork	-10484
▁paddling	-10485
▁pharmacy	-10486
▁pretends	-10487
▁priority	-10488
▁produced	-10489
▁recorded	-10490
▁recorder	-10491
▁relevant	-10492
▁reporter	-10493
▁rewarded	-10494
▁rudeness	-10495
▁scolding	-10496
▁sharpest	-10497
▁shipment	-10498
▁slippers	-10499
▁sneezing	-10500
▁snowfall	-10501
▁solitude	-10502
▁speeches	-10503
▁spinning	-10504
▁spitting	-10505
▁steroids	-10506
▁subjects	-10507
▁suicidal	-10508
▁supports	-10509
▁traveler	-10510
▁trembled	-10511
▁triangle	-10512
▁trombone	-10513
▁tropical	-10514
▁tuckered	-10515
▁wardrobe	-10516
▁Alexander	-10517
▁Hopefully	-10518
▁Teenagers	-10519
▁accordion	-10520
▁acquitted	-10521
▁addiction	-10522
▁allegedly	-10523
▁allowance	-10524
▁approving	-10525
▁automatic	-10526
▁backwards	-10527
▁bartender	-10528
▁broadcast	-10529
▁cameraman	-10530
▁claustrop	-10531
▁collapsed	-10532
▁collision	-10533
▁commotion	-10534
▁concluded	-10535
▁consented	-10536
▁consulted	-10537
▁contained	-10538
▁corrected	-10539
▁creatures	-10540
▁crocodile	-10541
▁deodorant	-10542
▁determine	-10543
▁disadvant	-10544
▁disorient	-10545
▁dissolves	-10546
▁distances	-10547
▁eavesdrop	-10548
▁eccentric	-10549
▁encourage	-10550
▁establish	-10551
▁estimated	-10552
▁excessive	-10553
▁executive	-10554
▁foolishly	-10555
▁furnished	-10556
▁graveyard	-10557
▁hairstyle	-10558
▁hardships	-10559
▁healthily	-10560
▁horrified	-10561
▁hypocrite	-10562
▁imitation	-10563
▁incurable	-10564
▁indicates	-10565
▁limitless	-10566
▁lunchtime	-10567
▁musicians	-10568
▁naturally	-10569
▁neighbour	-10570
▁newlyweds	-10571
▁obstinate	-10572
▁occasions	-10573
▁opportune	-10574
▁orphanage	-10575
▁overnight	-10576
▁paralyzed	-10577
▁passenger	-10578
▁premature	-10579
▁presented	-10580
▁pressured	-10581
▁prettiest	-10582
▁procedure	-10583
▁protested	-10584
▁purchased	-10585
▁reception	-10586
▁reluctant	-10587
▁remaining	-10588
▁specialty	-10589
▁spreading	-10590
▁standards	-10591
▁subscribe	-10592
▁trembling	-10593
▁umbrellas	-10594
▁uncertain	-10595
▁underwear	-10596
▁vacations	-10597
▁valuables	-10598
▁violently	-10599
▁Eisenhower	-10600
▁Everywhere	-10601
▁Industrial	-10602
▁accusation	-10603
▁advantages	-10604
▁attributes	-10605
▁calculated	-10606
▁commitment	-10607
▁companions	-10608
▁concealing	-10609
▁contracted	-10610
▁controlled	-10611
▁developing	-10612
▁discharged	-10613
▁dressmaker	-10614
▁excitement	-10615
▁footprints	-10616
▁foundation	-10617
▁hysterical	-10618
▁infectious	-10619
▁inflexible	-10620
▁influenced	-10621
▁instructor	-10622
▁intriguing	-10623
▁inventions	-10624
▁management	-10625
▁microphone	-10626
▁nightmares	-10627
▁opposition	-10628
▁originated	-10629
▁overflowed	-10630
▁penicillin	-10631
▁persistent	-10632
▁physically	-10633
▁possession	-10634
▁prescribed	-10635
▁professors	-10636
▁pronounced	-10637
▁proportion	-10638
▁protesting	-10639
▁respectful	-10640
▁retirement	-10641
▁skateboard	-10642
▁statistics	-10643
▁stepfather	-10644
▁sufficient	-10645
▁traditions	-10646
▁unbuttoned	-10647
▁underwater	-10648
▁vulnerable	-10649
▁waterproof	-10650
▁widespread	-10651
▁Competition	-10652
▁Netherlands	-10653
▁accelerated	-10654
▁acknowledge	-10655
▁appearances	-10656
▁catastrophe	-10657
▁conclusions	-10658
▁consequence	-10659
▁desperately	-10660
▁downloading	-10661
▁engineering	-10662
▁experiments	-10663
▁fingernails	-10664
▁girlfriends	-10665
▁ingredients	-10666
▁inseparable	-10667
▁intentional	-10668
▁interpreted	-10669
▁investments	-10670
▁pessimistic	-10671
▁philosopher	-10672
▁pickpockets	-10673
▁proposition	-10674
▁refurbished	-10675
▁regulations	-10676
▁thermometer	-10677
▁transported	-10678
▁unimportant	-10679
▁wheelbarrow	-10680
▁alternatives	-10681
▁civilization	-10682
▁constitution	-10683
▁demonstrated	-10684
▁disorganized	-10685
▁dissatisfied	-10686
▁irresistible	-10687
▁passionately	-10688
▁reservations	-10689
▁southeastern	-10690
▁successfully	-10691
▁surprisingly	-10692
▁unbelievably	-10693
▁extraordinary	-10694
▁flabbergasted	-10695
▁inappropriate	-10696
▁possibilities	-10697
▁unforgettable	-10698
▁claustrophobic	-10699
▁understandable	-10700
.?	-10701
0,	-10702
12	-10703
3,	-10704
Ab	-10705
Be	-10706
CR	-10707
Is	-10708
On	-10709
SB	-10710
ba	-10711
cu	-10712
da	-10713
ec	-10714
ua	-10715
uy	-10716
wa	-10717
wh	-10718
zh	-10719
30,	-10720
ada	-10721
ado	-10722
aiw	-10723
aki	-10724
arr	-10725
aze	-10726
bre	-10727
dog	-10728
erp	-10729
eva	-10730
gha	-10731
hea	-10732
hma	-10733
iri	-10734
lem	-10735
lon	-10736
oed	-10737
oil	-10738
see	-10739
six	-10740
sts	-10741
uch	-10742
ulu	-10743
yal	-10744
▁31	-10745
▁Av	-10746
▁ol	-10747
Cola	-10748
That	-10749
aest	-10750
agin	-10751
aism	-10752
anks	-10753
aren	-10754
arre	-10755
aska	-10756
atto	-10757
ayas	-10758
bird	-10759
boat	-10760
brev	-10761
brew	-10762
cers	-10763
dney	-10764
eaut	-10765
elic	-10766
elly	-10767
enda	-10768
eros	-10769
ggae	-10770
ghai	-10771
girl	-10772
good	-10773
hase	-10774
hurt	-10775
inde	-10776
mann	-10777
mets	-10778
nics	-10779
nion	-10780
oham	-10781
olks	-10782
omez	-10783
onds	-10784
onel	-10785
opot	-10786
pher	-10787
quet	-10788
rior	-10789
rove	-10790
ruit	-10791
step	-10792
uits	-10793
ules	-10794
ulpt	-10795
uman	-10796
uous	-10797
ushu	-10798
vite	-10799
fed	-10800
got	-10801
pan	-10802
pat	-10803
pay	-10804
rag	-10805
uok	-10806
usk	-10807
▁DJ	-10808
▁Hy	-10809
ffal	-10810
isle	-10811
kill	-10812
ulet	-10813
week	-10814
whel	-10815
yram	-10816
zhou	-10817
▁20.	-10818
▁Ach	-10819
▁Afg	-10820
▁Bee	-10821
▁Bob	-10822
▁Cad	-10823
▁Dan	-10824
▁Dry	-10825
▁Eif	-10826
▁Hay	-10827
▁Mac	-10828
▁Mag	-10829
▁Moz	-10830
▁Pat	-10831
▁Sel	-10832
▁Sur	-10833
▁Tah	-10834
▁Tea	-10835
▁Typ	-10836
▁Way	-10837
▁Wit	-10838
▁alm	-10839
▁aqu	-10840
▁bew	-10841
▁biz	-10842
▁caf	-10843
▁chi	-10844
▁cuc	-10845
▁era	-10846
▁fue	-10847
▁gay	-10848
▁gim	-10849
▁haw	-10850
▁jaw	-10851
▁mes	-10852
▁oce	-10853
▁pee	-10854
▁pox	-10855
▁pus	-10856
▁roo	-10857
▁sed	-10858
▁soy	-10859
▁tac	-10860
▁tan	-10861
▁ton	-10862
▁tub	-10863
▁unz	-10864
▁woo	-10865
,000.	-10866
About	-10867
Thank	-10868
acher	-10869
acity	-10870
acker	-10871
aesar	-10872
agiar	-10873
aimed	-10874
aiwan	-10875
amels	-10876
ammar	-10877
andom	-10878
archy	-10879
arent	-10880
athon	-10881
birth	-10882
cover	-10883
early	-10884
eaten	-10885
ensed	-10886
erris	-10887
estri	-10888
faced	-10889
ffalo	-10890
force	-10891
gered	-10892
hrase	-10893
ibiot	-10894
icist	-10895
ictly	-10896
idext	-10897
ieces	-10898
ijing	-10899
ape	-10900
des	-10901
imb	-10902
mic	-10903
que	-10904
▁BM	-10905
▁Le	-10906
hake	-10907
igue	-10908
inqu	-10909
inum	-10910
nish	-10911
pion	-10912
pour	-10913
rate	-10914
▁Bac	-10915
▁Bet	-10916
▁Bon	-10917
▁Chi	-10918
▁Est	-10919
▁Mur	-10920
▁Tie	-10921
▁Tig	-10922
▁Wet	-10923
▁rig	-10924
▁ros	-10925
asive	-10926
erted	-10927
heres	-10928
illar	-10929
ingle	-10930
inted	-10931
iries	-10932
isies	-10933
isode	-10934
iuses	-10935
lying	-10936
neath	-10937
omers	-10938
ommod	-10939
onshu	-10940
onven	-10941
orice	-10942
ormal	-10943
orrig	-10944
orted	-10945
oster	-10946
raper	-10947
rella	-10948
ritis	-10949
ronic	-10950
sever	-10951
skirt	-10952
steps	-10953
storm	-10954
tenna	-10955
thank	-10956
thiop	-10957
ubbed	-10958
urbed	-10959
uster	-10960
vents	-10961
verbs	-10962
watch	-10963
xible	-10964
▁100.	-10965
▁Amaz	-10966
▁Army	-10967
▁Bali	-10968
▁Base	-10969
▁Beer	-10970
▁Bees	-10971
▁Biwa	-10972
▁Boil	-10973
▁Bowl	-10974
▁Chew	-10975
▁Coca	-10976
▁Cons	-10977
▁Copy	-10978
▁Cuba	-10979
▁Cust	-10980
▁Drug	-10981
▁Head	-10982
▁Heat	-10983
▁Hist	-10984
▁Lead	-10985
▁Meat	-10986
▁Must	-10987
▁Pers	-10988
▁Sept	-10989
▁Shan	-10990
▁Size	-10991
▁Slip	-10992
▁Suit	-10993
▁Want	-10994
▁Wasn	-10995
▁adds	-10996
▁airt	-10997
▁bapt	-10998
▁clin	-10999
fel	-11000
ggs	-11001
ateg	-11002
mick	-11003
pick	-11004
umes	-11005
▁Dep	-11006
▁Gas	-11007
▁Got	-11008
▁Hir	-11009
▁Mos	-11010
▁bum	-11011
▁bye	-11012
▁lag	-11013
▁org	-11014
ching	-11015
ilthy	-11016
iolet	-11017
oused	-11018
think	-11019
urous	-11020
▁Bear	-11021
▁Card	-11022
▁Eggs	-11023
▁Form	-11024
▁Ness	-11025
▁Tick	-11026
▁bran	-11027
▁dirt	-11028
▁dove	-11029
▁eleg	-11030
▁ethn	-11031
▁excl	-11032
▁fame	-11033
▁funn	-11034
▁fuse	-11035
▁glum	-11036
▁gods	-11037
▁goof	-11038
▁gums	-11039
▁halt	-11040
▁hawk	-11041
▁hint	-11042
▁hoot	-11043
▁jogs	-11044
▁knob	-11045
▁lens	-11046
▁ling	-11047
▁lump	-11048
▁migr	-11049
▁mule	-11050
▁navy	-11051
▁nosy	-11052
▁nuis	-11053
▁oboe	-11054
▁peac	-11055
▁pend	-11056
▁pets	-11057
▁phen	-11058
▁pine	-11059
▁plea	-11060
▁pose	-11061
▁prev	-11062
▁quot	-11063
▁rack	-11064
▁rake	-11065
▁rash	-11066
▁rays	-11067
▁repr	-11068
▁ribs	-11069
▁sack	-11070
▁scan	-11071
▁seed	-11072
▁solo	-11073
▁sonn	-11074
▁syll	-11075
▁tack	-11076
▁tips	-11077
▁tipt	-11078
▁toad	-11079
▁tomb	-11080
▁trif	-11081
▁twig	-11082
▁unpl	-11083
▁untr	-11084
▁vast	-11085
▁wavy	-11086
▁whim	-11087
ackets	-11088
ademic	-11089
apping	-11090
araoke	-11091
ardess	-11092
arrhea	-11093
braced	-11094
bridge	-11095
called	-11096
celled	-11097
cisive	-11098
driver	-11099
ika	-11100
uis	-11101
acht	-11102
ault	-11103
done	-11104
hael	-11105
nect	-11106
rait	-11107
rift	-11108
uise	-11109
▁Lem	-11110
▁Mal	-11111
▁dew	-11112
▁dia	-11113
▁jet	-11114
▁mus	-11115
▁ult	-11116
asaki	-11117
gling	-11118
ormer	-11119
phalt	-11120
pipes	-11121
usely	-11122
venue	-11123
▁Bang	-11124
▁Peel	-11125
▁capt	-11126
▁lect	-11127
▁mock	-11128
▁pitc	-11129
▁rept	-11130
▁surp	-11131
▁tact	-11132
▁ties	-11133
▁vice	-11134
▁whom	-11135
active	-11136
elling	-11137
engers	-11138
esters	-11139
fusion	-11140
giving	-11141
haired	-11142
idized	-11143
ifying	-11144
inocul	-11145
lawing	-11146
length	-11147
mitted	-11148
namite	-11149
native	-11150
nessee	-11151
nglish	-11152
ocrisy	-11153
ograph	-11154
opotam	-11155
overty	-11156
piracy	-11157
priced	-11158
shield	-11159
taking	-11160
teenth	-11161
terest	-11162
termin	-11163
ugging	-11164
uities	-11165
untary	-11166
ustion	-11167
▁2010.	-11168
▁Adapt	-11169
▁Apply	-11170
▁Beaut	-11171
▁Blend	-11172
▁Chile	-11173
▁Cinde	-11174
▁Click	-11175
▁Deleg	-11176
▁Flour	-11177
▁Fresh	-11178
▁Gomez	-11179
▁Himal	-11180
▁Honey	-11181
▁Humor	-11182
▁Istan	-11183
▁Lions	-11184
▁Looks	-11185
▁Louis	-11186
▁Lucky	-11187
▁Milky	-11188
▁Moham	-11189
▁Night	-11190
▁Obama	-11191
▁Other	-11192
▁Paulo	-11193
▁Pizza	-11194
▁Pract	-11195
▁Prize	-11196
▁Relax	-11197
▁Royal	-11198
▁Rules	-11199
▁'	-11200
ags	-11201
ava	-11202
bur	-11203
oni	-11204
▁1,	-11205
▁1.	-11206
▁Mr	-11207
▁Rh	-11208
cule	-11209
isor	-11210
oths	-11211
path	-11212
prot	-11213
seat	-11214
worm	-11215
▁Rob	-11216
▁hip	-11217
ailed	-11218
icles	-11219
shine	-11220
uding	-11221
▁Buck	-11222
▁Cars	-11223
▁Khan	-11224
▁crem	-11225
▁elim	-11226
▁outl	-11227
▁sarc	-11228
▁slit	-11229
▁unde	-11230
ignant	-11231
ouched	-11232
sually	-11233
uminum	-11234
▁Moder	-11235
▁Rhine	-11236
▁Scott	-11237
▁Shoes	-11238
▁Short	-11239
▁Sixty	-11240
▁Stars	-11241
▁Stock	-11242
▁Sweep	-11243
▁Sweet	-11244
▁Tango	-11245
▁Trave	-11246
▁Years	-11247
▁Yeast	-11248
▁abide	-11249
▁aches	-11250
▁advoc	-11251
▁agony	-11252
▁aisle	-11253
▁amuse	-11254
▁arise	-11255
▁arist	-11256
▁ashes	-11257
▁atoms	-11258
▁audio	-11259
▁bells	-11260
▁binge	-11261
▁blend	-11262
▁brace	-11263
▁brick	-11264
▁buyer	-11265
▁cable	-11266
▁cages	-11267
▁cardi	-11268
▁charm	-11269
▁chill	-11270
▁comet	-11271
▁comic	-11272
▁crept	-11273
▁crude	-11274
▁dared	-11275
▁dated	-11276
▁disco	-11277
▁ditch	-11278
▁donut	-11279
▁drast	-11280
▁drier	-11281
▁drown	-11282
▁dryer	-11283
▁dumbf	-11284
▁dusty	-11285
▁dwell	-11286
▁escal	-11287
▁fades	-11288
▁fancy	-11289
▁farms	-11290
▁fatal	-11291
▁flags	-11292
▁flame	-11293
▁flunk	-11294
▁fraud	-11295
▁fussy	-11296
▁gases	-11297
▁germs	-11298
▁gotta	-11299
▁recy	-11300
▁endea	-11301
▁groom	-11302
▁heals	-11303
▁hears	-11304
▁hedge	-11305
▁hiber	-11306
▁hyper	-11307
▁infin	-11308
▁jelly	-11309
▁joint	-11310
▁lands	-11311
▁legit	-11312
▁lions	-11313
▁lones	-11314
▁lunar	-11315
▁lured	-11316
▁mango	-11317
▁minus	-11318
▁mixed	-11319
▁mommy	-11320
▁moons	-11321
▁mower	-11322
▁munch	-11323
▁nause	-11324
▁nests	-11325
▁noble	-11326
▁onion	-11327
▁outsm	-11328
▁overt	-11329
▁panda	-11330
▁pasta	-11331
▁patio	-11332
▁peach	-11333
▁pearl	-11334
▁persp	-11335
▁phase	-11336
▁piled	-11337
▁prawn	-11338
▁punch	-11339
▁pyram	-11340
▁quote	-11341
▁radar	-11342
▁repay	-11343
▁rises	-11344
▁royal	-11345
▁rugby	-11346
▁sadly	-11347
▁safer	-11348
▁scars	-11349
▁scram	-11350
▁scrib	-11351
▁sends	-11352
▁sheer	-11353
▁shell	-11354
▁shift	-11355
▁shone	-11356
▁shops	-11357
▁skull	-11358
▁slope	-11359
▁smoot	-11360
▁snare	-11361
▁snide	-11362
▁sorts	-11363
▁souls	-11364
▁spied	-11365
▁spilt	-11366
▁squid	-11367
▁stark	-11368
▁strip	-11369
▁swarm	-11370
▁syrup	-11371
▁teens	-11372
▁thirt	-11373
▁tipsy	-11374
▁trail	-11375
▁traps	-11376
▁tubes	-11377
▁unins	-11378
▁winds	-11379
▁wires	-11380
▁wiser	-11381
▁wrest	-11382
▁yacht	-11383
▁yards	-11384
▁yolks	-11385
Because	-11386
English	-11387
aborate	-11388
areness	-11389
artment	-11390
astered	-11391
chooled	-11392
ensable	-11393
ensions	-11394
esterol	-11395
ethoven	-11396
gentina	-11397
handise	-11398
ictions	-11399
ievable	-11400
imanded	-11401
inction	-11402
iscated	-11403
isement	-11404
istered	-11405
jection	-11406
licking	-11407
merized	-11408
ominium	-11409
pitched	-11410
ppiness	-11411
rentice	-11412
respect	-11413
ricanes	-11414
ritious	-11415
tensive	-11416
thritis	-11417
through	-11418
ulation	-11419
▁20,000	-11420
▁Afghan	-11421
▁Alaska	-11422
▁Amazon	-11423
▁Arctic	-11424
▁Around	-11425
▁Avenue	-11426
▁Bridge	-11427
▁Caesar	-11428
▁Camels	-11429
▁Commun	-11430
▁Delete	-11431
▁Eiffel	-11432
▁Ethiop	-11433
▁Ferris	-11434
▁Figure	-11435
▁Geneva	-11436
▁Genius	-11437
▁George	-11438
▁Giving	-11439
▁Golden	-11440
▁Graham	-11441
▁Greeks	-11442
▁Hebrew	-11443
▁Hitler	-11444
▁Honshu	-11445
▁Humans	-11446
▁Invite	-11447
▁Kyushu	-11448
▁Ladies	-11449
▁Losing	-11450
▁Master	-11451
▁Mozart	-11452
▁Murder	-11453
▁Oxygen	-11454
▁Remove	-11455
▁Report	-11456
▁Selena	-11457
▁Senate	-11458
▁Sister	-11459
▁Sweden	-11460
▁Sydney	-11461
▁Tahiti	-11462
▁Taiwan	-11463
▁Tennis	-11464
▁Truman	-11465
▁Trying	-11466
▁Twelve	-11467
▁abbrev	-11468
▁abuses	-11469
▁accuse	-11470
▁agenda	-11471
▁aiming	-11472
▁ambush	-11473
▁amulet	-11474
▁anaest	-11475
▁angels	-11476
▁annoys	-11477
▁append	-11478
▁argues	-11479
▁assign	-11480
▁asthma	-11481
▁avoids	-11482
▁babble	-11483
▁beings	-11484
▁biased	-11485
▁bikini	-11486
▁blacks	-11487
▁bodies	-11488
▁bombed	-11489
▁bomber	-11490
▁bounds	-11491
▁bribed	-11492
▁camels	-11493
▁canary	-11494
▁carded	-11495
▁caring	-11496
▁casual	-11497
▁catchy	-11498
▁caterp	-11499
▁ceases	-11500
▁chewed	-11501
▁cleans	-11502
▁comics	-11503
▁compre	-11504
▁consol	-11505
▁cooped	-11506
▁cowork	-11507
▁cruise	-11508
▁dealer	-11509
▁detest	-11510
▁device	-11511
▁divers	-11512
▁drapes	-11513
▁dyeing	-11514
▁editor	-11515
▁erased	-11516
▁estate	-11517
▁ethnic	-11518
▁evapor	-11519
▁expire	-11520
▁extend	-11521
▁feared	-11522
▁filthy	-11523
▁finals	-11524
▁finest	-11525
▁fisher	-11526
▁fourth	-11527
▁frames	-11528
▁freeze	-11529
▁fundam	-11530
▁futile	-11531
▁gagged	-11532
▁gasped	-11533
▁global	-11534
▁grease	-11535
▁greets	-11536
▁groped	-11537
▁grudge	-11538
▁hacked	-11539
▁handic	-11540
▁harmon	-11541
▁healed	-11542
▁hearts	-11543
▁hellos	-11544
▁hemisp	-11545
▁heroes	-11546
▁honors	-11547
▁iPhone	-11548
▁illust	-11549
▁immort	-11550
▁indisc	-11551
▁insist	-11552
▁itches	-11553
▁legend	-11554
▁liking	-11555
▁liquor	-11556
▁lovers	-11557
▁lumber	-11558
▁margin	-11559
▁mashed	-11560
▁models	-11561
▁mortal	-11562
▁mowing	-11563
▁multip	-11564
▁nabbed	-11565
▁newcom	-11566
▁nieces	-11567
▁nurses	-11568
▁oceans	-11569
▁organs	-11570
▁overly	-11571
▁paints	-11572
▁pandas	-11573
▁patted	-11574
▁payday	-11575
▁petals	-11576
▁piling	-11577
▁plowed	-11578
▁poorer	-11579
▁powers	-11580
▁preced	-11581
▁prizes	-11582
▁pupils	-11583
▁pusher	-11584
▁quotes	-11585
▁racial	-11586
▁random	-11587
▁ration	-11588
▁reckon	-11589
▁recoll	-11590
▁reggae	-11591
▁rocket	-11592
▁sailor	-11593
▁salmon	-11594
▁scares	-11595
▁scenic	-11596
▁scores	-11597
▁sculpt	-11598
▁sighed	-11599
▁snooze	-11600
▁spades	-11601
▁spirit	-11602
▁spoils	-11603
▁stalls	-11604
▁stated	-11605
▁stifle	-11606
▁stocks	-11607
▁stools	-11608
▁subtle	-11609
▁synony	-11610
▁tables	-11611
▁tablet	-11612
▁tapped	-11613
▁terrif	-11614
▁tested	-11615
▁throne	-11616
▁thrown	-11617
▁tossed	-11618
▁towels	-11619
▁trench	-11620
▁typist	-11621
▁unhurt	-11622
▁unpaid	-11623
▁unpert	-11624
▁update	-11625
▁values	-11626
▁varies	-11627
▁voters	-11628
▁warmly	-11629
▁washer	-11630
▁waving	-11631
▁winded	-11632
agiarism	-11633
cheduled	-11634
daughter	-11635
distance	-11636
election	-11637
ibiotics	-11638
inations	-11639
izations	-11640
mannered	-11641
raviolet	-11642
stitious	-11643
versible	-11644
▁African	-11645
▁Another	-11646
▁Beatles	-11647
▁Beijing	-11648
▁Between	-11649
▁Buffalo	-11650
▁Bunnies	-11651
▁Channel	-11652
▁Cloning	-11653
▁Consult	-11654
▁Country	-11655
▁Experts	-11656
▁Federal	-11657
▁Fiction	-11658
▁Fifteen	-11659
▁Fishing	-11660
▁History	-11661
▁Holland	-11662
▁Imagine	-11663
▁Judaism	-11664
▁Knowing	-11665
▁Michael	-11666
▁Monkeys	-11667
▁Muslims	-11668
▁Plastic	-11669
▁Poverty	-11670
▁Revenge	-11671
▁Running	-11672
▁Shinano	-11673
▁Somehow	-11674
▁Spiders	-11675
▁Station	-11676
▁Tickets	-11677
▁Western	-11678
▁Windows	-11679
▁advisor	-11680
▁altered	-11681
▁amounts	-11682
▁analyze	-11683
▁antenna	-11684
▁aroused	-11685
▁arrests	-11686
▁asphalt	-11687
▁atheist	-11688
▁attacks	-11689
▁authors	-11690
▁awaited	-11691
▁awarded	-11692
▁baffles	-11693
▁beliefs	-11694
▁bending	-11695
▁beneath	-11696
▁binocul	-11697
▁bizarre	-11698
▁bluntly	-11699
▁borders	-11700
▁bounces	-11701
▁bruises	-11702
▁brushes	-11703
▁burgers	-11704
▁busiest	-11705
▁butcher	-11706
▁castles	-11707
▁caution	-11708
▁channel	-11709
▁chapped	-11710
▁chasing	-11711
▁clashed	-11712
▁coldest	-11713
▁combine	-11714
▁council	-11715
▁cracked	-11716
▁cramped	-11717
▁crosses	-11718
▁cunning	-11719
▁cutting	-11720
▁daisies	-11721
▁dangers	-11722
▁daytime	-11723
▁defects	-11724
▁delinqu	-11725
▁denying	-11726
▁departs	-11727
▁differs	-11728
▁diploma	-11729
▁display	-11730
▁doubled	-11731
▁dragged	-11732
▁dragonf	-11733
▁drastic	-11734
▁earning	-11735
▁eclipse	-11736
▁element	-11737
▁enforce	-11738
▁envelop	-11739
▁episode	-11740
▁equally	-11741
▁errands	-11742
▁erupted	-11743
▁evicted	-11744
▁expense	-11745
▁exports	-11746
▁exposed	-11747
▁failing	-11748
▁fighter	-11749
▁flirted	-11750
▁floated	-11751
▁formula	-11752
▁frankly	-11753
▁furnish	-11754
▁gaining	-11755
▁gallery	-11756
▁geology	-11757
▁gimmick	-11758
▁glowing	-11759
▁grandma	-11760
▁graphic	-11761
▁gravity	-11762
▁greater	-11763
▁grieved	-11764
▁grinned	-11765
▁groaned	-11766
▁handles	-11767
▁handout	-11768
▁heaters	-11769
▁heavens	-11770
▁helmets	-11771
▁hiccups	-11772
▁hideous	-11773
▁highway	-11774
▁hunters	-11775
▁immense	-11776
▁immoral	-11777
▁inherit	-11778
▁insults	-11779
▁interns	-11780
▁intrude	-11781
▁karaoke	-11782
▁kneeled	-11783
▁largely	-11784
▁legally	-11785
▁loyalty	-11786
▁lunatic	-11787
▁mammals	-11788
▁manages	-11789
▁mansion	-11790
▁massive	-11791
▁methods	-11792
▁milkman	-11793
▁minimum	-11794
▁monothe	-11795
▁mopping	-11796
▁mothers	-11797
▁mourned	-11798
▁murders	-11799
▁neutral	-11800
▁outrank	-11801
▁panting	-11802
▁passive	-11803
▁peaches	-11804
▁peacock	-11805
▁pendant	-11806
▁pharmac	-11807
▁picnics	-11808
▁pistols	-11809
▁pitcher	-11810
▁planets	-11811
▁playful	-11812
▁portion	-11813
▁prayers	-11814
▁praying	-11815
▁primary	-11816
▁propose	-11817
▁protein	-11818
▁proudly	-11819
▁pumpkin	-11820
▁purring	-11821
▁pushing	-11822
▁records	-11823
▁reflect	-11824
▁remorse	-11825
▁repeats	-11826
▁revolve	-11827
▁rooster	-11828
▁rumored	-11829
▁scaring	-11830
▁screwed	-11831
▁seasick	-11832
▁seventh	-11833
▁skilled	-11834
▁slander	-11835
▁snapped	-11836
▁sniffed	-11837
▁soaking	-11838
▁sobbing	-11839
▁stuffed	-11840
▁substit	-11841
▁sweethe	-11842
▁talents	-11843
▁temples	-11844
▁threats	-11845
▁toolbox	-11846
▁treason	-11847
▁unclear	-11848
▁variety	-11849
▁vending	-11850
▁warming	-11851
▁warrior	-11852
▁weakest	-11853
▁weighed	-11854
▁winters	-11855
▁wrecked	-11856
condition	-11857
idextrous	-11858
orrigible	-11859
severance	-11860
▁Bacteria	-11861
▁Baseball	-11862
▁Buddhism	-11863
▁Buddhist	-11864
▁Building	-11865
▁Chivalry	-11866
▁Congress	-11867
▁Istanbul	-11868
▁Mohammed	-11869
▁Needless	-11870
▁Northern	-11871
▁Painting	-11872
▁Patience	-11873
▁Potatoes	-11874
▁Shanghai	-11875
▁Shinjuku	-11876
▁Strictly	-11877
▁Studying	-11878
▁Sweating	-11879
▁Teaching	-11880
▁Watching	-11881
▁abundant	-11882
▁academic	-11883
▁accommod	-11884
▁acquired	-11885
▁advances	-11886
▁agreeing	-11887
▁airtight	-11888
▁altitude	-11889
▁apparent	-11890
▁articles	-11891
▁artistic	-11892
▁athletes	-11893
▁athletic	-11894
▁backseat	-11895
▁backward	-11896
▁bacteria	-11897
▁balloons	-11898
▁banished	-11899
▁bareback	-11900
▁behaving	-11901
▁blessing	-11902
▁blossoms	-11903
▁branches	-11904
▁breathed	-11905
▁breeding	-11906
▁bullying	-11907
▁capacity	-11908
▁cemetery	-11909
▁colorful	-11910
▁confront	-11911
▁congress	-11912
▁connects	-11913
▁conserve	-11914
▁consumed	-11915
▁consumes	-11916
▁controls	-11917
▁cracking	-11918
▁cremated	-11919
▁dedicate	-11920
▁definite	-11921
▁derailed	-11922
▁deranged	-11923
▁despised	-11924
▁detained	-11925
▁diarrhea	-11926
▁dictator	-11927
▁diplomat	-11928
▁directed	-11929
▁disgrace	-11930
▁disputed	-11931
▁district	-11932
▁donation	-11933
▁downpour	-11934
▁drenched	-11935
▁embraced	-11936
▁emigrate	-11937
▁employed	-11938
▁estimate	-11939
▁everyday	-11940
▁exhibits	-11941
▁extermin	-11942
▁faintest	-11943
▁famished	-11944
▁features	-11945
▁fertiliz	-11946
▁feverish	-11947
▁flexible	-11948
▁galaxies	-11949
▁geniuses	-11950
▁goldfish	-11951
▁graceful	-11952
▁headline	-11953
▁homeland	-11954
▁honestly	-11955
▁implying	-11956
▁inconven	-11957
▁indicate	-11958
▁infected	-11959
▁initials	-11960
▁injuries	-11961
▁inserted	-11962
▁intently	-11963
▁internet	-11964
▁involves	-11965
▁laziness	-11966
▁licorice	-11967
▁lifetime	-11968
▁lingered	-11969
▁littered	-11970
▁location	-11971
▁lonesome	-11972
▁marathon	-11973
▁matching	-11974
▁measures	-11975
▁migraine	-11976
▁minority	-11977
▁molecule	-11978
▁muttered	-11979
▁nauseous	-11980
▁nuisance	-11981
▁numbered	-11982
▁opportun	-11983
▁optimist	-11984
▁overcast	-11985
▁overdose	-11986
▁overhear	-11987
▁overwhel	-11988
▁packages	-11989
▁painkill	-11990
▁painters	-11991
▁payments	-11992
▁pedestri	-11993
▁phenomen	-11994
▁pipeline	-11995
▁portrait	-11996
▁prevents	-11997
▁prospect	-11998
▁pursuing	-11999
▁rainfore	-12000
▁reckless	-12001
▁referred	-12002
▁relented	-12003
▁reptiles	-12004
▁resource	-12005
▁restrain	-12006
▁ridicule	-12007
▁sedative	-12008
▁servants	-12009
▁shameful	-12010
▁signaled	-12011
▁situated	-12012
▁skeleton	-12013
▁skillful	-12014
▁slippery	-12015
▁smallest	-12016
▁smartest	-12017
▁smirking	-12018
▁sociable	-12019
▁sprained	-12020
▁squeaked	-12021
▁stations	-12022
▁stepping	-12023
▁stripped	-12024
▁stumbled	-12025
▁suspects	-12026
▁swimmers	-12027
▁syllable	-12028
▁sympathi	-12029
▁symphony	-12030
▁terminal	-12031
▁theaters	-12032
▁theories	-12033
▁twenties	-12034
▁underway	-12035
▁unimagin	-12036
▁unpacked	-12037
▁unzipped	-12038
▁vigorous	-12039
▁withered	-12040
▁worships	-12041
▁wrinkles	-12042
▁Argentina	-12043
▁Beethoven	-12044
▁Cambridge	-12045
▁Delegates	-12046
▁Democracy	-12047
▁Different	-12048
▁Employers	-12049
▁Fantastic	-12050
▁Himalayas	-12051
▁Hiroshima	-12052
▁Hollywood	-12053
▁Hungarian	-12054
▁Languages	-12055
▁September	-12056
▁Socialist	-12057
▁Tennessee	-12058
▁abdominal	-12059
▁airplanes	-12060
▁appointed	-12061
▁attending	-12062
▁autograph	-12063
▁awareness	-12064
▁bathrooms	-12065
▁brightest	-12066
▁cancelled	-12067
▁cathedral	-12068
▁celebrity	-12069
▁champions	-12070
▁classmate	-12071
▁cockroach	-12072
▁colleague	-12073
▁collector	-12074
▁commanded	-12075
▁compelled	-12076
▁contacted	-12077
▁continent	-12078
▁countdown	-12079
▁creditors	-12080
▁decreased	-12081
▁defective	-12082
▁diagnosed	-12083
▁dignified	-12084
▁disagreed	-12085
▁disagrees	-12086
▁disasters	-12087
▁disclosed	-12088
▁disorders	-12089
▁elaborate	-12090
▁electrons	-12091
▁entertain	-12092
▁explorers	-12093
▁fashioned	-12094
▁favorable	-12095
▁favorites	-12096
▁fingertip	-12097
▁footsteps	-12098
▁fractured	-12099
▁freelance	-12100
▁fulfilled	-12101
▁gardening	-12102
▁genuinely	-12103
▁geography	-12104
▁grumbling	-12105
▁hamburger	-12106
▁hibernate	-12107
▁honorable	-12108
▁household	-12109
▁hypocrisy	-12110
▁indignant	-12111
▁inflation	-12112
▁interpret	-12113
▁irritated	-12114
▁keyboards	-12115
▁lifeguard	-12116
▁literally	-12117
▁memorized	-12118
▁miniskirt	-12119
▁miserable	-12120
▁notebooks	-12121
▁outlawing	-12122
▁outskirts	-12123
▁outwitted	-12124
▁particles	-12125
▁patronize	-12126
▁pepperoni	-12127
▁performed	-12128
▁performer	-12129
▁pineapple	-12130
▁pneumonia	-12131
▁pointless	-12132
▁possesses	-12133
▁postcards	-12134
▁practices	-12135
▁pregnancy	-12136
▁prejudice	-12137
▁profusely	-12138
▁prohibits	-12139
▁proofread	-12140
▁publisher	-12141
▁punishing	-12142
▁qualities	-12143
▁reminding	-12144
▁reminisce	-12145
▁repeating	-12146
▁scattered	-12147
▁scrambled	-12148
▁seatbelts	-12149
▁separates	-12150
▁sharpened	-12151
▁sincerely	-12152
▁snowboard	-12153
▁snowstorm	-12154
▁sociology	-12155
▁splashing	-12156
▁squirrels	-12157
▁staircase	-12158
▁strangled	-12159
▁structure	-12160
▁stupidity	-12161
▁submarine	-12162
▁sunburned	-12163
▁textbooks	-12164
▁therapist	-12165
▁tolerated	-12166
▁treasures	-12167
▁uninsured	-12168
▁unnoticed	-12169
▁viewpoint	-12170
▁violinist	-12171
▁willingly	-12172
▁withdrawn	-12173
nemployment	-12174
▁Adaptation	-12175
▁Cinderella	-12176
▁Democratic	-12177
▁Experience	-12178
▁Passengers	-12179
▁Statistics	-12180
▁Technology	-12181
▁allegation	-12182
▁apprentice	-12183
▁aristocrat	-12184
▁arithmetic	-12185
▁attributed	-12186
▁barbershop	-12187
▁believable	-12188
▁binoculars	-12189
▁brightened	-12190
▁carpenters	-12191
▁childbirth	-12192
▁colorblind	-12193
▁combustion	-12194
▁compulsory	-12195
▁conspiracy	-12196
▁consultant	-12197
▁convincing	-12198
▁criticizes	-12199
▁dealership	-12200
▁decreasing	-12201
▁definition	-12202
▁depressing	-12203
▁depression	-12204
▁discourage	-12205
▁economical	-12206
▁graduation	-12207
▁greenhouse	-12208
▁headphones	-12209
▁indecisive	-12210
▁intolerant	-12211
▁jaywalking	-12212
▁leadership	-12213
▁legitimate	-12214
▁maintained	-12215
▁manipulate	-12216
▁meditation	-12217
▁memorizing	-12218
▁mesmerized	-12219
▁miniskirts	-12220
▁misfortune	-12221
▁motivation	-12222
▁negotiated	-12223
▁nutritious	-12224
▁officially	-12225
▁outsmarted	-12226
▁overworked	-12227
▁perfection	-12228
▁photogenic	-12229
▁pickpocket	-12230
▁plagiarism	-12231
▁possessive	-12232
▁predicting	-12233
▁priorities	-12234
▁prosperity	-12235
▁protesters	-12236
▁psychology	-12237
▁quarreling	-12238
▁rebellious	-12239
▁refreshing	-12240
▁relativity	-12241
▁repeatedly	-12242
▁restricted	-12243
▁satellites	-12244
▁secondhand	-12245
▁skyscraper	-12246
▁smartphone	-12247
▁specialize	-12248
▁spectators	-12249
▁stewardess	-12250
▁subsidized	-12251
▁suspicions	-12252
▁thoughtful	-12253
▁underneath	-12254
▁weatherman	-12255
▁whimpering	-12256
▁windshield	-12257
▁youngsters	-12258
▁Afghanistan	-12259
▁Considering	-12260
▁adventurous	-12261
▁ambiguities	-12262
▁antibiotics	-12263
▁appreciates	-12264
▁attentively	-12265
▁butterflies	-12266
▁caterpillar	-12267
▁celebration	-12268
▁cholesterol	-12269
▁citizenship	-12270
▁condominium	-12271
▁confiscated	-12272
▁consumption	-12273
▁convenience	-12274
▁countryside	-12275
▁development	-12276
▁disapproved	-12277
▁disoriented	-12278
▁distributed	-12279
▁drastically	-12280
▁dumbfounded	-12281
▁encouraging	-12282
▁exaggerated	-12283
▁extroverted	-12284
▁fashionable	-12285
▁forecasting	-12286
▁frightening	-12287
▁hemispheres	-12288
▁hospitality	-12289
▁incorrectly	-12290
▁inferiority	-12291
▁influential	-12292
▁interviewed	-12293
▁intoxicated	-12294
▁involuntary	-12295
▁meaningless	-12296
▁merchandise	-12297
▁perspective	-12298
▁possessions	-12299
▁predictions	-12300
▁preparation	-12301
▁presentable	-12302
▁programming	-12303
▁questioning	-12304
▁reprimanded	-12305
▁screwdriver	-12306
▁threatening	-12307
▁transfusion	-12308
▁translators	-12309
▁underground	-12310
▁unhappiness	-12311
▁unperturbed	-12312
▁Constitution	-12313
▁Organization	-12314
▁Thanksgiving	-12315
▁abbreviation	-12316
▁ambidextrous	-12317
▁appointments	-12318
▁arrangements	-12319
▁breakthrough	-12320
▁breathtaking	-12321
▁bullfighting	-12322
▁conditioning	-12323
▁considerable	-12324
▁constructive	-12325
▁disagreeable	-12326
▁grandfathers	-12327
▁helplessness	-12328
▁homeschooled	-12329
▁improvements	-12330
▁incorrigible	-12331
▁indisputable	-12332
▁interrogated	-12333
▁manufactures	-12334
▁monotheistic	-12335
▁overestimate	-12336
▁overreacting	-12337
▁prescription	-12338
▁presentation	-12339
▁recollection	-12340
▁surroundings	-12341
▁translations	-12342
▁unexpectedly	-12343
▁universities	-12344
▁advertisement	-12345
▁concentration	-12346
▁conversations	-12347
▁disadvantages	-12348
▁disappearance	-12349
▁disappointing	-12350
▁documentaries	-12351
▁grammatically	-12352
▁indispensable	-12353
▁interrogation	-12354
▁misunderstand	-12355
▁psychological	-12356
▁significantly	-12357
▁superstitious	-12358
▁traditionally	-12359
▁unfortunately	-12360
▁administration	-12361
▁discrimination	-12362
▁specialization	-12363
▁transportation	-12364
▁underestimated	-12365
03.	-12366
21.	-12367
32.	-12368
33.	-12369
ecd	-12370
ego	-12371
ivy	-12372
pox	-12373
Away	-12374
Here	-12375
Only	-12376
bats	-12377
coon	-12378
firm	-12379
impy	-12380
imsy	-12381
kara	-12382
kton	-12383
lkit	-12384
mstr	-12385
ocus	-12386
odel	-12387
onze	-12388
plex	-12389
sels	-12390
slow	-12391
thol	-12392
uana	-12393
ucid	-12394
uffe	-12395
ukew	-12396
ummy	-12397
uoka	-12398
viar	-12399
avaS	-12400
vino	-12401
ylan	-12402
▁11.	-12403
▁20,	-12404
▁Abs	-12405
▁Amb	-12406
▁BMW	-12407
▁Def	-12408
▁Ecu	-12409
▁Elv	-12410
▁Fah	-12411
▁Mov	-12412
▁Ref	-12413
▁Sov	-12414
▁ego	-12415
▁irr	-12416
▁ivy	-12417
▁ugl	-12418
▁viv	-12419
abeth	-12420
afted	-12421
akata	-12422
amboo	-12423
ameth	-12424
apego	-12425
arium	-12426
avoid	-12427
blood	-12428
cuted	-12429
cutta	-12430
death	-12431
ffees	-12432
field	-12433
gones	-12434
grade	-12435
halif	-12436
hells	-12437
hicle	-12438
hikok	-12439
hosts	-12440
iants	-12441
ihood	-12442
inery	-12443
insaw	-12444
irius	-12445
iscip	-12446
ivate	-12447
lemma	-12448
obics	-12449
odram	-12450
ollar	-12451
ollen	-12452
ooted	-12453
pathy	-12454
ridge	-12455
rocod	-12456
third	-12457
track	-12458
ulips	-12459
urais	-12460
uyama	-12461
ville	-12462
white	-12463
▁2013	-12464
▁Akag	-12465
▁Ants	-12466
▁Buen	-12467
▁Buny	-12468
▁Celt	-12469
▁Chap	-12470
▁Comb	-12471
▁Decl	-12472
▁Evil	-12473
▁Exha	-12474
▁Gulf	-12475
▁Honk	-12476
▁Koal	-12477
▁Lady	-12478
▁Lawy	-12479
▁Lidy	-12480
▁Loch	-12481
▁Luis	-12482
▁Maha	-12483
▁Mats	-12484
▁Mecc	-12485
▁Momm	-12486
▁Moro	-12487
▁Mosc	-12488
▁Navy	-12489
▁Orig	-12490
▁Oslo	-12491
▁Pets	-12492
▁Phys	-12493
▁Plan	-12494
▁Plut	-12495
▁Polk	-12496
▁Prep	-12497
▁Prin	-12498
▁Prob	-12499
ASA	-12500
aza	-12501
bike	-12502
otyp	-12503
umph	-12504
▁Imp	-12505
▁Spe	-12506
▁bio	-12507
▁raz	-12508
affes	-12509
boats	-12510
gular	-12511
ontal	-12512
ricul	-12513
▁Brus	-12514
▁NASA	-12515
▁Prof	-12516
▁Saha	-12517
▁Soap	-12518
▁Sony	-12519
▁Spee	-12520
▁Sumo	-12521
▁Yale	-12522
▁alib	-12523
▁batt	-12524
▁bode	-12525
▁bubb	-12526
▁buzz	-12527
▁chip	-12528
▁cuff	-12529
▁curt	-12530
▁cush	-12531
▁dope	-12532
▁dots	-12533
▁doze	-12534
▁dude	-12535
▁edit	-12536
▁exec	-12537
▁fade	-12538
▁geek	-12539
▁hipp	-12540
▁honk	-12541
▁hybr	-12542
▁inex	-12543
▁kilo	-12544
▁maln	-12545
▁maze	-12546
▁miso	-12547
▁ninj	-12548
▁owls	-12549
▁poop	-12550
▁radi	-12551
▁raft	-12552
▁reef	-12553
▁rhet	-12554
▁ridd	-12555
▁rosy	-12556
▁samp	-12557
▁sins	-12558
▁sulf	-12559
▁synt	-12560
▁undo	-12561
▁vacc	-12562
▁vamp	-12563
▁waff	-12564
▁yoga	-12565
10,000	-12566
achers	-12567
akened	-12568
aptain	-12569
arctic	-12570
armers	-12571
asking	-12572
cutive	-12573
elnuts	-12574
emaker	-12575
enails	-12576
entify	-12577
epatch	-12578
eptune	-12579
ervant	-12580
estyle	-12581
ffairs	-12582
ffeine	-12583
ficial	-12584
hikoku	-12585
icitis	-12586
igrade	-12587
ikiped	-12588
invent	-12589
leness	-12590
lingon	-12591
mpagne	-12592
obooks	-12593
ocrats	-12594
onents	-12595
opened	-12596
opular	-12597
ottery	-12598
ouquet	-12599
200	-12600
airy	-12601
ford	-12602
lord	-12603
otto	-12604
▁30.	-12605
▁Kaw	-12606
▁yaw	-12607
angel	-12608
click	-12609
forty	-12610
oulet	-12611
rical	-12612
xford	-12613
▁Cott	-12614
▁Keny	-12615
▁claw	-12616
▁cozy	-12617
▁sumo	-12618
boiled	-12619
ctions	-12620
ductor	-12621
halifa	-12622
nesses	-12623
omfort	-12624
ourbon	-12625
pherds	-12626
plants	-12627
plexed	-12628
reedom	-12629
reotyp	-12630
ridden	-12631
rology	-12632
semble	-12633
struck	-12634
ternal	-12635
uclear	-12636
udding	-12637
uffeur	-12638
uggish	-12639
uggler	-12640
urches	-12641
ursion	-12642
ussing	-12643
utters	-12644
▁2001.	-12645
▁2003.	-12646
▁Aires	-12647
▁Bangk	-12648
▁Banks	-12649
▁Binge	-12650
▁Bonap	-12651
▁Books	-12652
▁Cesar	-12653
▁Delhi	-12654
▁Detro	-12655
▁Drunk	-12656
▁Dylan	-12657
▁Exact	-12658
▁Flags	-12659
▁Focus	-12660
▁Force	-12661
▁Germs	-12662
▁Glass	-12663
▁Heavy	-12664
▁Honol	-12665
▁Jeans	-12666
▁Judge	-12667
▁Kenya	-12668
▁Lidya	-12669
▁Linux	-12670
▁Mahal	-12671
▁Maria	-12672
▁Mecca	-12673
▁Mommy	-12674
▁Momot	-12675
▁Moths	-12676
▁Nagoy	-12677
▁Norwe	-12678
▁Owing	-12679
▁Place	-12680
▁Rembr	-12681
▁Rocky	-12682
▁Seine	-12683
▁Shame	-12684
▁Smile	-12685
▁Solar	-12686
▁Solve	-12687
▁Space	-12688
▁Spell	-12689
▁Sport	-12690
▁Squir	-12691
▁Steam	-12692
▁Straw	-12693
▁Terri	-12694
▁Weeds	-12695
▁Wires	-12696
▁anecd	-12697
▁angri	-12698
▁ashtr	-12699
eals	-12700
felt	-12701
kins	-12702
lier	-12703
mbly	-12704
size	-12705
wash	-12706
xist	-12707
▁Kub	-12708
▁Tax	-12709
ealed	-12710
eemed	-12711
oaded	-12712
olded	-12713
ulses	-12714
umors	-12715
▁Fold	-12716
▁Kubl	-12717
▁Nash	-12718
▁Wild	-12719
▁chor	-12720
▁cryb	-12721
▁dash	-12722
▁gest	-12723
▁melt	-12724
▁suns	-12725
manent	-12726
meless	-12727
uition	-12728
▁Merry	-12729
▁Older	-12730
▁bands	-12731
▁barit	-12732
▁belly	-12733
▁besie	-12734
▁bikes	-12735
▁birdh	-12736
▁blush	-12737
▁bodyb	-12738
▁bossy	-12739
▁brows	-12740
▁buddy	-12741
▁cells	-12742
▁chuck	-12743
▁clams	-12744
▁clogs	-12745
▁clubs	-12746
▁crows	-12747
▁curly	-12748
▁cuter	-12749
▁dairy	-12750
▁desks	-12751
▁doves	-12752
▁faked	-12753
▁fiber	-12754
▁filed	-12755
▁flaws	-12756
▁fleas	-12757
▁flirt	-12758
▁fluke	-12759
▁foggy	-12760
▁folks	-12761
▁forkl	-12762
▁frail	-12763
▁frogs	-12764
▁fuels	-12765
▁genes	-12766
▁genet	-12767
▁graff	-12768
▁grams	-12769
▁hairy	-12770
▁hooky	-12771
▁hubby	-12772
▁inbox	-12773
▁input	-12774
▁irons	-12775
▁juven	-12776
▁keros	-12777
▁kings	-12778
▁lapel	-12779
▁layer	-12780
▁leafy	-12781
▁leash	-12782
▁lucid	-12783
▁marij	-12784
▁motel	-12785
▁nanny	-12786
▁natto	-12787
▁ninet	-12788
▁ninja	-12789
▁ninth	-12790
▁noses	-12791
▁obeys	-12792
▁paras	-12793
▁patri	-12794
▁peaks	-12795
▁pears	-12796
▁pedal	-12797
▁penet	-12798
▁petri	-12799
▁ND	-12800
andt	-12801
came	-12802
oast	-12803
rene	-12804
rose	-12805
ugee	-12806
ulas	-12807
wind	-12808
▁Asa	-12809
▁NDA	-12810
▁Rec	-12811
▁Wil	-12812
▁sab	-12813
andar	-12814
bleed	-12815
earch	-12816
eries	-12817
ersed	-12818
ilege	-12819
olons	-12820
ounge	-12821
prene	-12822
reast	-12823
renhe	-12824
▁Glad	-12825
▁Term	-12826
▁auto	-12827
▁crut	-12828
▁lame	-12829
▁pong	-12830
▁soda	-12831
▁stan	-12832
▁trig	-12833
▁unan	-12834
▁unst	-12835
▁upst	-12836
antial	-12837
irable	-12838
writer	-12839
▁Asahi	-12840
▁Imper	-12841
▁Shoun	-12842
▁arose	-12843
▁cleft	-12844
▁drone	-12845
▁plead	-12846
▁pools	-12847
▁potho	-12848
▁pupil	-12849
▁razor	-12850
▁resol	-12851
▁rhyth	-12852
▁rural	-12853
▁sabot	-12854
▁sails	-12855
▁schol	-12856
▁seeks	-12857
▁shyly	-12858
▁smirk	-12859
▁spots	-12860
▁squab	-12861
▁stall	-12862
▁stanz	-12863
▁stomp	-12864
▁tacit	-12865
▁tacky	-12866
▁tasks	-12867
▁tents	-12868
▁tramp	-12869
▁unden	-12870
▁unfam	-12871
▁unsto	-12872
▁vivid	-12873
▁wagon	-12874
▁waxed	-12875
▁worms	-12876
100,000	-12877
Nothing	-12878
aceable	-12879
achable	-12880
achines	-12881
aithful	-12882
ammable	-12883
andarin	-12884
ariable	-12885
blooded	-12886
burgers	-12887
connect	-12888
counter	-12889
ctangle	-12890
dressed	-12891
ectives	-12892
elected	-12893
erobics	-12894
flicted	-12895
forties	-12896
fourths	-12897
grandpa	-12898
harging	-12899
hyd	-12900
ias	-12901
iku	-12902
ira	-12903
roc	-12904
▁AB	-12905
▁Ac	-12906
▁ty	-12907
aint	-12908
helf	-12909
inea	-12910
sake	-12911
zens	-12912
▁ABC	-12913
▁Set	-12914
▁fir	-12915
▁mop	-12916
▁rop	-12917
alion	-12918
arded	-12919
etris	-12920
gging	-12921
▁Cult	-12922
▁Deal	-12923
▁Duck	-12924
▁bond	-12925
▁brew	-12926
▁gear	-12927
▁palm	-12928
▁uncl	-12929
▁wors	-12930
action	-12931
ickens	-12932
little	-12933
omores	-12934
orical	-12935
orpion	-12936
pathic	-12937
rapers	-12938
▁Akita	-12939
▁destr	-12940
▁gavel	-12941
▁haiku	-12942
▁likel	-12943
▁motto	-12944
▁nears	-12945
▁ropes	-12946
fecture	-12947
husband	-12948
icolons	-12949
iobooks	-12950
ishable	-12951
iskirts	-12952
istened	-12953
istical	-12954
itional	-12955
izabeth	-12956
jective	-12957
lifting	-12958
mstrong	-12959
omitted	-12960
oulette	-12961
ourists	-12962
putated	-12963
quarter	-12964
renheit	-12965
respond	-12966
riminal	-12967
roadway	-12968
roccoli	-12969
sterdam	-12970
terling	-12971
ukewarm	-12972
usioned	-12973
veiling	-12974
vention	-12975
verages	-12976
versity	-12977
zelnuts	-12978
▁Adoles	-12979
▁Ankara	-12980
▁Apolog	-12981
▁Applic	-12982
▁Barack	-12983
▁Beauty	-12984
▁Buenos	-12985
▁Cadill	-12986
▁Cancer	-12987
▁Celtic	-12988
▁Center	-12989
▁Change	-12990
▁Chinat	-12991
▁Colomb	-12992
▁Crocod	-12993
▁Crying	-12994
▁Defend	-12995
▁Demand	-12996
▁Except	-12997
▁Family	-12998
▁Fruits	-12999
Sil	-13000
geb	-13001
hill	-13002
ills	-13003
▁Gun	-13004
▁Web	-13005
▁ram	-13006
▁sau	-13007
▁wil	-13008
cials	-13009
cided	-13010
gebra	-13011
illot	-13012
isive	-13013
ounds	-13014
ucked	-13015
▁Ages	-13016
▁Guns	-13017
▁Hill	-13018
▁Home	-13019
▁Wear	-13020
▁beam	-13021
Silent	-13022
amides	-13023
antasy	-13024
aphone	-13025
mented	-13026
▁Atoms	-13027
▁Elvis	-13028
▁Phili	-13029
▁Sheld	-13030
▁anore	-13031
▁cycle	-13032
▁exits	-13033
▁frant	-13034
▁melon	-13035
▁noted	-13036
▁range	-13037
▁rhyme	-13038
▁slimy	-13039
▁spark	-13040
▁Garlic	-13041
▁Ghosts	-13042
▁Giants	-13043
▁Greene	-13044
▁Hakata	-13045
▁Halley	-13046
▁Kenned	-13047
▁Koalas	-13048
▁Kublai	-13049
▁Macint	-13050
▁Malays	-13051
▁Marika	-13052
▁Milton	-13053
▁Modern	-13054
▁Morocc	-13055
▁Moscow	-13056
▁Native	-13057
▁Norweg	-13058
▁Origin	-13059
▁Oxford	-13060
▁Person	-13061
▁Really	-13062
▁Recess	-13063
▁Rumors	-13064
▁Sahara	-13065
▁Salmon	-13066
▁Scores	-13067
▁Scream	-13068
▁Sirius	-13069
▁Skiing	-13070
▁Soviet	-13071
▁Strong	-13072
▁Suzhou	-13073
▁Switch	-13074
▁Terror	-13075
▁Tetris	-13076
▁Texans	-13077
▁Thirty	-13078
▁Ticket	-13079
▁Tigers	-13080
▁Wester	-13081
▁Wilson	-13082
▁Within	-13083
▁Wonder	-13084
▁absorb	-13085
▁adjour	-13086
▁admits	-13087
▁adored	-13088
▁alarms	-13089
▁alibis	-13090
▁amends	-13091
▁anorex	-13092
▁ballon	-13093
▁barric	-13094
▁bewild	-13095
▁births	-13096
▁blinds	-13097
▁bloods	-13098
▁bloody	-13099
aru	-13100
loo	-13101
mem	-13102
ona	-13103
alan	-13104
alis	-13105
bert	-13106
dain	-13107
etch	-13108
ooch	-13109
rink	-13110
uant	-13111
unes	-13112
▁Neg	-13113
▁bol	-13114
▁ech	-13115
▁pse	-13116
▁rim	-13117
▁rin	-13118
▁rit	-13119
Could	-13120
osals	-13121
▁Nero	-13122
▁Parl	-13123
▁duke	-13124
▁eter	-13125
▁lime	-13126
▁mead	-13127
▁reun	-13128
▁welf	-13129
▁whip	-13130
atched	-13131
ession	-13132
ounder	-13133
▁Bells	-13134
▁acute	-13135
▁brisk	-13136
▁butts	-13137
▁canal	-13138
▁donor	-13139
▁lever	-13140
▁obese	-13141
▁pseud	-13142
▁rinse	-13143
▁scrup	-13144
▁weary	-13145
endance	-13146
members	-13147
nighter	-13148
onnaise	-13149
ressive	-13150
thology	-13151
▁Albert	-13152
▁Muslim	-13153
▁biling	-13154
▁blanks	-13155
▁boards	-13156
▁bodily	-13157
▁brands	-13158
▁breach	-13159
▁bronze	-13160
▁bruise	-13161
▁builds	-13162
▁busier	-13163
▁bustle	-13164
▁buyers	-13165
▁cables	-13166
▁carrot	-13167
▁caviar	-13168
▁cellar	-13169
▁chafed	-13170
▁chairp	-13171
▁chapel	-13172
▁chases	-13173
▁cheats	-13174
▁chorus	-13175
▁cleare	-13176
▁clinic	-13177
▁cloned	-13178
▁coloss	-13179
▁confer	-13180
▁cooing	-13181
▁cooler	-13182
▁copied	-13183
▁costly	-13184
▁curled	-13185
▁decade	-13186
▁decode	-13187
▁deemed	-13188
▁define	-13189
▁delete	-13190
▁denies	-13191
▁detour	-13192
▁devise	-13193
▁devoid	-13194
▁diamet	-13195
▁divine	-13196
▁doomed	-13197
▁dormit	-13198
▁dozing	-13199
In	-13200
23.	-13201
Tom	-13202
atr	-13203
oit	-13204
pon	-13205
reg	-13206
top	-13207
van	-13208
▁Ke	-13209
▁Ta	-13210
aiti	-13211
bour	-13212
ipop	-13213
iren	-13214
otic	-13215
▁Mot	-13216
▁Nik	-13217
▁Sat	-13218
▁Taj	-13219
▁abd	-13220
▁dod	-13221
▁dup	-13222
▁kit	-13223
▁sul	-13224
apler	-13225
▁Nikk	-13226
▁Ring	-13227
▁dusk	-13228
▁nest	-13229
▁nois	-13230
▁shat	-13231
▁span	-13232
▁sust	-13233
▁tone	-13234
▁tuba	-13235
▁typo	-13236
▁util	-13237
boards	-13238
legged	-13239
wolves	-13240
▁Haiti	-13241
▁Nikko	-13242
▁Tough	-13243
▁picks	-13244
▁pitch	-13245
▁quart	-13246
▁siren	-13247
▁sites	-13248
▁sulfa	-13249
▁thres	-13250
apegoat	-13251
issolve	-13252
▁Athens	-13253
▁Coding	-13254
▁Nagoya	-13255
▁Saturn	-13256
▁Speech	-13257
▁alleys	-13258
▁comedy	-13259
▁dodged	-13260
▁duplic	-13261
▁entail	-13262
▁exceed	-13263
▁exiled	-13264
▁faking	-13265
▁flatly	-13266
▁flimsy	-13267
▁floods	-13268
▁flowed	-13269
▁foiled	-13270
▁freaky	-13271
▁gamble	-13272
▁gazing	-13273
▁gender	-13274
▁gently	-13275
▁grapef	-13276
▁grouch	-13277
▁guinea	-13278
▁hearty	-13279
▁hinted	-13280
▁humble	-13281
▁hybrid	-13282
▁hypnot	-13283
▁images	-13284
▁imagin	-13285
▁improv	-13286
▁impuls	-13287
▁infant	-13288
▁insect	-13289
▁invade	-13290
▁ironic	-13291
▁issued	-13292
▁juggle	-13293
▁kidnap	-13294
▁kidney	-13295
▁lagoon	-13296
▁levels	-13297
▁lifesp	-13298
▁loaned	-13299
Ob	-13300
PS	-13301
ca	-13302
tw	-13303
▁x	-13304
eah	-13305
vez	-13306
▁Ba	-13307
▁CO	-13308
▁Dy	-13309
What	-13310
aven	-13311
turn	-13312
▁Bay	-13313
▁GPS	-13314
▁Hug	-13315
▁Nin	-13316
▁Tow	-13317
▁kim	-13318
▁nom	-13319
▁rhe	-13320
▁wiz	-13321
bited	-13322
check	-13323
onoun	-13324
tters	-13325
▁Burj	-13326
▁Coal	-13327
▁Mumb	-13328
▁glit	-13329
▁hare	-13330
▁reno	-13331
▁wimp	-13332
▁JavaS	-13333
▁Youth	-13334
▁decay	-13335
▁kimon	-13336
▁lingu	-13337
▁renov	-13338
▁rheum	-13339
▁timet	-13340
▁unhar	-13341
ategory	-13342
ficient	-13343
pronoun	-13344
raggled	-13345
▁Chavez	-13346
▁Checks	-13347
▁Heaven	-13348
▁Jingle	-13349
▁Mumbai	-13350
▁Pretty	-13351
▁aching	-13352
▁bummed	-13353
▁flirts	-13354
▁ganged	-13355
▁kimono	-13356
▁locals	-13357
▁longed	-13358
▁lounge	-13359
▁majest	-13360
▁malice	-13361
▁maniac	-13362
▁marvel	-13363
▁meddle	-13364
▁medium	-13365
▁melons	-13366
▁mirage	-13367
▁mosque	-13368
▁mouths	-13369
▁neatly	-13370
▁ninjas	-13371
▁olives	-13372
▁otters	-13373
▁overem	-13374
▁pacing	-13375
▁pastor	-13376
▁pebble	-13377
▁peeked	-13378
▁pitied	-13379
▁pooped	-13380
▁prayer	-13381
▁primes	-13382
▁pumped	-13383
▁pushes	-13384
▁radios	-13385
▁ramble	-13386
▁refill	-13387
▁regain	-13388
▁relies	-13389
▁revolt	-13390
▁rhythm	-13391
▁ridden	-13392
▁riddle	-13393
▁rigged	-13394
▁risers	-13395
▁rocker	-13396
▁rotted	-13397
▁rubble	-13398
▁rudely	-13399
!!	-13400
Fi	-13401
IA	-13402
Ne	-13403
Re	-13404
vy	-13405
dad	-13406
ori	-13407
sun	-13408
▁Id	-13409
arou	-13410
cede	-13411
eaky	-13412
oton	-13413
rane	-13414
rown	-13415
uild	-13416
▁CIA	-13417
▁Sid	-13418
▁ave	-13419
▁wal	-13420
ayama	-13421
aying	-13422
eller	-13423
ibber	-13424
nlike	-13425
otted	-13426
sunam	-13427
▁Rest	-13428
▁Ward	-13429
▁outd	-13430
▁unit	-13431
Really	-13432
ackers	-13433
dollar	-13434
ifully	-13435
igible	-13436
itches	-13437
minine	-13438
ranean	-13439
thrown	-13440
▁Blond	-13441
▁Coast	-13442
▁Leaky	-13443
▁Pluto	-13444
▁Third	-13445
▁aveng	-13446
▁entre	-13447
▁moody	-13448
▁mount	-13449
▁rents	-13450
▁swore	-13451
Neither	-13452
asayama	-13453
otonous	-13454
▁Keller	-13455
▁Sidney	-13456
▁finick	-13457
▁fishes	-13458
▁gibber	-13459
▁heroin	-13460
▁ruling	-13461
▁sanded	-13462
▁satisf	-13463
▁scenes	-13464
▁screws	-13465
▁sensed	-13466
▁senses	-13467
▁serial	-13468
▁sexist	-13469
▁shaker	-13470
▁shaped	-13471
▁shouts	-13472
▁shrank	-13473
▁shrine	-13474
▁shrink	-13475
▁sights	-13476
▁simmer	-13477
▁sincer	-13478
▁skimpy	-13479
▁sleeve	-13480
▁sliced	-13481
▁smoker	-13482
▁snails	-13483
▁snitch	-13484
▁snores	-13485
▁snorke	-13486
▁soared	-13487
▁soothe	-13488
▁sorted	-13489
▁splash	-13490
▁spoons	-13491
▁stakes	-13492
▁stinky	-13493
▁stoned	-13494
▁stormy	-13495
▁studio	-13496
▁summar	-13497
▁supern	-13498
▁superv	-13499
RL	-13500
RLs	-13501
eor	-13502
lit	-13503
ora	-13504
owa	-13505
lock	-13506
lted	-13507
▁Eth	-13508
▁Goo	-13509
▁sav	-13510
bergh	-13511
eturn	-13512
inged	-13513
itles	-13514
nlock	-13515
olete	-13516
rends	-13517
urora	-13518
▁Adop	-13519
▁Best	-13520
▁Book	-13521
▁Burr	-13522
▁Iowa	-13523
▁anth	-13524
▁beak	-13525
▁ener	-13526
▁leis	-13527
▁mang	-13528
▁wing	-13529
▁Climb	-13530
▁Smith	-13531
▁brink	-13532
▁cramp	-13533
▁horns	-13534
▁marri	-13535
▁schoo	-13536
▁viral	-13537
akening	-13538
ockered	-13539
▁Ethnic	-13540
▁Google	-13541
▁Return	-13542
▁aurora	-13543
▁cursed	-13544
▁ducked	-13545
▁halted	-13546
▁meteor	-13547
▁pliers	-13548
▁savage	-13549
▁suprem	-13550
▁texted	-13551
▁thorns	-13552
▁thrift	-13553
▁tickle	-13554
▁tidied	-13555
▁tights	-13556
▁tipped	-13557
▁traces	-13558
▁trends	-13559
▁trucks	-13560
▁trunks	-13561
▁tucked	-13562
▁tulips	-13563
▁unanim	-13564
▁undoub	-13565
▁unmade	-13566
▁unsaid	-13567
▁unwise	-13568
▁utmost	-13569
▁videos	-13570
▁viewed	-13571
▁vulgar	-13572
▁wagged	-13573
▁weaker	-13574
▁whatso	-13575
▁whites	-13576
▁wiring	-13577
▁wizard	-13578
▁yawned	-13579
allowing	-13580
amethrow	-13581
angelist	-13582
assemble	-13583
cheology	-13584
cription	-13585
eltering	-13586
ickering	-13587
ikipedia	-13588
iliarity	-13589
ilosophy	-13590
indbergh	-13591
misphere	-13592
opotamus	-13593
ourished	-13594
stunning	-13595
terested	-13596
ucumbers	-13597
uminated	-13598
uriously	-13599
PR	-13600
▁0	-13601
anc	-13602
len	-13603
uki	-13604
ulp	-13605
▁Ah	-13606
▁Sn	-13607
▁Wi	-13608
held	-13609
iner	-13610
nest	-13611
uten	-13612
▁Ang	-13613
▁Sim	-13614
▁Wax	-13615
▁gor	-13616
etary	-13617
ggles	-13618
▁Pork	-13619
▁gulp	-13620
▁mand	-13621
▁roar	-13622
ancies	-13623
iament	-13624
ilient	-13625
ogames	-13626
▁Drain	-13627
▁Dream	-13628
▁Helen	-13629
▁Mount	-13630
▁Trade	-13631
▁etern	-13632
▁lakes	-13633
▁lends	-13634
▁melts	-13635
▁spice	-13636
berries	-13637
entally	-13638
▁Callas	-13639
▁Double	-13640
▁Simmer	-13641
▁parted	-13642
▁reader	-13643
▁replic	-13644
veloping	-13645
vertible	-13646
▁Achille	-13647
▁Actions	-13648
▁Affairs	-13649
▁Berries	-13650
▁Blondes	-13651
▁Bucking	-13652
▁Calvino	-13653
▁Captain	-13654
▁Culture	-13655
▁Dancing	-13656
▁Dickens	-13657
▁Drivers	-13658
▁Ecuador	-13659
▁Estonia	-13660
▁Exactly	-13661
▁Exports	-13662
▁Farmers	-13663
▁Feeding	-13664
▁Finnish	-13665
▁Flowers	-13666
▁Freedom	-13667
▁Friends	-13668
▁Grammar	-13669
▁Grandma	-13670
▁Grandpa	-13671
▁Hackers	-13672
▁Hawking	-13673
▁Indones	-13674
▁Introdu	-13675
▁Islands	-13676
▁Jealous	-13677
▁Johnson	-13678
▁Kennedy	-13679
▁Khalifa	-13680
▁Klingon	-13681
▁Lawyers	-13682
▁Leather	-13683
▁Looking	-13684
▁Lottery	-13685
▁Married	-13686
▁Mediter	-13687
▁Mustang	-13688
▁Natural	-13689
▁Normans	-13690
▁Nuclear	-13691
▁Parties	-13692
▁Perfect	-13693
▁Persian	-13694
▁Philipp	-13695
▁Physics	-13696
▁Pioneer	-13697
▁Pleased	-13698
▁Prepare	-13699
0?	-13700
10	-13701
▁u	-13702
aro	-13703
gir	-13704
▁Ag	-13705
▁Li	-13706
▁Ms	-13707
arte	-13708
enus	-13709
icit	-13710
iego	-13711
▁Hat	-13712
▁Pen	-13713
▁dex	-13714
▁liz	-13715
▁Blow	-13716
▁Deaf	-13717
▁Hard	-13718
▁Noel	-13719
▁Prom	-13720
▁beep	-13721
▁bits	-13722
▁deed	-13723
▁eggn	-13724
▁hums	-13725
▁lamb	-13726
▁pawn	-13727
▁sexy	-13728
aneous	-13729
anklin	-13730
arship	-13731
hiking	-13732
▁Diego	-13733
▁Italo	-13734
▁Liars	-13735
▁alter	-13736
▁cargo	-13737
▁mines	-13738
▁pause	-13739
▁twist	-13740
▁wedge	-13741
▁wines	-13742
idences	-13743
illance	-13744
isiting	-13745
▁Hatred	-13746
▁dental	-13747
▁dexter	-13748
▁eggnog	-13749
▁elicit	-13750
▁firing	-13751
▁marked	-13752
▁metals	-13753
▁prawns	-13754
▁sharks	-13755
earances	-13756
▁Bangkok	-13757
▁Presley	-13758
▁Pretend	-13759
▁Priests	-13760
▁Rolling	-13761
▁Senator	-13762
▁Shampoo	-13763
▁Sheldon	-13764
▁Shikoku	-13765
▁Shounan	-13766
▁Singing	-13767
▁Smiling	-13768
▁Talking	-13769
▁Toshima	-13770
▁Turtles	-13771
▁Weather	-13772
▁abating	-13773
▁abstain	-13774
▁accepts	-13775
▁acquire	-13776
▁almonds	-13777
▁alright	-13778
▁amended	-13779
▁angered	-13780
▁angrily	-13781
▁anthrop	-13782
▁appeals	-13783
▁applaud	-13784
▁ashtray	-13785
▁assault	-13786
▁avenged	-13787
▁bassoon	-13788
▁beaches	-13789
▁blender	-13790
▁blessed	-13791
▁blossom	-13792
▁boasted	-13793
▁bombard	-13794
▁boredom	-13795
▁borrows	-13796
▁browser	-13797
▁bubbles	-13798
▁budging	-13799
To	-13800
aped	-13801
help	-13802
hour	-13803
igen	-13804
jack	-13805
olic	-13806
vour	-13807
▁Bot	-13808
▁Fry	-13809
▁axe	-13810
▁fee	-13811
▁pap	-13812
coons	-13813
ifies	-13814
ishop	-13815
mouth	-13816
racts	-13817
usive	-13818
▁Bill	-13819
▁Rice	-13820
▁pave	-13821
▁sequ	-13822
eering	-13823
ggling	-13824
ingers	-13825
▁Allow	-13826
▁Comet	-13827
▁Emper	-13828
▁allig	-13829
▁bathe	-13830
▁ferry	-13831
▁manus	-13832
▁spies	-13833
▁woozy	-13834
igenous	-13835
illings	-13836
usement	-13837
▁Bigger	-13838
▁Botany	-13839
▁Louder	-13840
▁Orange	-13841
▁bishop	-13842
▁clause	-13843
▁favour	-13844
▁marine	-13845
▁prompt	-13846
▁sonata	-13847
▁suffoc	-13848
▁survey	-13849
▁verify	-13850
▁wilted	-13851
designed	-13852
ountered	-13853
quarters	-13854
▁Detroit	-13855
▁Emperor	-13856
▁Fatigue	-13857
▁bygones	-13858
▁cellars	-13859
▁central	-13860
▁charism	-13861
▁cheaply	-13862
▁chipped	-13863
▁cholera	-13864
▁circled	-13865
▁clearer	-13866
▁coaster	-13867
▁coffees	-13868
▁colonel	-13869
▁compens	-13870
▁concede	-13871
▁concept	-13872
▁confide	-13873
▁confron	-13874
▁consent	-13875
▁consume	-13876
▁convict	-13877
▁courses	-13878
▁courtes	-13879
▁cringed	-13880
▁crooked	-13881
▁cruelty	-13882
▁curling	-13883
▁dancers	-13884
▁darkest	-13885
▁dealers	-13886
▁decades	-13887
▁defused	-13888
▁delight	-13889
▁demoted	-13890
▁derived	-13891
▁designs	-13892
▁detests	-13893
▁devices	-13894
▁diagram	-13895
▁dignity	-13896
▁dilemma	-13897
▁disdain	-13898
▁dispute	-13899
00,	-13900
Joy	-13901
fty	-13902
mia	-13903
psy	-13904
card	-13905
nine	-13906
osis	-13907
uite	-13908
▁Alf	-13909
▁Nic	-13910
▁Non	-13911
▁Pav	-13912
▁Poy	-13913
ansom	-13914
bable	-13915
glass	-13916
isins	-13917
tedly	-13918
▁Bite	-13919
▁Cool	-13920
▁Hyog	-13921
▁Suic	-13922
▁arts	-13923
▁bans	-13924
▁brag	-13925
▁cass	-13926
▁clam	-13927
▁clut	-13928
▁coer	-13929
▁coke	-13930
▁cone	-13931
▁dine	-13932
▁feas	-13933
▁fres	-13934
▁oral	-13935
▁pins	-13936
▁vine	-13937
atable	-13938
atible	-13939
▁Avoid	-13940
▁Enter	-13941
▁Hyogo	-13942
▁Rural	-13943
▁boast	-13944
▁dense	-13945
▁enhan	-13946
▁quits	-13947
▁scorn	-13948
▁wring	-13949
aggered	-13950
feeding	-13951
reation	-13952
▁Coming	-13953
▁Poyang	-13954
▁Public	-13955
▁Remind	-13956
▁Stones	-13957
▁booked	-13958
▁eaters	-13959
▁entree	-13960
▁locate	-13961
▁pickle	-13962
▁ransom	-13963
▁sought	-13964
▁teller	-13965
▁Reports	-13966
▁Suicide	-13967
▁Telling	-13968
▁bikinis	-13969
▁branded	-13970
▁casting	-13971
▁coerced	-13972
▁donkeys	-13973
▁drafted	-13974
▁dumbest	-13975
▁durable	-13976
▁easiest	-13977
▁elegant	-13978
▁emerged	-13979
▁emotion	-13980
▁empathy	-13981
▁endless	-13982
▁endorse	-13983
▁endowed	-13984
▁endured	-13985
▁enlarge	-13986
▁eternal	-13987
▁execute	-13988
▁exhaled	-13989
▁explode	-13990
▁exploit	-13991
▁fantasy	-13992
▁fasting	-13993
▁faucets	-13994
▁fifties	-13995
▁fitting	-13996
▁flashed	-13997
▁flatter	-13998
▁flicked	-13999
Of	-14000
▁.	-14001
aga	-14002
agu	-14003
gue	-14004
occ	-14005
raq	-14006
tra	-14007
▁Mu	-14008
▁Ot	-14009
▁Ra	-14010
▁Bas	-14011
▁gem	-14012
ector	-14013
occup	-14014
▁Gaga	-14015
▁Iraq	-14016
▁Jose	-14017
▁Real	-14018
▁bold	-14019
▁dime	-14020
▁egot	-14021
▁fees	-14022
▁grat	-14023
▁prun	-14024
▁tang	-14025
acular	-14026
ppable	-14027
ustace	-14028
▁2.30.	-14029
▁Aband	-14030
▁Armen	-14031
▁Pleas	-14032
▁Steal	-14033
▁bushy	-14034
▁dough	-14035
▁drill	-14036
▁overr	-14037
▁skies	-14038
righted	-14039
▁Onions	-14040
▁angles	-14041
▁corpse	-14042
▁lotion	-14043
▁maiden	-14044
▁motive	-14045
▁shrunk	-14046
▁stings	-14047
▁undert	-14048
▁wrench	-14049
occupied	-14050
▁Schools	-14051
▁bravery	-14052
▁extends	-14053
▁fathers	-14054
▁flunked	-14055
▁fooling	-14056
▁forests	-14057
▁forsake	-14058
▁founder	-14059
▁freight	-14060
▁funnier	-14061
▁goggles	-14062
▁goofing	-14063
▁grounds	-14064
▁guarded	-14065
▁hacking	-14066
▁hallway	-14067
▁hamster	-14068
▁harmony	-14069
▁hatched	-14070
▁herring	-14071
▁hogwash	-14072
▁hugging	-14073
▁impulse	-14074
▁insured	-14075
▁jackets	-14076
▁judging	-14077
▁keycard	-14078
▁keyhole	-14079
▁kidneys	-14080
▁knitted	-14081
▁leisure	-14082
▁lending	-14083
▁letdown	-14084
▁licking	-14085
▁lobster	-14086
▁magnets	-14087
▁mainten	-14088
▁marched	-14089
▁measles	-14090
▁melanch	-14091
▁milking	-14092
▁mosques	-14093
▁muscles	-14094
▁nations	-14095
▁needing	-14096
▁needles	-14097
▁nephews	-14098
▁noisily	-14099
Tell	-14100
egas	-14101
eked	-14102
raft	-14103
stop	-14104
▁Jew	-14105
▁Off	-14106
▁Sad	-14107
▁eel	-14108
actus	-14109
getic	-14110
othes	-14111
tened	-14112
urich	-14113
▁Dise	-14114
▁Flip	-14115
▁Gate	-14116
▁Star	-14117
▁haze	-14118
▁impe	-14119
▁lact	-14120
▁scal	-14121
▁swap	-14122
▁tech	-14123
ilated	-14124
itated	-14125
▁Creat	-14126
▁Deeds	-14127
▁Might	-14128
▁Syria	-14129
▁camps	-14130
▁farce	-14131
▁fists	-14132
▁forte	-14133
▁grill	-14134
▁imper	-14135
▁scoot	-14136
▁scree	-14137
▁yells	-14138
odeling	-14139
▁Manger	-14140
▁Office	-14141
▁allies	-14142
▁anthem	-14143
▁cactus	-14144
▁disill	-14145
▁diving	-14146
▁enters	-14147
▁famine	-14148
▁firmly	-14149
▁jailed	-14150
▁lining	-14151
▁pester	-14152
▁sawing	-14153
▁shined	-14154
▁strain	-14155
▁surest	-14156
▁taxpay	-14157
▁uncles	-14158
▁Neptune	-14159
▁bedside	-14160
▁compact	-14161
▁dialect	-14162
▁drinker	-14163
▁engines	-14164
▁expired	-14165
▁lactose	-14166
▁nitpick	-14167
▁nonstop	-14168
▁obscene	-14169
▁offices	-14170
▁omitted	-14171
▁ongoing	-14172
▁orphans	-14173
▁outlive	-14174
▁overdue	-14175
▁parasol	-14176
▁partied	-14177
▁pasture	-14178
▁patriot	-14179
▁penguin	-14180
▁pitiful	-14181
▁pleases	-14182
▁poorest	-14183
▁pottery	-14184
▁praises	-14185
▁prepaid	-14186
▁prevail	-14187
▁pricked	-14188
▁prophet	-14189
▁provoke	-14190
▁pudding	-14191
▁puppets	-14192
▁qualify	-14193
▁quieted	-14194
▁raising	-14195
▁readily	-14196
▁recount	-14197
▁refresh	-14198
▁refugee	-14199
▁23	-14200
▁yo	-14201
icts	-14202
ncle	-14203
uals	-14204
▁Cab	-14205
▁Ram	-14206
▁Res	-14207
▁bay	-14208
▁boo	-14209
hesia	-14210
itors	-14211
ossil	-14212
reens	-14213
▁High	-14214
▁Join	-14215
▁Math	-14216
▁Rich	-14217
▁Room	-14218
▁cens	-14219
▁eyed	-14220
▁eyel	-14221
▁idol	-14222
▁myth	-14223
▁racy	-14224
▁rows	-14225
▁skim	-14226
cement	-14227
orious	-14228
▁Smart	-14229
▁caged	-14230
▁exert	-14231
▁outer	-14232
▁paged	-14233
▁probe	-14234
▁recur	-14235
▁slide	-14236
▁tread	-14237
atement	-14238
riculum	-14239
▁Bunyan	-14240
▁Clover	-14241
▁Eleven	-14242
▁Flight	-14243
▁Lemons	-14244
▁Nearly	-14245
▁System	-14246
▁abated	-14247
▁bamboo	-14248
▁contem	-14249
▁explic	-14250
▁floats	-14251
▁guided	-14252
▁inches	-14253
▁kisses	-14254
▁milked	-14255
▁mopped	-14256
▁morons	-14257
▁popped	-14258
▁recite	-14259
▁stitch	-14260
▁Parking	-14261
▁anxiety	-14262
▁bouquet	-14263
▁clicked	-14264
▁cursive	-14265
▁excused	-14266
▁finicky	-14267
▁reigned	-14268
▁relaxes	-14269
▁relying	-14270
▁replica	-14271
▁resolve	-14272
▁restart	-14273
▁riddles	-14274
▁roaring	-14275
▁rolling	-14276
▁rowboat	-14277
▁runners	-14278
▁saddest	-14279
▁sadness	-14280
▁samples	-14281
▁sandbox	-14282
▁schemer	-14283
▁scholar	-14284
▁scraped	-14285
▁servant	-14286
▁setback	-14287
▁shelves	-14288
▁shopped	-14289
▁shovels	-14290
▁shutter	-14291
▁shuttle	-14292
▁slacker	-14293
▁slicked	-14294
▁smeared	-14295
▁sneaked	-14296
▁sneezed	-14297
▁sneezes	-14298
▁snoozed	-14299
▁Worry	-14300
▁Hunger	-14301
▁combat	-14302
▁endure	-14303
▁scored	-14304
▁exhibit	-14305
▁sonnets	-14306
▁soundly	-14307
▁spelled	-14308
▁squeaks	-14309
▁stanzas	-14310
▁stapler	-14311
▁stomped	-14312
▁strikes	-14313
▁stripes	-14314
▁stroked	-14315
▁sunsets	-14316
▁surfing	-14317
▁sweeten	-14318
▁sweeter	-14319
▁swelled	-14320
▁swollen	-14321
▁tattoos	-14322
▁tempura	-14323
▁testing	-14324
▁texting	-14325
▁therapy	-14326
▁tickles	-14327
▁tidiest	-14328
▁tiptoed	-14329
▁toilets	-14330
▁toolkit	-14331
▁trailer	-14332
▁tricked	-14333
▁trifles	-14334
▁triumph	-14335
▁tunnels	-14336
▁ugliest	-14337
▁unarmed	-14338
▁unavoid	-14339
▁untrust	-14340
▁updated	-14341
▁updates	-14342
▁upstate	-14343
▁vehicle	-14344
▁venture	-14345
▁veteran	-14346
▁volumes	-14347
▁waffles	-14348
▁warrant	-14349
▁welfare	-14350
▁winding	-14351
▁wombats	-14352
▁workmen	-14353
▁writers	-14354
▁yawning	-14355
▁yielded	-14356
abilities	-14357
angerines	-14358
hematical	-14359
ietnamese	-14360
ification	-14361
inflicted	-14362
isticated	-14363
odramatic	-14364
terlingua	-14365
ustaceans	-14366
▁Adopting	-14367
▁Belgrade	-14368
▁Broadway	-14369
▁Broccoli	-14370
▁Brussels	-14371
▁Cadillac	-14372
▁Calcutta	-14373
▁Careless	-14374
▁Cheating	-14375
▁Churches	-14376
▁Dissolve	-14377
▁Egyptian	-14378
▁Franklin	-14379
▁Gasoline	-14380
▁Honolulu	-14381
▁Identify	-14382
▁Imperial	-14383
▁Jacksons	-14384
▁Laughter	-14385
▁Machines	-14386
▁Malaysia	-14387
▁Mandarin	-14388
▁Marriage	-14389
▁Mountain	-14390
▁Nagasaki	-14391
▁Normally	-14392
▁Probably	-14393
▁Proverbs	-14394
▁Sasayama	-14395
▁Scottish	-14396
▁Swallows	-14397
▁Teachers	-14398
▁Termites	-14399
▁Terrific	-14400
▁Thirteen	-14401
▁Tourists	-14402
▁Worrying	-14403
▁abstract	-14404
▁accounts	-14405
▁accusing	-14406
▁aerobics	-14407
▁agricult	-14408
▁allowing	-14409
▁aluminum	-14410
▁ambushed	-14411
▁analyzed	-14412
▁ancestor	-14413
▁anchored	-14414
▁anorexic	-14415
▁appealed	-14416
▁applause	-14417
▁approves	-14418
▁aquarium	-14419
▁assembly	-14420
▁astonish	-14421
▁attained	-14422
▁attempts	-14423
▁attracts	-14424
▁autistic	-14425
▁awakened	-14426
▁backache	-14427
▁bagpipes	-14428
▁baldness	-14429
▁baptized	-14430
▁baritone	-14431
▁benefits	-14432
▁besieged	-14433
▁beverage	-14434
▁bicycled	-14435
▁billions	-14436
▁bitterly	-14437
▁blisters	-14438
▁blocking	-14439
▁bookshop	-14440
▁bookworm	-14441
▁borealis	-14442
▁bracelet	-14443
▁breathes	-14444
▁brighter	-14445
▁caffeine	-14446
▁calories	-14447
▁canaries	-14448
▁capitals	-14449
▁caressed	-14450
▁caroling	-14451
▁cartoons	-14452
▁cautious	-14453
▁cheering	-14454
▁chuckled	-14455
▁civilian	-14456
▁climbers	-14457
▁clueless	-14458
▁cocktail	-14459
▁collects	-14460
▁colossal	-14461
▁comedies	-14462
▁conquers	-14463
▁consoled	-14464
▁contacts	-14465
▁crossbow	-14466
▁crouched	-14467
▁crutches	-14468
▁cucumber	-14469
▁cushions	-14470
▁decisive	-14471
▁decrease	-14472
▁deluding	-14473
▁delusion	-14474
▁demented	-14475
▁departed	-14476
▁develops	-14477
▁diameter	-14478
▁dictates	-14479
▁digested	-14480
▁dinosaur	-14481
▁disclose	-14482
▁disposal	-14483
▁disposed	-14484
▁donating	-14485
▁doubting	-14486
▁driveway	-14487
▁dropping	-14488
▁drunkard	-14489
▁dynamite	-14490
▁eavesdro	-14491
▁editions	-14492
▁eggplant	-14493
▁eligible	-14494
▁endeavor	-14495
▁energies	-14496
▁enrolled	-14497
▁expelled	-14498
▁explicit	-14499
▁extremes	-14500
▁eyepatch	-14501
▁failures	-14502
▁feasible	-14503
▁feathers	-14504
▁feminine	-14505
▁fiercely	-14506
▁fighters	-14507
▁forklift	-14508
▁formulas	-14509
▁freshman	-14510
▁generate	-14511
▁giggling	-14512
▁giveaway	-14513
▁glitters	-14514
▁goodness	-14515
▁governor	-14516
▁graffiti	-14517
▁greeting	-14518
▁grounded	-14519
▁growling	-14520
▁haggling	-14521
▁harassed	-14522
▁hardware	-14523
▁harmless	-14524
▁heaviest	-14525
▁hesitant	-14526
▁highways	-14527
▁husbands	-14528
▁hypocrit	-14529
▁imagines	-14530
▁immortal	-14531
▁imperson	-14532
▁imposter	-14533
▁improves	-14534
▁indicted	-14535
▁insolent	-14536
▁insomnia	-14537
▁juvenile	-14538
▁kangaroo	-14539
▁kerosene	-14540
▁landlord	-14541
▁lectures	-14542
▁licensed	-14543
▁lifelike	-14544
▁lifespan	-14545
▁likeable	-14546
▁lobsters	-14547
▁lukewarm	-14548
▁managers	-14549
▁marching	-14550
▁marksman	-14551
▁mastered	-14552
▁mattered	-14553
▁millions	-14554
▁moderate	-14555
▁moisture	-14556
▁mumbling	-14557
▁mustered	-14558
▁needless	-14559
▁neglects	-14560
▁newcomer	-14561
▁obsolete	-14562
▁obstruct	-14563
▁obtained	-14564
▁omelette	-14565
▁operated	-14566
▁operates	-14567
▁operator	-14568
▁organism	-14569
▁outdated	-14570
▁outgoing	-14571
▁overcame	-14572
▁overprot	-14573
▁peasants	-14574
▁penguins	-14575
▁pizzeria	-14576
▁plankton	-14577
▁plucking	-14578
▁pointing	-14579
▁polished	-14580
▁pollutes	-14581
▁ponytail	-14582
▁potholes	-14583
▁premises	-14584
▁pressing	-14585
▁probable	-14586
▁producer	-14587
▁protests	-14588
▁provides	-14589
▁publicly	-14590
▁purposes	-14591
▁pyramids	-14592
▁quarrels	-14593
▁quarters	-14594
▁quickest	-14595
▁reasoned	-14596
▁rebelled	-14597
▁recycled	-14598
▁reflects	-14599
▁regained	-14600
▁reinvent	-14601
▁reloaded	-14602
▁rephrase	-14603
▁requests	-14604
▁resisted	-14605
▁reviewed	-14606
▁revision	-14607
▁revolted	-14608
▁roasting	-14609
▁sacrific	-14610
▁saucepan	-14611
▁scheming	-14612
▁scorpion	-14613
▁scrubbed	-14614
▁seasonal	-14615
▁seawater	-14616
▁settlers	-14617
▁shipping	-14618
▁shortest	-14619
▁showered	-14620
▁shutting	-14621
▁slapping	-14622
[...]
