<unk>	0
<s>	0
</s>	0
▁e	-0
▁a	-1
er	-2
▁d	-3
▁p	-4
ar	-5
▁c	-6
▁l	-7
en	-8
st	-9
ue	-10
os	-11
▁s	-12
▁m	-13
▁de	-14
▁t	-15
om	-16
▁q	-17
as	-18
do	-19
an	-20
▁T	-21
on	-22
es	-23
un	-24
or	-25
▁h	-26
▁que	-27
▁n	-28
▁Tom	-29
▁E	-30
▁est	-31
▁es	-32
re	-33
▁en	-34
▁v	-35
▁un	-36
ab	-37
▁¿	-38
▁la	-39
ci	-40
▁el	-41
te	-42
in	-43
ad	-44
▁no	-45
▁N	-46
▁f	-47
ía	-48
ien	-49
▁M	-50
al	-51
▁con	-52
am	-53
to	-54
▁se	-55
ui	-56
ado	-57
▁No	-58
ro	-59
▁b	-60
le	-61
la	-62
ra	-63
▁El	-64
▁al	-65
ch	-66
▁ha	-67
▁g	-68
▁L	-69
▁su	-70
ta	-71
go	-72
ón	-73
▁me	-74
ás	-75
de	-76
ir	-77
▁S	-78
▁com	-79
ol	-80
▁di	-81
▁mu	-82
▁par	-83
▁una	-84
▁lo	-85
di	-86
ero	-87
mp	-88
ué	-89
ie	-90
▁Est	-91
aba	-92
ente	-93
ri	-94
oy	-95
▁por	-96
▁está	-97
▁y	-98
▁mi	-99
▁le	-100
▁o	-101
ando	-102
da	-103
lo	-104
▁É	-105
▁A	-106
▁Mar	-107
ti	-108
res	-109
▁Él	-110
▁hab	-111
ec	-112
▁re	-113
ca	-114
▁P	-115
uer	-116
co	-117
▁te	-118
ust	-119
▁in	-120
▁Mary	-121
vi	-122
mos	-123
jo	-124
cu	-125
▁para	-126
▁to	-127
▁vi	-128
▁Es	-129
▁los	-130
▁cu	-131
▁hac	-132
▁qui	-133
dad	-134
ada	-135
▁más	-136
▁pue	-137
▁tu	-138
tr	-139
▁C	-140
▁D	-141
▁Me	-142
▁Ella	-143
▁ten	-144
▁per	-145
ent	-146
▁H	-147
▁las	-148
se	-149
▁cas	-150
▁i	-151
li	-152
gu	-153
▁La	-154
ran	-155
▁tien	-156
era	-157
mo	-158
▁po	-159
▁si	-160
si	-161
ción	-162
▁qué	-163
me	-164
cho	-165
amos	-166
▁gust	-167
▁tr	-168
tar	-169
▁hacer	-170
mi	-171
ez	-172
ana	-173
ma	-174
▁des	-175
iemp	-176
▁ver	-177
▁pro	-178
sta	-179
▁pre	-180
ste	-181
gun	-182
▁hi	-183
▁muy	-184
▁ac	-185
bre	-186
▁Y	-187
Qui	-188
▁j	-189
vo	-190
▁é	-191
qu	-192
bi	-193
▁li	-194
▁del	-195
án	-196
dos	-197
eces	-198
añ	-199
is	-200
lar	-201
▁sab	-202
ce	-203
▁pas	-204
▁comp	-205
és	-206
quí	-207
ora	-208
Qué	-209
ay	-210
▁tiene	-211
▁pe	-212
us	-213
ías	-214
los	-215
▁casa	-216
▁él	-217
tos	-218
▁co	-219
dar	-220
ver	-221
▁ir	-222
pi	-223
▁ex	-224
▁lle	-225
che	-226
▁an	-227
▁aquí	-228
▁V	-229
▁fue	-230
▁traba	-231
▁ser	-232
gar	-233
ve	-234
▁ay	-235
▁tan	-236
▁estaba	-237
▁esta	-238
tes	-239
▁r	-240
én	-241
▁Yo	-242
▁fa	-243
pa	-244
▁he	-245
fi	-246
▁eso	-247
vor	-248
▁Ten	-249
▁como	-250
ber	-251
que	-252
▁esc	-253
▁De	-254
per	-255
▁favor	-256
des	-257
▁nue	-258
▁cam	-259
▁son	-260
▁quier	-261
▁sal	-262
io	-263
▁ca	-264
emos	-265
iempo	-266
▁algo	-267
▁ll	-268
▁tiempo	-269
ens	-270
uen	-271
mente	-272
▁Mi	-273
amente	-274
▁gusta	-275
erm	-276
▁ap	-277
iendo	-278
ecesi	-279
▁Estoy	-280
▁sol	-281
▁so	-282
Cu	-283
ble	-284
der	-285
oso	-286
▁pa	-287
qui	-288
mas	-289
dr	-290
▁mis	-291
ten	-292
tra	-293
ante	-294
ga	-295
▁ni	-296
tu	-297
▁ayu	-298
ño	-299
▁bien	-300
ano	-301
cia	-302
▁To	-303
tas	-304
▁este	-305
▁ab	-306
▁buen	-307
▁Qui	-308
cion	-309
▁estu	-310
ños	-311
▁deci	-312
ún	-313
tó	-314
zo	-315
▁todo	-316
▁car	-317
▁nada	-318
▁mucho	-319
▁vez	-320
ter	-321
▁pr	-322
▁res	-323
jar	-324
▁cre	-325
▁lib	-326
ja	-327
▁can	-328
adre	-329
▁Los	-330
las	-331
▁enc	-332
sto	-333
▁puedo	-334
▁ah	-335
▁as	-336
ómo	-337
Por	-338
je	-339
▁era	-340
unca	-341
▁quer	-342
▁tar	-343
ónde	-344
▁Se	-345
▁U	-346
añana	-347
za	-348
▁pi	-349
▁ch	-350
▁compr	-351
▁estar	-352
▁va	-353
▁imp	-354
▁pregun	-355
▁esto	-356
▁B	-357
▁¡	-358
▁ar	-359
▁ven	-360
dió	-361
▁cor	-362
pe	-363
ara	-364
▁yo	-365
▁Tengo	-366
▁trabajo	-367
ido	-368
inero	-369
ados	-370
▁puede	-371
▁dijo	-372
▁cuando	-373
▁Quiero	-374
▁sus	-375
▁dinero	-376
▁quiero	-377
▁hablar	-378
▁man	-379
ia	-380
▁du	-381
▁dos	-382
▁mañana	-383
▁tengo	-384
▁ti	-385
▁ami	-386
par	-387
▁ve	-388
▁Lo	-389
jor	-390
das	-391
eron	-392
▁pero	-393
aría	-394
ombre	-395
▁fuer	-396
Cuán	-397
▁ella	-398
▁hay	-399
▁Tomás	-400
lan	-401
▁Le	-402
va	-403
▁mejor	-404
▁Te	-405
▁Si	-406
▁ba	-407
▁ci	-408
▁estoy	-409
▁pu	-410
ost	-411
▁haber	-412
▁En	-413
ros	-414
▁men	-415
um	-416
na	-417
iempre	-418
▁much	-419
adie	-420
▁mal	-421
▁J	-422
ino	-423
▁mí	-424
▁poco	-425
ece	-426
▁deber	-427
ren	-428
▁Por	-429
▁día	-430
almente	-431
▁todos	-432
▁ro	-433
▁tra	-434
▁esper	-435
▁libro	-436
▁Cre	-437
▁Este	-438
▁Ellos	-439
▁proble	-440
ic	-441
tros	-442
son	-443
▁necesi	-444
ranc	-445
▁au	-446
cil	-447
▁cono	-448
ontr	-449
du	-450
▁decir	-451
▁Su	-452
▁cer	-453
▁ocu	-454
▁F	-455
▁gran	-456
▁tom	-457
▁están	-458
▁vol	-459
ven	-460
▁franc	-461
so	-462
car	-463
▁estudi	-464
▁quiere	-465
masi	-466
▁cos	-467
▁demasi	-468
uste	-469
tro	-470
▁nos	-471
▁pri	-472
▁llam	-473
▁uste	-474
▁person	-475
▁herm	-476
▁cal	-477
ru	-478
iento	-479
▁Esta	-480
lí	-481
able	-482
▁ent	-483
▁verdad	-484
fer	-485
▁emp	-486
po	-487
▁Creo	-488
▁francés	-489
aron	-490
fici	-491
▁tarde	-492
pon	-493
Pue	-494
▁dis	-495
▁años	-496
▁había	-497
jos	-498
ió	-499
uel	-500
▁demasiado	-501
ento	-502
▁hace	-503
▁encontr	-504
il	-505
▁María	-506
▁solo	-507
▁sabe	-508
▁ju	-509
▁sin	-510
▁padre	-511
no	-512
den	-513
▁be	-514
▁sobre	-515
vía	-516
ame	-517
▁hizo	-518
▁tres	-519
ba	-520
endo	-521
▁antes	-522
aré	-523
ita	-524
tor	-525
▁ahora	-526
ort	-527
ina	-528
▁am	-529
tado	-530
▁ayudar	-531
▁O	-532
les	-533
oston	-534
▁Boston	-535
▁noche	-536
gos	-537
rió	-538
▁Eso	-539
▁pens	-540
ras	-541
▁escri	-542
▁sé	-543
▁algun	-544
▁quería	-545
gui	-546
▁lu	-547
▁ma	-548
▁fe	-549
guien	-550
orm	-551
▁comer	-552
ces	-553
osotros	-554
▁hora	-555
ío	-556
▁tenía	-557
gas	-558
▁nuest	-559
ono	-560
▁nunca	-561
Est	-562
▁siempre	-563
ienes	-564
dido	-565
▁toda	-566
▁segu	-567
ico	-568
▁Hay	-569
gr	-570
▁estás	-571
▁mo	-572
▁Al	-573
▁R	-574
▁estado	-575
▁ese	-576
Cómo	-577
jer	-578
▁Un	-579
▁Pue	-580
dí	-581
sa	-582
▁ga	-583
▁perro	-584
jó	-585
Quién	-586
▁sem	-587
▁sent	-588
▁usted	-589
be	-590
▁auto	-591
sión	-592
▁hombre	-593
gua	-594
▁reg	-595
xi	-596
▁nuevo	-597
▁Ha	-598
idad	-599
▁Necesi	-600
▁ing	-601
ál	-602
▁ra	-603
tras	-604
iene	-605
uest	-606
▁mes	-607
▁esp	-608
▁vida	-609
▁hoy	-610
Dónde	-611
▁feli	-612
gó	-613
▁inter	-614
▁rec	-615
▁prof	-616
enta	-617
tal	-618
▁hasta	-619
br	-620
erto	-621
▁días	-622
▁gente	-623
ión	-624
éis	-625
▁Las	-626
cha	-627
▁coche	-628
▁esa	-629
cas	-630
▁medi	-631
dría	-632
anas	-633
ciones	-634
cio	-635
▁hecho	-636
uela	-637
Te	-638
ermin	-639
dó	-640
▁mismo	-641
▁problema	-642
ida	-643
▁llev	-644
▁Todos	-645
ena	-646
▁ya	-647
▁Sé	-648
▁Esto	-649
ña	-650
▁cómo	-651
lla	-652
No	-653
cado	-654
▁gustaría	-655
gún	-656
▁Ya	-657
▁or	-658
▁cab	-659
ac	-660
▁plan	-661
▁hacerlo	-662
▁bo	-663
▁He	-664
▁quieres	-665
▁Nunca	-666
▁nadie	-667
▁parece	-668
ará	-669
undo	-670
▁fin	-671
▁puer	-672
▁pes	-673
▁tú	-674
▁semana	-675
lti	-676
bo	-677
▁madre	-678
bol	-679
ario	-680
▁pol	-681
▁Pens	-682
ciendo	-683
im	-684
ció	-685
▁quedar	-686
▁termin	-687
tent	-688
▁habita	-689
tido	-690
▁debería	-691
▁quién	-692
▁otra	-693
ur	-694
arme	-695
▁I	-696
aban	-697
▁Soy	-698
▁Deber	-699
▁así	-700
▁pod	-701
▁voy	-702
onto	-703
▁Com	-704
▁min	-705
encia	-706
rante	-707
▁saber	-708
▁Par	-709
▁habitación	-710
▁ne	-711
▁Sol	-712
▁puerta	-713
▁ide	-714
▁mundo	-715
▁ú	-716
ués	-717
▁ol	-718
cias	-719
▁mar	-720
▁habl	-721
▁dónde	-722
gue	-723
leg	-724
uso	-725
van	-726
▁bus	-727
▁cosas	-728
ul	-729
nos	-730
fí	-731
pués	-732
▁prim	-733
▁escuela	-734
ápi	-735
ores	-736
ili	-737
lés	-738
Cuál	-739
▁pasado	-740
▁mon	-741
▁dejar	-742
▁oí	-743
▁niños	-744
▁amigos	-745
▁vas	-746
▁allí	-747
▁escu	-748
▁inglés	-749
tamente	-750
▁tienes	-751
migo	-752
▁clas	-753
▁pon	-754
▁fuera	-755
▁puedes	-756
▁has	-757
▁Pensé	-758
▁comprar	-759
vir	-760
▁profes	-761
▁soy	-762
▁ri	-763
▁equi	-764
uerdo	-765
▁op	-766
cer	-767
ica	-768
gado	-769
▁fie	-770
fícil	-771
udad	-772
▁apren	-773
▁difícil	-774
tir	-775
ap	-776
rr	-777
▁ciudad	-778
unto	-779
ales	-780
▁hor	-781
▁entr	-782
▁pal	-783
▁feliz	-784
▁ocup	-785
▁menos	-786
▁fr	-787
▁sabía	-788
▁mujer	-789
té	-790
▁ayuda	-791
▁veces	-792
ís	-793
ár	-794
tió	-795
▁Necesito	-796
▁seguro	-797
ían	-798
▁cin	-799
▁otro	-800
▁llegar	-801
▁uno	-802
▁Está	-803
▁agua	-804
▁idea	-805
▁tus	-806
ocu	-807
▁Tu	-808
▁Voy	-809
▁us	-810
▁may	-811
▁mir	-812
▁cambi	-813
▁ob	-814
▁año	-815
▁olvi	-816
▁pien	-817
▁buena	-818
erte	-819
▁dio	-820
▁últi	-821
zar	-822
▁hu	-823
▁condu	-824
▁Cu	-825
▁sue	-826
▁G	-827
▁Ah	-828
dado	-829
dente	-830
osa	-831
▁Di	-832
▁Nadie	-833
lé	-834
dio	-835
ólo	-836
▁niño	-837
osi	-838
▁nin	-839
▁comida	-840
arte	-841
rec	-842
▁ayer	-843
▁visto	-844
▁Solo	-845
▁tele	-846
▁hici	-847
▁volver	-848
▁caf	-849
▁pronto	-850
▁Nos	-851
▁vuel	-852
Cuándo	-853
oh	-854
▁na	-855
▁conmigo	-856
▁acer	-857
▁nosotros	-858
▁lun	-859
antes	-860
▁her	-861
▁amigo	-862
▁intent	-863
eza	-864
▁Eres	-865
▁rápi	-866
▁ahí	-867
▁Esp	-868
▁tren	-869
▁nombre	-870
▁conti	-871
▁después	-872
▁exp	-873
▁alguien	-874
▁persona	-875
ohn	-876
▁John	-877
Puedo	-878
▁personas	-879
▁bi	-880
▁temp	-881
▁discu	-882
▁contigo	-883
▁café	-884
▁fiesta	-885
dir	-886
▁Des	-887
▁Ahora	-888
▁tam	-889
▁desde	-890
▁tener	-891
▁fam	-892
demos	-893
▁fá	-894
▁cui	-895
▁hermano	-896
Me	-897
zón	-898
▁vino	-899
udo	-900
▁levan	-901
ones	-902
▁sufici	-903
▁mayor	-904
De	-905
pue	-906
vió	-907
▁escuch	-908
▁famili	-909
▁conse	-910
Es	-911
▁interes	-912
▁Q	-913
lig	-914
iente	-915
▁Todo	-916
▁creo	-917
pren	-918
cos	-919
▁ún	-920
▁pres	-921
▁Hab	-922
Quier	-923
▁invi	-924
▁Tenemos	-925
▁haciendo	-926
▁inc	-927
▁mom	-928
▁lugar	-929
▁durante	-930
▁suficiente	-931
▁cul	-932
▁les	-933
▁entre	-934
▁sor	-935
▁casi	-936
▁salir	-937
▁cans	-938
▁minu	-939
▁err	-940
oria	-941
▁gan	-942
▁empez	-943
sti	-944
▁sea	-945
arse	-946
▁cama	-947
▁dice	-948
▁podía	-949
▁fo	-950
▁tanto	-951
▁leer	-952
▁visi	-953
▁alguna	-954
▁pad	-955
▁preocu	-956
▁carta	-957
▁profesor	-958
bes	-959
omb	-960
orta	-961
▁mie	-962
▁podría	-963
icía	-964
▁clase	-965
▁libros	-966
▁nad	-967
jas	-968
▁Hoy	-969
quier	-970
▁bueno	-971
Po	-972
llos	-973
▁fal	-974
▁cuán	-975
▁todas	-976
▁momento	-977
có	-978
ne	-979
▁ho	-980
▁todavía	-981
davía	-982
Cuánto	-983
▁lunes	-984
▁palab	-985
▁cuenta	-986
▁Tú	-987
guir	-988
jado	-989
▁Ese	-990
▁jue	-991
▁padres	-992
ome	-993
bién	-994
▁coci	-995
mb	-996
▁pla	-997
▁hist	-998
▁peque	-999
▁pie	-1000
▁problemas	-1001
▁1	-1002
▁Re	-1003
▁fácil	-1004
▁habla	-1005
▁muchos	-1006
alo	-1007
▁dar	-1008
▁ense	-1009
▁grande	-1010
▁eres	-1011
fono	-1012
▁via	-1013
entes	-1014
▁ad	-1015
▁pasó	-1016
▁enten	-1017
▁acerca	-1018
mple	-1019
▁vie	-1020
▁dorm	-1021
▁telé	-1022
▁ellos	-1023
▁Tienes	-1024
▁Vi	-1025
iste	-1026
▁porque	-1027
▁os	-1028
▁acci	-1029
▁import	-1030
bir	-1031
▁ta	-1032
adas	-1033
▁enfer	-1034
▁jo	-1035
▁vay	-1036
▁teléfono	-1037
▁encontrar	-1038
▁mucha	-1039
Sab	-1040
▁In	-1041
anos	-1042
▁rápido	-1043
▁Con	-1044
▁enf	-1045
▁lla	-1046
Estás	-1047
▁come	-1048
ám	-1049
stante	-1050
▁extra	-1051
▁hermana	-1052
▁Deberías	-1053
▁cerca	-1054
▁familia	-1055
ortun	-1056
▁horas	-1057
▁trabajar	-1058
dia	-1059
▁realmente	-1060
▁Fue	-1061
▁pasa	-1062
▁sido	-1063
▁policía	-1064
gn	-1065
ari	-1066
apón	-1067
▁hijo	-1068
▁Japón	-1069
▁do	-1070
▁inf	-1071
▁vent	-1072
▁encan	-1073
▁Estaba	-1074
zó	-1075
▁sen	-1076
Puedes	-1077
▁acuerdo	-1078
▁don	-1079
▁diez	-1080
▁puso	-1081
▁joven	-1082
▁Espero	-1083
▁gustan	-1084
▁jun	-1085
▁televi	-1086
▁Estamos	-1087
ral	-1088
cir	-1089
llo	-1090
▁pudo	-1091
vos	-1092
ecto	-1093
▁agr	-1094
▁tomar	-1095
can	-1096
▁Ay	-1097
▁jugar	-1098
▁vivir	-1099
▁gu	-1100
▁ban	-1101
▁Cuando	-1102
eras	-1103
cando	-1104
▁cosa	-1105
por	-1106
Quieres	-1107
tando	-1108
▁reun	-1109
gan	-1110
▁muchas	-1111
▁siento	-1112
▁historia	-1113
ró	-1114
▁cada	-1115
Tienes	-1116
▁venir	-1117
entro	-1118
▁pelí	-1119
▁tuvo	-1120
ll	-1121
bió	-1122
zco	-1123
▁pelícu	-1124
▁bastante	-1125
▁val	-1126
▁dejó	-1127
ger	-1128
via	-1129
cido	-1130
racias	-1131
▁también	-1132
▁tempran	-1133
▁Esa	-1134
▁qu	-1135
▁bol	-1136
▁país	-1137
▁dormir	-1138
tón	-1139
▁ce	-1140
▁contra	-1141
▁accidente	-1142
▁lar	-1143
▁mano	-1144
▁temprano	-1145
dico	-1146
guna	-1147
ctor	-1148
▁gato	-1149
▁hubi	-1150
verdad	-1151
▁Todavía	-1152
▁mesa	-1153
▁sa	-1154
▁capa	-1155
orma	-1156
▁col	-1157
▁vive	-1158
▁nuestra	-1159
ér	-1160
▁respon	-1161
▁Siempre	-1162
▁fl	-1163
▁mú	-1164
▁pasar	-1165
bli	-1166
▁ley	-1167
▁consi	-1168
▁estaban	-1169
▁pregunta	-1170
▁"	-1171
ador	-1172
▁bar	-1173
▁cual	-1174
▁músi	-1175
▁donde	-1176
▁nadar	-1177
▁beb	-1178
osible	-1179
leta	-1180
▁der	-1181
▁menudo	-1182
▁tienen	-1183
▁nuestro	-1184
▁ocupado	-1185
▁sí	-1186
▁murió	-1187
▁parte	-1188
tura	-1189
▁alm	-1190
▁fun	-1191
▁aprender	-1192
tivo	-1193
▁llo	-1194
▁razón	-1195
dé	-1196
▁sec	-1197
▁arre	-1198
▁creer	-1199
año	-1200
▁parec	-1201
cen	-1202
tin	-1203
drá	-1204
alidad	-1205
▁Mu	-1206
▁ja	-1207
abas	-1208
▁pelo	-1209
quiera	-1210
▁pidió	-1211
▁televisión	-1212
▁Pre	-1213
▁llor	-1214
▁dicho	-1215
▁miedo	-1216
▁equivo	-1217
ré	-1218
▁za	-1219
▁dije	-1220
pen	-1221
▁pró	-1222
▁zapa	-1223
▁ofici	-1224
gra	-1225
▁pin	-1226
▁alto	-1227
▁viene	-1228
▁fuerte	-1229
▁Po	-1230
▁cinco	-1231
ientras	-1232
▁avi	-1233
▁rom	-1234
▁camino	-1235
▁próxi	-1236
▁minutos	-1237
▁lado	-1238
▁camin	-1239
▁necesita	-1240
ves	-1241
▁han	-1242
drías	-1243
▁af	-1244
lado	-1245
▁dese	-1246
▁enseñ	-1247
▁estación	-1248
▁rep	-1249
▁reci	-1250
▁expli	-1251
▁Parece	-1252
idos	-1253
▁som	-1254
▁última	-1255
▁fui	-1256
ientes	-1257
▁Una	-1258
▁tipo	-1259
▁hijos	-1260
▁cansado	-1261
▁aque	-1262
▁sorpren	-1263
lu	-1264
cep	-1265
arto	-1266
▁prepar	-1267
▁preguntó	-1268
▁importante	-1269
áti	-1270
▁frío	-1271
▁Ayer	-1272
Has	-1273
▁fum	-1274
▁tal	-1275
legio	-1276
▁agrad	-1277
▁permi	-1278
ea	-1279
ría	-1280
▁fu	-1281
erta	-1282
puesta	-1283
▁estudiar	-1284
▁colegio	-1285
cic	-1286
dor	-1287
chos	-1288
▁música	-1289
▁vo	-1290
uelo	-1291
tamos	-1292
▁zapatos	-1293
ge	-1294
▁mé	-1295
▁dol	-1296
▁dom	-1297
▁prob	-1298
▁estamos	-1299
▁importa	-1300
▁tenemos	-1301
▁pá	-1302
▁limp	-1303
▁ventana	-1304
cost	-1305
taba	-1306
▁apar	-1307
▁Nuest	-1308
▁esperar	-1309
tí	-1310
▁pare	-1311
ús	-1312
▁ár	-1313
tran	-1314
▁ham	-1315
▁vio	-1316
pital	-1317
siera	-1318
▁conf	-1319
▁tri	-1320
▁sola	-1321
ustral	-1322
▁ech	-1323
▁ter	-1324
Sabes	-1325
▁hablando	-1326
▁película	-1327
▁rob	-1328
▁Puede	-1329
ya	-1330
▁perder	-1331
anto	-1332
lares	-1333
▁comen	-1334
▁reunión	-1335
adu	-1336
loj	-1337
▁debe	-1338
▁algún	-1339
ist	-1340
▁Lle	-1341
▁Ven	-1342
▁dij	-1343
▁reloj	-1344
cicleta	-1345
▁oficina	-1346
▁estudiantes	-1347
sas	-1348
tan	-1349
ayun	-1350
illo	-1351
uido	-1352
▁foto	-1353
▁confi	-1354
▁error	-1355
ustralia	-1356
▁Australia	-1357
▁ano	-1358
▁podemos	-1359
éj	-1360
var	-1361
▁unos	-1362
▁diver	-1363
▁único	-1364
▁ustedes	-1365
▁mientras	-1366
▁esperando	-1367
rar	-1368
▁da	-1369
▁oír	-1370
▁acost	-1371
▁juntos	-1372
fe	-1373
▁hice	-1374
▁ojos	-1375
▁sólo	-1376
▁hacia	-1377
▁prest	-1378
▁compró	-1379
▁deberías	-1380
▁acab	-1381
▁corr	-1382
▁ocur	-1383
▁domin	-1384
▁punto	-1385
zado	-1386
olver	-1387
▁japon	-1388
▁llegó	-1389
▁trabaj	-1390
▁primera	-1391
▁aún	-1392
▁mor	-1393
▁salu	-1394
amento	-1395
▁Puedes	-1396
▁extran	-1397
▁preocup	-1398
▁escribir	-1399
gi	-1400
ito	-1401
▁ido	-1402
▁nie	-1403
▁atra	-1404
▁dist	-1405
▁homb	-1406
▁árbol	-1407
▁cabeza	-1408
▁edad	-1409
▁tenis	-1410
▁buscando	-1411
rob	-1412
tel	-1413
tri	-1414
▁difer	-1415
▁Per	-1416
lá	-1417
▁bes	-1418
▁gol	-1419
▁entender	-1420
▁bicicleta	-1421
tad	-1422
tera	-1423
▁Fui	-1424
▁queda	-1425
ormi	-1426
ación	-1427
▁manz	-1428
▁estuvo	-1429
▁escon	-1430
▁llave	-1431
▁nueva	-1432
▁sueño	-1433
▁desayun	-1434
▁conducir	-1435
cios	-1436
▁dej	-1437
▁Aquí	-1438
ciente	-1439
▁direc	-1440
▁viejo	-1441
Está	-1442
▁hue	-1443
bamos	-1444
▁esposa	-1445
gió	-1446
▁dó	-1447
gando	-1448
▁Quer	-1449
▁Tiene	-1450
▁autob	-1451
▁tocar	-1452
▁Son	-1453
▁misma	-1454
▁pagar	-1455
▁secre	-1456
ifi	-1457
▁caja	-1458
diendo	-1459
eo	-1460
úm	-1461
cía	-1462
trás	-1463
▁ace	-1464
▁núm	-1465
▁verte	-1466
▁compañ	-1467
Hay	-1468
usto	-1469
▁Sab	-1470
vidad	-1471
▁resul	-1472
▁ningún	-1473
▁Na	-1474
▁len	-1475
▁seis	-1476
▁dolor	-1477
▁dormi	-1478
▁media	-1479
▁propi	-1480
▁anoche	-1481
▁necesito	-1482
uerra	-1483
▁fueron	-1484
▁canción	-1485
jero	-1486
▁cen	-1487
▁pan	-1488
▁Puedo	-1489
▁calle	-1490
▁poner	-1491
tención	-1492
▁visitar	-1493
▁Ac	-1494
▁Uste	-1495
▁cons	-1496
▁chico	-1497
▁estuvi	-1498
▁pueden	-1499
▁autobús	-1500
▁perdido	-1501
atro	-1502
rado	-1503
gamos	-1504
viendo	-1505
▁ganas	-1506
▁fumar	-1507
▁pensar	-1508
▁palabra	-1509
▁río	-1510
▁Sólo	-1511
▁oído	-1512
▁pudi	-1513
▁usar	-1514
▁vest	-1515
▁lleva	-1516
▁orden	-1517
En	-1518
vas	-1519
▁bebé	-1520
▁cualquier	-1521
▁Era	-1522
▁gen	-1523
▁gra	-1524
▁haga	-1525
▁leche	-1526
▁verano	-1527
ali	-1528
▁cám	-1529
taron	-1530
▁Estu	-1531
▁bajo	-1532
▁blan	-1533
▁chica	-1534
▁comple	-1535
tener	-1536
▁anim	-1537
▁aver	-1538
▁cost	-1539
▁avión	-1540
▁cocin	-1541
▁enfad	-1542
▁cri	-1543
▁hos	-1544
▁tre	-1545
▁uni	-1546
▁hermos	-1547
▁Gracias	-1548
▁dólares	-1549
▁hubiera	-1550
▁interesante	-1551
ló	-1552
yo	-1553
úpi	-1554
▁az	-1555
▁cree	-1556
▁será	-1557
▁pedir	-1558
▁conven	-1559
▁manera	-1560
▁funcion	-1561
jal	-1562
años	-1563
▁lejos	-1564
▁pueda	-1565
▁respuesta	-1566
00	-1567
▁mole	-1568
▁noti	-1569
▁quien	-1570
erno	-1571
▁cuarto	-1572
▁médico	-1573
▁número	-1574
▁preguntas	-1575
one	-1576
▁ropa	-1577
▁estúpi	-1578
▁tienda	-1579
caciones	-1580
▁hospital	-1581
▁terminar	-1582
cri	-1583
oma	-1584
pas	-1585
bido	-1586
▁deb	-1587
▁gri	-1588
▁hotel	-1589
▁Debería	-1590
ír	-1591
▁Déj	-1592
▁capaz	-1593
▁estos	-1594
▁quedó	-1595
▁cámara	-1596
▁Estados	-1597
ordar	-1598
▁Para	-1599
▁algunas	-1600
rá	-1601
ensa	-1602
inta	-1603
jalá	-1604
▁iba	-1605
▁Estás	-1606
▁emple	-1607
▁vista	-1608
▁cierto	-1609
▁br	-1610
▁salió	-1611
▁Unidos	-1612
▁algunos	-1613
qué	-1614
erra	-1615
guas	-1616
llas	-1617
▁mío	-1618
adien	-1619
▁esté	-1620
▁hija	-1621
▁suce	-1622
▁canadien	-1623
Al	-1624
pó	-1625
▁forma	-1626
damente	-1627
▁parque	-1628
▁pregunto	-1629
amor	-1630
cidad	-1631
▁cara	-1632
▁desa	-1633
▁oscu	-1634
▁cabal	-1635
adamente	-1636
Le	-1637
eno	-1638
ini	-1639
olu	-1640
andon	-1641
▁acon	-1642
▁listo	-1643
▁ninguna	-1644
▁acep	-1645
▁resp	-1646
▁Alguien	-1647
▁conozco	-1648
graf	-1649
▁bor	-1650
▁dir	-1651
▁gui	-1652
▁Algun	-1653
▁manos	-1654
▁correc	-1655
▁guerra	-1656
Tom	-1657
▁evi	-1658
ccion	-1659
▁chic	-1660
▁most	-1661
▁Debes	-1662
▁corre	-1663
▁cumple	-1664
▁enamor	-1665
▁encanta	-1666
▁Nosotros	-1667
▁Quisiera	-1668
tis	-1669
guió	-1670
▁luz	-1671
▁inte	-1672
▁Ojalá	-1673
▁sabes	-1674
▁conoce	-1675
▁perdió	-1676
▁hombres	-1677
▁tuvi	-1678
ientos	-1679
▁juego	-1680
▁doctor	-1681
▁acostum	-1682
▁jar	-1683
remos	-1684
▁dere	-1685
▁libre	-1686
▁salud	-1687
▁regalo	-1688
▁Navidad	-1689
▁cru	-1690
▁unas	-1691
▁banco	-1692
▁hiciste	-1693
▁realidad	-1694
eta	-1695
▁despe	-1696
▁desper	-1697
▁hambre	-1698
▁perros	-1699
▁oportun	-1700
inci	-1701
▁malo	-1702
▁muerte	-1703
▁suerte	-1704
▁univer	-1705
▁vacaciones	-1706
ale	-1707
arlo	-1708
▁Comp	-1709
▁vaya	-1710
tiendo	-1711
▁beber	-1712
▁despi	-1713
▁solía	-1714
▁entrar	-1715
▁vuelta	-1716
▁posible	-1717
día	-1718
str	-1719
▁Ll	-1720
▁fi	-1721
▁té	-1722
amás	-1723
▁Había	-1724
▁calor	-1725
▁consejo	-1726
▁ade	-1727
▁bon	-1728
▁ele	-1729
torio	-1730
▁clar	-1731
▁pier	-1732
▁enfermo	-1733
▁intelig	-1734
gué	-1735
mag	-1736
rica	-1737
▁bai	-1738
▁dem	-1739
▁Deja	-1740
▁caus	-1741
▁duro	-1742
▁cantar	-1743
▁acostumbr	-1744
▁cie	-1745
▁veo	-1746
uerzo	-1747
▁prome	-1748
▁cuidado	-1749
▁cumpleaños	-1750
▁oportunidad	-1751
cial	-1752
stos	-1753
entos	-1754
▁arro	-1755
▁exac	-1756
▁ruido	-1757
▁flores	-1758
▁u	-1759
▁acá	-1760
▁exam	-1761
▁niña	-1762
▁pude	-1763
▁Vamos	-1764
▁crees	-1765
▁descu	-1766
▁vuest	-1767
Cuántos	-1768
▁abandon	-1769
▁terminado	-1770
ama	-1771
tio	-1772
ído	-1773
eros	-1774
▁cena	-1775
▁cerv	-1776
▁espe	-1777
▁hagas	-1778
▁largo	-1779
▁pelig	-1780
▁vamos	-1781
▁secreto	-1782
▁pensando	-1783
▁siquiera	-1784
esa	-1785
▁Ch	-1786
dida	-1787
▁Mis	-1788
▁edi	-1789
▁perf	-1790
▁rico	-1791
▁cuándo	-1792
▁llover	-1793
▁quieras	-1794
ñas	-1795
▁dur	-1796
gnifi	-1797
tento	-1798
▁Esper	-1799
▁arreg	-1800
▁culpa	-1801
▁novia	-1802
▁contar	-1803
▁lengua	-1804
▁parecía	-1805
▁pequeño	-1806
isa	-1807
ería	-1808
▁eng	-1809
▁vos	-1810
dedor	-1811
▁encu	-1812
▁haya	-1813
iencia	-1814
▁poder	-1815
▁viaje	-1816
▁abo	-1817
▁van	-1818
▁tomó	-1819
▁exper	-1820
▁nieve	-1821
ote	-1822
▁ale	-1823
▁otros	-1824
▁aconse	-1825
cti	-1826
▁pis	-1827
▁allá	-1828
▁escal	-1829
▁llama	-1830
▁Hi	-1831
▁abi	-1832
▁sie	-1833
uerda	-1834
▁Hace	-1835
▁aleg	-1836
▁orgu	-1837
dieron	-1838
▁regres	-1839
don	-1840
ion	-1841
▁lista	-1842
▁monta	-1843
Cre	-1844
ese	-1845
tud	-1846
stas	-1847
▁har	-1848
dando	-1849
onces	-1850
▁abri	-1851
▁medio	-1852
▁asunto	-1853
▁cerveza	-1854
yó	-1855
cto	-1856
▁gr	-1857
▁eno	-1858
▁falta	-1859
▁tarea	-1860
▁tenido	-1861
▁extraño	-1862
▁signifi	-1863
▁palabras	-1864
▁canadiense	-1865
cí	-1866
tbol	-1867
▁Pas	-1868
▁hum	-1869
▁tío	-1870
▁amor	-1871
▁abr	-1872
▁cay	-1873
▁mer	-1874
▁abur	-1875
▁matar	-1876
▁equipo	-1877
▁compañía	-1878
▁ment	-1879
urante	-1880
▁conci	-1881
▁volvió	-1882
▁vestido	-1883
▁decisión	-1884
▁preguntar	-1885
."	-1886
0.	-1887
▁agu	-1888
▁llu	-1889
▁sos	-1890
brero	-1891
▁caso	-1892
▁limpi	-1893
▁piano	-1894
▁pájar	-1895
▁examen	-1896
▁llamar	-1897
▁princi	-1898
▁equivocado	-1899
ueva	-1900
▁rela	-1901
▁vari	-1902
▁cocina	-1903
▁montón	-1904
▁seguir	-1905
▁estudiante	-1906
stru	-1907
▁apa	-1908
▁asi	-1909
▁Tuve	-1910
▁anci	-1911
cación	-1912
▁conver	-1913
▁diccion	-1914
▁edifici	-1915
▁próximo	-1916
▁trabaja	-1917
pu	-1918
dré	-1919
▁abs	-1920
▁Pien	-1921
▁resta	-1922
▁Déjame	-1923
▁llevar	-1924
▁puesto	-1925
áis	-1926
Quer	-1927
▁éxi	-1928
ancia	-1929
uesta	-1930
▁gatos	-1931
▁decidió	-1932
▁estabas	-1933
▁mujeres	-1934
ablemente	-1935
▁orgullos	-1936
til	-1937
▁Cas	-1938
media	-1939
▁nego	-1940
▁pele	-1941
▁fuego	-1942
▁justo	-1943
▁Nuestro	-1944
▁quieren	-1945
▁esperaba	-1946
▁conseguir	-1947
anza	-1948
▁acu	-1949
▁opin	-1950
▁éxito	-1951
▁guitar	-1952
▁piensa	-1953
▁inmedia	-1954
▁universi	-1955
dín	-1956
fri	-1957
gro	-1958
vio	-1959
▁Haz	-1960
▁Tra	-1961
▁dec	-1962
utado	-1963
▁alre	-1964
▁imag	-1965
▁nove	-1966
▁primero	-1967
▁extranjero	-1968
fico	-1969
▁Aún	-1970
▁rad	-1971
▁cuch	-1972
▁eran	-1973
▁situ	-1974
▁almor	-1975
▁famos	-1976
▁cuatro	-1977
▁discul	-1978
▁jardín	-1979
▁sombrero	-1980
▁idi	-1981
▁lin	-1982
miento	-1983
▁bibli	-1984
▁sitio	-1985
Podrías	-1986
▁clases	-1987
▁empezó	-1988
▁levantar	-1989
▁diccionario	-1990
▁As	-1991
▁bra	-1992
diste	-1993
▁Dame	-1994
▁mala	-1995
▁Mañana	-1996
▁dentro	-1997
▁pequeña	-1998
▁atención	-1999
▁bibliote	-2000
▁entiendo	-2001
▁exactamente	-2002
▁Ve	-2003
▁fú	-2004
▁Ano	-2005
▁super	-2006
▁entien	-2007
▁fútbol	-2008
▁treinta	-2009
ire	-2010
▁Ni	-2011
▁guar	-2012
▁barco	-2013
▁cuánto	-2014
▁lluvia	-2015
▁pasando	-2016
▁encontró	-2017
▁trabajando	-2018
chas	-2019
▁Que	-2020
▁inv	-2021
▁sac	-2022
▁Casi	-2023
▁cora	-2024
▁esca	-2025
▁pape	-2026
▁cenar	-2027
▁golpe	-2028
▁hemos	-2029
▁única	-2030
▁primer	-2031
▁edificio	-2032
▁biblioteca	-2033
▁restaurante	-2034
fru	-2035
mon	-2036
▁Sus	-2037
▁Tok	-2038
▁bal	-2039
▁baño	-2040
▁cerr	-2041
▁ello	-2042
▁vivo	-2043
tación	-2044
▁carne	-2045
▁conta	-2046
▁ganar	-2047
▁sería	-2048
▁camisa	-2049
▁muerto	-2050
▁errores	-2051
▁computado	-2052
▁ases	-2053
▁béis	-2054
▁cuanto	-2055
▁frente	-2056
▁béisbol	-2057
▁dijiste	-2058
▁alrededor	-2059
▁necesitas	-2060
cul	-2061
mer	-2062
▁Dis	-2063
▁due	-2064
▁ins	-2065
▁san	-2066
fiero	-2067
▁elec	-2068
▁loco	-2069
▁taza	-2070
▁Pienso	-2071
▁caminar	-2072
▁leyendo	-2073
▁inteligente	-2074
bu	-2075
cel	-2076
cción	-2077
▁sentido	-2078
▁escuchar	-2079
culo	-2080
▁gal	-2081
▁cayó	-2082
puesto	-2083
▁Tokio	-2084
▁final	-2085
▁blanco	-2086
▁llorar	-2087
▁jugando	-2088
illa	-2089
▁Man	-2090
tados	-2091
▁norm	-2092
▁bailar	-2093
▁abogado	-2094
▁piensas	-2095
▁dirección	-2096
▁situación	-2097
▁3	-2098
tre	-2099
▁Deb	-2100
▁Pon	-2101
ridad	-2102
▁desc	-2103
▁playa	-2104
▁radio	-2105
amiento	-2106
▁pasada	-2107
▁deberes	-2108
▁dormido	-2109
▁guitarra	-2110
amá	-2111
pre	-2112
rso	-2113
íti	-2114
▁Sal	-2115
pongo	-2116
▁Cono	-2117
▁haré	-2118
▁tran	-2119
▁comió	-2120
▁peligro	-2121
▁almuerzo	-2122
▁animales	-2123
▁encontré	-2124
▁divertido	-2125
eció	-2126
▁peor	-2127
▁tras	-2128
▁segun	-2129
▁cambiar	-2130
▁Rec	-2131
▁Sos	-2132
▁mía	-2133
ortar	-2134
▁amar	-2135
▁anti	-2136
▁abrir	-2137
▁rompi	-2138
▁estúpido	-2139
▁favorito	-2140
gir	-2141
▁lí	-2142
▁tor	-2143
ienen	-2144
pacio	-2145
▁aire	-2146
▁haría	-2147
▁regal	-2148
▁siete	-2149
▁vendrá	-2150
▁confiar	-2151
▁decirle	-2152
▁opinión	-2153
▁completamente	-2154
len	-2155
omos	-2156
resa	-2157
▁ene	-2158
lidad	-2159
▁Acab	-2160
▁Odio	-2161
▁pedí	-2162
▁debes	-2163
▁morir	-2164
▁produ	-2165
▁descan	-2166
▁mentir	-2167
▁japonés	-2168
▁aconsejó	-2169
Ten	-2170
est	-2171
sar	-2172
▁peso	-2173
▁suel	-2174
▁perió	-2175
▁estará	-2176
▁llaves	-2177
▁llegue	-2178
▁último	-2179
▁consider	-2180
▁Realmente	-2181
▁concierto	-2182
▁suficientemente	-2183
hi	-2184
caso	-2185
rido	-2186
segu	-2187
ueve	-2188
▁Enc	-2189
▁igu	-2190
▁bote	-2191
▁Están	-2192
▁Usted	-2193
▁empie	-2194
▁conoci	-2195
▁responder	-2196
▁estudiando	-2197
cina	-2198
uera	-2199
▁emb	-2200
▁miró	-2201
▁pase	-2202
▁pena	-2203
▁rato	-2204
osotras	-2205
▁abuelo	-2206
▁ayudarte	-2207
▁resolver	-2208
man	-2209
men	-2210
ori	-2211
ervi	-2212
▁gua	-2213
▁ladr	-2214
▁recu	-2215
▁estas	-2216
▁fotos	-2217
▁jamás	-2218
▁llamó	-2219
▁mensa	-2220
▁papel	-2221
▁Quería	-2222
▁terminó	-2223
zas	-2224
zos	-2225
▁Co	-2226
aran	-2227
▁cli	-2228
▁ren	-2229
▁admi	-2230
▁irme	-2231
▁taxi	-2232
▁entró	-2233
▁sentó	-2234
▁minuto	-2235
▁siendo	-2236
▁ocurrió	-2237
▁recordar	-2238
dan	-2239
eme	-2240
▁je	-2241
Eres	-2242
tuvo	-2243
▁boca	-2244
▁debo	-2245
▁lago	-2246
▁vayas	-2247
▁dispar	-2248
▁habría	-2249
▁rompió	-2250
▁intentando	-2251
▁Tr	-2252
stim	-2253
▁fre	-2254
▁tro	-2255
rible	-2256
▁pienso	-2257
▁mayoría	-2258
▁paraguas	-2259
▁vosotros	-2260
▁universidad	-2261
ísi	-2262
orme	-2263
▁Emp	-2264
▁indi	-2265
▁peli	-2266
▁alcan	-2267
▁asust	-2268
▁neces	-2269
▁Compré	-2270
▁triste	-2271
▁hermosa	-2272
bí	-2273
oc	-2274
ios	-2275
ille	-2276
uego	-2277
vado	-2278
▁ado	-2279
Crees	-2280
▁vaso	-2281
▁aquel	-2282
▁digas	-2283
▁Anoche	-2284
▁Estaré	-2285
▁cuesta	-2286
▁peligr	-2287
▁montaña	-2288
▁próxima	-2289
▁invierno	-2290
Con	-2291
bas	-2292
▁def	-2293
Puede	-2294
▁actu	-2295
▁veci	-2296
▁Somos	-2297
▁nervi	-2298
▁huevos	-2299
▁ocupada	-2300
▁entonces	-2301
▁nuestros	-2302
▁peligroso	-2303
eci	-2304
orte	-2305
▁voz	-2306
uerto	-2307
▁alim	-2308
▁apro	-2309
▁acaba	-2310
▁atrás	-2311
▁estre	-2312
▁somos	-2313
▁sopor	-2314
▁chicos	-2315
▁molest	-2316
▁Encontr	-2317
áb	-2318
bles	-2319
ecer	-2320
▁aero	-2321
▁cine	-2322
▁irse	-2323
▁ocul	-2324
▁sala	-2325
▁Tenía	-2326
▁llega	-2327
▁pensó	-2328
▁viven	-2329
Cuántas	-2330
▁Muchos	-2331
▁marido	-2332
▁grandes	-2333
▁llevaba	-2334
▁cuchillo	-2335
▁recuerdo	-2336
▁imposible	-2337
Lo	-2338
▁z	-2339
drás	-2340
dados	-2341
unque	-2342
▁alta	-2343
▁cump	-2344
▁envi	-2345
▁Hemos	-2346
▁tradu	-2347
cionado	-2348
▁comido	-2349
▁venido	-2350
▁viajar	-2351
▁mensaje	-2352
▁importar	-2353
vó	-2354
omp	-2355
tén	-2356
uro	-2357
omas	-2358
▁fru	-2359
quina	-2360
▁Como	-2361
▁Debo	-2362
▁Quiz	-2363
▁prom	-2364
▁aerop	-2365
▁sigue	-2366
▁absolu	-2367
▁olvidó	-2368
▁conocer	-2369
Se	-2370
ín	-2371
gía	-2372
▁Pr	-2373
guno	-2374
▁cho	-2375
▁revi	-2376
▁brazo	-2377
▁dejes	-2378
▁meses	-2379
▁abrigo	-2380
▁casado	-2381
▁hiciera	-2382
▁manzana	-2383
▁pescado	-2384
▁contento	-2385
▁paciente	-2386
▁significa	-2387
▁escritorio	-2388
To	-2389
tur	-2390
▁An	-2391
▁of	-2392
cada	-2393
▁cha	-2394
ilidad	-2395
▁Sabía	-2396
▁averi	-2397
▁bille	-2398
▁estés	-2399
▁simple	-2400
▁Después	-2401
▁corazón	-2402
▁empezar	-2403
▁mirando	-2404
▁pensaba	-2405
▁mantener	-2406
▁queremos	-2407
▁respecto	-2408
▁corriendo	-2409
▁aeropuerto	-2410
Vas	-2411
▁pú	-2412
▁Dime	-2413
▁prue	-2414
▁rojo	-2415
▁abrió	-2416
▁duele	-2417
▁serio	-2418
▁amable	-2419
▁compar	-2420
▁contin	-2421
▁políti	-2422
▁domingo	-2423
▁manzanas	-2424
▁noticias	-2425
rí	-2426
ici	-2427
▁lá	-2428
inas	-2429
▁señ	-2430
tería	-2431
vimos	-2432
▁cien	-2433
▁deba	-2434
▁reco	-2435
▁borra	-2436
▁carro	-2437
▁lleno	-2438
▁parar	-2439
▁senti	-2440
▁detrás	-2441
▁evitar	-2442
▁felices	-2443
▁desayuno	-2444
▁diciendo	-2445
▁deberíamos	-2446
Tú	-2447
ches	-2448
enas	-2449
enes	-2450
▁Dej	-2451
▁Ser	-2452
medad	-2453
terna	-2454
Querés	-2455
▁Acabo	-2456
▁Estos	-2457
▁causa	-2458
▁pieza	-2459
▁satis	-2460
▁partido	-2461
▁Prefiero	-2462
uta	-2463
▁dev	-2464
▁Dese	-2465
▁jefe	-2466
▁mane	-2467
▁sacó	-2468
▁tuve	-2469
▁depor	-2470
▁pobre	-2471
▁presi	-2472
▁silla	-2473
▁afuera	-2474
▁dejado	-2475
▁disfru	-2476
▁Debemos	-2477
▁Supongo	-2478
▁principi	-2479
▁quedarme	-2480
▁quedarse	-2481
entó	-2482
gles	-2483
▁Qué	-2484
▁Sin	-2485
damos	-2486
entar	-2487
▁Cada	-2488
▁diga	-2489
▁viol	-2490
▁parti	-2491
▁trató	-2492
▁venga	-2493
▁cocinar	-2494
▁escribió	-2495
Ya	-2496
máti	-2497
▁odi	-2498
▁Mira	-2499
▁caro	-2500
▁incl	-2501
▁ocho	-2502
▁prisa	-2503
▁públi	-2504
▁saben	-2505
mientos	-2506
▁correr	-2507
▁profun	-2508
▁gracias	-2509
▁pudiera	-2510
▁caliente	-2511
▁explicar	-2512
▁hermanos	-2513
▁periódico	-2514
mé	-2515
ví	-2516
lido	-2517
▁fir	-2518
▁tir	-2519
▁culp	-2520
▁pueb	-2521
glesia	-2522
▁Ellas	-2523
▁cielo	-2524
▁decep	-2525
▁excep	-2526
▁negro	-2527
▁suelo	-2528
▁querés	-2529
eramente	-2530
▁derecho	-2531
▁comiendo	-2532
▁comprado	-2533
tá	-2534
bos	-2535
gre	-2536
ánd	-2537
▁má	-2538
rate	-2539
▁ape	-2540
▁seas	-2541
▁vein	-2542
▁clima	-2543
▁engañ	-2544
▁haces	-2545
▁compré	-2546
▁helado	-2547
▁impres	-2548
▁reglas	-2549
▁segura	-2550
▁siguien	-2551
▁correcto	-2552
▁enfermedad	-2553
▁Necesitamos	-2554
Ha	-2555
tate	-2556
tero	-2557
▁Les	-2558
▁gru	-2559
▁ves	-2560
▁arri	-2561
▁cuál	-2562
▁hone	-2563
▁solu	-2564
▁común	-2565
▁contó	-2566
▁plane	-2567
▁resfri	-2568
▁abierta	-2569
▁iglesia	-2570
▁llegado	-2571
▁semanas	-2572
▁domingos	-2573
melo	-2574
▁ama	-2575
Tiene	-2576
▁ahor	-2577
▁enci	-2578
▁toma	-2579
Alguna	-2580
▁prote	-2581
▁torta	-2582
▁comien	-2583
▁empleo	-2584
▁lastim	-2585
▁pueblo	-2586
▁quiera	-2587
▁viendo	-2588
▁Algunos	-2589
▁asiento	-2590
▁escrito	-2591
▁estuviera	-2592
ine	-2593
▁tí	-2594
ciar	-2595
sito	-2596
úcar	-2597
▁Cor	-2598
▁emo	-2599
▁pun	-2600
▁sáb	-2601
ierra	-2602
jeros	-2603
▁duer	-2604
▁futu	-2605
▁piso	-2606
▁posi	-2607
▁vale	-2608
▁frecu	-2609
▁novio	-2610
▁respe	-2611
▁verme	-2612
▁azúcar	-2613
▁cartas	-2614
▁prefer	-2615
▁intentó	-2616
▁arreglar	-2617
▁ayudarme	-2618
▁oy	-2619
▁gor	-2620
▁mil	-2621
ender	-2622
lando	-2623
▁muer	-2624
▁sale	-2625
▁Traba	-2626
▁ayudó	-2627
▁corba	-2628
▁sospe	-2629
vamente	-2630
▁cuidar	-2631
▁espera	-2632
▁pescar	-2633
▁estaría	-2634
▁Desearía	-2635
▁funciona	-2636
▁necesario	-2637
dón	-2638
tada	-2639
▁lápi	-2640
▁habló	-2641
▁larga	-2642
▁leído	-2643
▁llueve	-2644
▁perten	-2645
▁Lamento	-2646
▁anciano	-2647
▁favorita	-2648
▁permitir	-2649
ig	-2650
min	-2651
▁Ju	-2652
Para	-2653
tico	-2654
▁ata	-2655
▁bas	-2656
▁fra	-2657
▁Deci	-2658
▁cole	-2659
▁daño	-2660
▁vini	-2661
▁asegu	-2662
▁quedé	-2663
▁retras	-2664
▁siguió	-2665
▁siguiente	-2666
bri	-2667
▁Oí	-2668
inar	-2669
▁esf	-2670
▁mem	-2671
▁tot	-2672
Acaso	-2673
cioso	-2674
▁Fran	-2675
▁comi	-2676
▁mate	-2677
miendo	-2678
▁amiga	-2679
▁conte	-2680
▁demás	-2681
▁incen	-2682
▁llevó	-2683
▁pared	-2684
▁tarta	-2685
▁traje	-2686
▁verlo	-2687
▁buenos	-2688
▁distin	-2689
▁futuro	-2690
▁Ustedes	-2691
▁dientes	-2692
▁almorzar	-2693
▁decidido	-2694
▁totalmente	-2695
nas	-2696
ond	-2697
▁nu	-2698
▁oc	-2699
dose	-2700
gnor	-2701
ques	-2702
▁Nin	-2703
▁Escu	-2704
▁cuad	-2705
▁obje	-2706
▁sopa	-2707
▁toca	-2708
▁torm	-2709
▁China	-2710
▁averg	-2711
▁tenga	-2712
▁novela	-2713
▁precio	-2714
▁puente	-2715
▁sentía	-2716
▁caballo	-2717
▁comenzó	-2718
▁corbata	-2719
▁noticia	-2720
▁sentado	-2721
▁orgulloso	-2722
▁encontrado	-2723
▁iz	-2724
stre	-2725
▁mue	-2726
▁rar	-2727
lante	-2728
▁Lond	-2729
▁inoc	-2730
▁mara	-2731
Podría	-2732
▁Apren	-2733
▁Estas	-2734
▁París	-2735
▁mostr	-2736
▁pensé	-2737
▁Podría	-2738
▁sentir	-2739
▁Londres	-2740
▁compras	-2741
▁gustaba	-2742
▁izquier	-2743
▁entiende	-2744
▁convencer	-2745
▁lloviendo	-2746
cal	-2747
ura	-2748
eses	-2749
pado	-2750
teri	-2751
▁edu	-2752
▁ref	-2753
adera	-2754
grafo	-2755
▁apoy	-2756
▁hago	-2757
▁proy	-2758
uerdas	-2759
▁claro	-2760
▁depen	-2761
▁pesar	-2762
▁repar	-2763
▁silen	-2764
▁averigu	-2765
▁decirme	-2766
▁diferente	-2767
▁durmiendo	-2768
▁enamorado	-2769
▁trabajado	-2770
▁necesitaba	-2771
▁experiencia	-2772
▁k	-2773
date	-2774
gres	-2775
▁bri	-2776
zando	-2777
▁Nada	-2778
▁esos	-2779
▁popu	-2780
▁sino	-2781
▁tram	-2782
▁igual	-2783
▁march	-2784
▁nació	-2785
▁paseo	-2786
▁perdon	-2787
▁propia	-2788
▁propio	-2789
▁decirte	-2790
▁borracho	-2791
▁hicieron	-2792
▁diferencia	-2793
fas	-2794
inó	-2795
▁go	-2796
arle	-2797
taste	-2798
▁Dios	-2799
▁Prob	-2800
▁apre	-2801
▁carr	-2802
▁dest	-2803
▁asist	-2804
▁coger	-2805
▁contro	-2806
▁maravi	-2807
▁pájaro	-2808
▁varias	-2809
▁Conozco	-2810
▁matemáti	-2811
▁tormenta	-2812
▁presidente	-2813
▁verdaderamente	-2814
30.	-2815
tom	-2816
▁Ba	-2817
▁dé	-2818
eral	-2819
late	-2820
star	-2821
vido	-2822
queta	-2823
▁ante	-2824
▁arma	-2825
▁idio	-2826
▁ignor	-2827
▁naran	-2828
▁prima	-2829
▁aceptar	-2830
▁constru	-2831
madamente	-2832
▁enfadado	-2833
▁proyecto	-2834
tiva	-2835
▁Can	-2836
▁aba	-2837
▁pos	-2838
▁Hice	-2839
▁bolí	-2840
▁camp	-2841
▁dado	-2842
▁esas	-2843
▁hará	-2844
▁paci	-2845
▁tuyo	-2846
▁Perdí	-2847
▁campo	-2848
▁buenas	-2849
▁recono	-2850
▁Algunas	-2851
▁informa	-2852
▁limpiar	-2853
▁soportar	-2854
ka	-2855
once	-2856
poco	-2857
▁sui	-2858
▁usa	-2859
antas	-2860
▁azul	-2861
▁cita	-2862
▁fres	-2863
▁sali	-2864
▁Nueva	-2865
▁Intent	-2866
▁herido	-2867
▁siente	-2868
▁haberte	-2869
▁público	-2870
▁preocupado	-2871
▁acostumbrado	-2872
mó	-2873
dés	-2874
mar	-2875
ser	-2876
▁Os	-2877
▁So	-2878
alda	-2879
gico	-2880
tame	-2881
▁Amb	-2882
▁dul	-2883
dónde	-2884
raste	-2885
▁bebe	-2886
▁casó	-2887
▁deli	-2888
▁gana	-2889
▁supi	-2890
▁veía	-2891
aremos	-2892
biendo	-2893
▁bolsa	-2894
▁botón	-2895
▁detal	-2896
▁junto	-2897
▁recha	-2898
▁bonita	-2899
▁famoso	-2900
▁idioma	-2901
▁llegué	-2902
▁Francia	-2903
▁Pareces	-2904
▁encuent	-2905
▁haberlo	-2906
▁olvidar	-2907
▁información	-2908
eb	-2909
chi	-2910
jes	-2911
tán	-2912
vil	-2913
▁Tal	-2914
▁Euro	-2915
▁bara	-2916
▁color	-2917
▁enter	-2918
▁guapa	-2919
▁quise	-2920
▁abuela	-2921
▁cambio	-2922
▁correo	-2923
▁debajo	-2924
▁sintió	-2925
▁agradable	-2926
▁sorprendido	-2927
▁inmediatamente	-2928
iría	-2929
vera	-2930
▁Amé	-2931
▁amo	-2932
▁for	-2933
ferta	-2934
▁Debe	-2935
▁cier	-2936
▁flor	-2937
▁golf	-2938
rieron	-2939
▁hacen	-2940
▁ingen	-2941
▁liber	-2942
▁luego	-2943
▁menor	-2944
▁paste	-2945
▁suici	-2946
▁apenas	-2947
▁enseñó	-2948
▁estáis	-2949
▁jugado	-2950
▁oferta	-2951
▁planes	-2952
▁prueba	-2953
▁puedas	-2954
▁tengas	-2955
▁América	-2956
▁perfecto	-2957
▁preocupar	-2958
▁Deberíamos	-2959
▁matemáticas	-2960
con	-2961
mió	-2962
ona	-2963
uni	-2964
▁Ap	-2965
▁Res	-2966
illas	-2967
inado	-2968
tante	-2969
▁acus	-2970
▁negó	-2971
▁sorp	-2972
▁Solía	-2973
▁arroz	-2974
▁ayude	-2975
▁quitó	-2976
▁Europa	-2977
▁perfec	-2978
▁aquella	-2979
▁botella	-2980
▁empieza	-2981
▁enojado	-2982
▁levantó	-2983
▁mejores	-2984
▁satisfe	-2985
▁tranqui	-2986
entemente	-2987
▁prometió	-2988
▁quedarte	-2989
▁tratando	-2990
▁sentimientos	-2991
".	-2992
íg	-2993
aña	-2994
gri	-2995
Cono	-2996
▁paz	-2997
▁pág	-2998
▁trá	-2999
dimos	-3000
tente	-3001
vando	-3002
▁Algo	-3003
▁ejer	-3004
▁fras	-3005
▁raro	-3006
▁abajo	-3007
▁otras	-3008
▁trata	-3009
▁valor	-3010
▁encima	-3011
▁veinte	-3012
▁carrera	-3013
▁tampoco	-3014
▁silencio	-3015
▁terrible	-3016
Eso	-3017
ecía	-3018
▁poe	-3019
stado	-3020
▁Aque	-3021
▁cerc	-3022
▁char	-3023
▁cubi	-3024
▁trai	-3025
▁Éste	-3026
fortun	-3027
▁aprob	-3028
▁autom	-3029
▁resto	-3030
▁buscar	-3031
▁parado	-3032
▁repente	-3033
▁ordenador	-3034
pá	-3035
nea	-3036
▁fla	-3037
▁andar	-3038
▁humor	-3039
▁lápiz	-3040
▁queso	-3041
▁verde	-3042
▁viste	-3043
▁ejerci	-3044
▁nuevos	-3045
▁vuelto	-3046
▁continu	-3047
▁enemigo	-3048
▁olvides	-3049
▁despacio	-3050
▁seguridad	-3051
▁maravillos	-3052
eran	-3053
fier	-3054
▁Uno	-3055
▁pic	-3056
▁raz	-3057
▁rey	-3058
▁sof	-3059
arios	-3060
guida	-3061
tenta	-3062
tista	-3063
▁mamá	-3064
lación	-3065
▁gustó	-3066
▁ocurr	-3067
▁alegro	-3068
▁vuestro	-3069
▁contacto	-3070
▁medicina	-3071
▁despierto	-3072
▁mintiendo	-3073
▁sorprendió	-3074
ork	-3075
▁is	-3076
Uste	-3077
jada	-3078
risa	-3079
▁ago	-3080
▁dan	-3081
▁pob	-3082
letas	-3083
penas	-3084
▁ganó	-3085
▁sepa	-3086
▁útil	-3087
▁Escri	-3088
▁gafas	-3089
▁hacía	-3090
▁mitad	-3091
▁nueve	-3092
▁obser	-3093
▁suena	-3094
Alguien	-3095
▁Apenas	-3096
▁lentes	-3097
▁tratar	-3098
▁hacerte	-3099
▁recuper	-3100
▁fotograf	-3101
▁olvidado	-3102
▁sorpresa	-3103
▁películas	-3104
ñec	-3105
▁cr	-3106
▁Fin	-3107
▁Has	-3108
▁bos	-3109
▁hie	-3110
▁pul	-3111
▁Dile	-3112
▁abra	-3113
▁ofre	-3114
▁temo	-3115
virtió	-3116
▁llena	-3117
▁maest	-3118
▁menti	-3119
▁muñec	-3120
▁sacar	-3121
▁vieja	-3122
Podemos	-3123
▁confun	-3124
▁especi	-3125
▁tomado	-3126
▁Nuestra	-3127
▁enferma	-3128
▁podrías	-3129
▁sobrevi	-3130
▁discurso	-3131
▁intención	-3132
▁preparado	-3133
▁resfriado	-3134
sos	-3135
▁cl	-3136
▁jó	-3137
icos	-3138
▁Vay	-3139
▁adi	-3140
▁bur	-3141
▁cán	-3142
▁gas	-3143
ienta	-3144
venes	-3145
▁Toma	-3146
▁York	-3147
▁mill	-3148
▁paso	-3149
▁Todas	-3150
▁cuest	-3151
▁lavar	-3152
▁miemb	-3153
▁quiso	-3154
▁supon	-3155
▁Espera	-3156
▁Estuve	-3157
▁culpar	-3158
▁dijeron	-3159
▁escapar	-3160
▁jóvenes	-3161
▁pintura	-3162
▁respons	-3163
▁segundo	-3164
▁árboles	-3165
▁Queremos	-3166
▁aburrido	-3167
▁culpable	-3168
▁nervioso	-3169
▁probable	-3170
▁primavera	-3171
▁frecuencia	-3172
▁rápidamente	-3173
▁profundamente	-3174
nes	-3175
▁Hu	-3176
zada	-3177
ándo	-3178
▁Así	-3179
▁asp	-3180
▁aum	-3181
▁ojo	-3182
▁oro	-3183
▁cuer	-3184
▁muse	-3185
▁sonó	-3186
riendo	-3187
ándose	-3188
▁grupo	-3189
▁habrá	-3190
▁hayas	-3191
▁multi	-3192
▁renun	-3193
▁cerrar	-3194
▁hablan	-3195
▁idiota	-3196
▁normal	-3197
▁pastel	-3198
▁pelota	-3199
▁platos	-3200
▁conocía	-3201
▁decidir	-3202
▁escucha	-3203
▁precios	-3204
▁pájaros	-3205
▁querías	-3206
▁conocido	-3207
▁bolígrafo	-3208
▁estábamos	-3209
▁escuchando	-3210
▁Probablemente	-3211
000	-3212
aso	-3213
mor	-3214
▁ru	-3215
déis	-3216
mido	-3217
▁bom	-3218
▁sir	-3219
▁sob	-3220
ables	-3221
monos	-3222
tivos	-3223
▁Será	-3224
▁eras	-3225
▁obli	-3226
▁reír	-3227
▁roto	-3228
▁Quizá	-3229
▁darle	-3230
▁hielo	-3231
▁premi	-3232
▁recom	-3233
▁volun	-3234
▁ladrón	-3235
▁cansada	-3236
▁prisión	-3237
▁sientes	-3238
▁tráfico	-3239
▁cambiado	-3240
▁necesitamos	-3241
dra	-3242
lub	-3243
ram	-3244
uda	-3245
▁Tan	-3246
▁oyó	-3247
▁piz	-3248
▁soñ	-3249
mento	-3250
▁club	-3251
▁deja	-3252
▁desi	-3253
▁bolsi	-3254
▁cigar	-3255
▁juega	-3256
▁tonto	-3257
mamente	-3258
tamento	-3259
▁bosque	-3260
▁diario	-3261
▁espalda	-3262
▁memoria	-3263
▁popular	-3264
▁sospech	-3265
▁interesa	-3266
▁prestado	-3267
▁solución	-3268
▁estadouni	-3269
▁izquierda	-3270
▁principio	-3271
▁computador	-3272
▁finalmente	-3273
▁á	-3274
óma	-3275
▁Ol	-3276
▁ef	-3277
arás	-3278
daba	-3279
eric	-3280
loso	-3281
ster	-3282
tili	-3283
▁Han	-3284
▁mañ	-3285
▁rev	-3286
cionó	-3287
ecido	-3288
timos	-3289
ático	-3290
▁arru	-3291
▁dedo	-3292
▁hier	-3293
▁luna	-3294
▁tema	-3295
▁perdí	-3296
▁traer	-3297
Todavía	-3298
bilidad	-3299
▁vender	-3300
▁desapar	-3301
▁escuchó	-3302
▁máquina	-3303
▁adelante	-3304
▁multitud	-3305
▁recuerda	-3306
▁paciencia	-3307
▁pertenece	-3308
Hab	-3309
ací	-3310
lir	-3311
olo	-3312
oro	-3313
pos	-3314
ses	-3315
uir	-3316
▁Va	-3317
▁há	-3318
gada	-3319
selo	-3320
▁bajó	-3321
▁duda	-3322
▁odia	-3323
▁sofá	-3324
quilla	-3325
▁brome	-3326
▁hablo	-3327
▁recor	-3328
▁servi	-3329
▁tarje	-3330
▁chicas	-3331
▁flauta	-3332
▁oscuro	-3333
▁sencil	-3334
▁avergon	-3335
▁sabemos	-3336
▁vuestra	-3337
▁discutir	-3338
▁intentar	-3339
▁negocios	-3340
▁soldados	-3341
▁ventanas	-3342
▁esperanza	-3343
▁interesado	-3344
Os	-3345
ór	-3346
fón	-3347
icas	-3348
endió	-3349
jando	-3350
vesti	-3351
▁copi	-3352
▁digo	-3353
▁mapa	-3354
▁papá	-3355
▁pone	-3356
▁quin	-3357
▁veré	-3358
cionar	-3359
dencia	-3360
▁Ambos	-3361
▁Mucha	-3362
▁acomp	-3363
▁corto	-3364
▁darme	-3365
▁deseo	-3366
▁dices	-3367
▁excel	-3368
▁fruta	-3369
▁yenes	-3370
▁Aunque	-3371
▁alegra	-3372
▁golpeó	-3373
▁vuelva	-3374
abilidad	-3375
▁casarse	-3376
▁idiomas	-3377
▁mañanas	-3378
▁promesa	-3379
▁tuviera	-3380
▁Encontré	-3381
▁llorando	-3382
▁escaleras	-3383
▁verdadero	-3384
▁preguntaba	-3385
ché	-3386
cin	-3387
gla	-3388
ing	-3389
mán	-3390
▁ur	-3391
rump	-3392
telo	-3393
óvil	-3394
▁aus	-3395
▁dep	-3396
▁dro	-3397
▁ens	-3398
ectos	-3399
guido	-3400
▁Vuel	-3401
▁agar	-3402
▁cont	-3403
▁form	-3404
▁hubo	-3405
▁irte	-3406
▁pusi	-3407
▁tuya	-3408
Adónde	-3409
cional	-3410
siones	-3411
ábamos	-3412
▁autor	-3413
▁casas	-3414
▁frase	-3415
▁museo	-3416
▁suele	-3417
▁sonrió	-3418
▁viento	-3419
▁excepto	-3420
▁permiso	-3421
▁sucedió	-3422
▁volverá	-3423
▁esconder	-3424
▁especial	-3425
▁inocente	-3426
▁explicación	-3427
ck	-3428
fa	-3429
ok	-3430
adá	-3431
reí	-3432
▁10	-3433
▁zo	-3434
▁Bus	-3435
▁bañ	-3436
▁tía	-3437
iones	-3438
tario	-3439
viste	-3440
▁Esos	-3441
▁logr	-3442
▁paró	-3443
▁vier	-3444
anoche	-3445
bierno	-3446
▁dicen	-3447
▁ducha	-3448
▁pocas	-3449
▁pocos	-3450
▁cáncer	-3451
▁enferm	-3452
▁mostró	-3453
▁opción	-3454
▁países	-3455
▁premio	-3456
▁sangre	-3457
▁trampa	-3458
▁cerrada	-3459
▁comport	-3460
▁conocen	-3461
▁chaqueta	-3462
▁descanso	-3463
▁hermanas	-3464
▁incendio	-3465
▁caminando	-3466
▁profesora	-3467
▁medianoche	-3468
▁normalmente	-3469
fortunadamente	-3470
rez	-3471
▁Pa	-3472
alla	-3473
▁Cam	-3474
▁arm	-3475
▁den	-3476
zaron	-3477
▁Lleg	-3478
▁difi	-3479
▁isla	-3480
▁llen	-3481
▁rara	-3482
▁rica	-3483
cultad	-3484
vieron	-3485
▁choco	-3486
▁línea	-3487
▁progr	-3488
▁vivía	-3489
▁estuve	-3490
▁hablas	-3491
▁manten	-3492
▁entrada	-3493
▁llamada	-3494
▁manejar	-3495
▁sonrisa	-3496
▁viviendo	-3497
▁billetera	-3498
▁desayunar	-3499
▁excelente	-3500
ha	-3501
ial	-3502
ton	-3503
▁Ab	-3504
inos	-3505
jera	-3506
leto	-3507
▁Mir	-3508
▁mas	-3509
▁reh	-3510
stico	-3511
▁empe	-3512
▁male	-3513
▁modo	-3514
▁mone	-3515
▁pies	-3516
traste	-3517
▁Hasta	-3518
▁Sería	-3519
▁amaba	-3520
▁darte	-3521
▁divor	-3522
▁mante	-3523
▁sentí	-3524
▁solos	-3525
▁tenés	-3526
▁terre	-3527
▁Tienen	-3528
▁crimen	-3529
▁fantas	-3530
▁hables	-3531
▁inform	-3532
▁madera	-3533
▁pierna	-3534
▁romper	-3535
▁varios	-3536
▁haberme	-3537
▁hermoso	-3538
▁honesto	-3539
▁investi	-3540
▁parecen	-3541
▁querría	-3542
▁viernes	-3543
▁Recuerdo	-3544
▁correcta	-3545
▁averiguar	-3546
▁capacidad	-3547
▁discusión	-3548
▁ejercicio	-3549
▁satisfecho	-3550
cl	-3551
jé	-3552
stó	-3553
▁Ex	-3554
gues	-3555
sion	-3556
ular	-3557
▁aje	-3558
▁ali	-3559
▁cap	-3560
▁cir	-3561
▁iré	-3562
▁Buen	-3563
▁apun	-3564
▁artí	-3565
▁ater	-3566
▁cola	-3567
▁docu	-3568
▁echó	-3569
▁econ	-3570
▁hábi	-3571
▁pron	-3572
dremos	-3573
pósito	-3574
▁alegr	-3575
▁amist	-3576
▁carre	-3577
▁cortó	-3578
▁esqui	-3579
▁grave	-3580
▁ideas	-3581
▁utili	-3582
▁cuerda	-3583
▁fiebre	-3584
▁robado	-3585
▁depende	-3586
▁resultó	-3587
▁nuestras	-3588
▁ocupados	-3589
▁chocolate	-3590
▁conductor	-3591
▁distancia	-3592
▁encuentro	-3593
▁japoneses	-3594
▁respondió	-3595
▁cualquiera	-3596
▁escribiendo	-3597
▁posibilidad	-3598
▁probablemente	-3599
eto	-3600
ira	-3601
umo	-3602
dera	-3603
ende	-3604
gido	-3605
guen	-3606
stro	-3607
▁Tus	-3608
▁das	-3609
▁fon	-3610
ramos	-3611
tubre	-3612
tural	-3613
uesto	-3614
▁Reci	-3615
▁alar	-3616
▁casu	-3617
▁excu	-3618
▁ries	-3619
▁robó	-3620
▁suyo	-3621
▁Ésta	-3622
ientas	-3623
▁broma	-3624
▁casar	-3625
▁condi	-3626
▁dedos	-3627
▁linda	-3628
▁mente	-3629
▁mirar	-3630
▁preci	-3631
▁reali	-3632
▁solas	-3633
▁venta	-3634
▁apagar	-3635
▁centro	-3636
▁compli	-3637
▁partir	-3638
▁perman	-3639
▁acabado	-3640
▁delante	-3641
▁explicó	-3642
▁mentira	-3643
▁consiguió	-3644
▁preocupes	-3645
▁Finalmente	-3646
▁dificultad	-3647
▁simplemente	-3648
bede	-3649
ello	-3650
entí	-3651
onos	-3652
tual	-3653
▁tur	-3654
quete	-3655
▁bebi	-3656
▁boda	-3657
▁cele	-3658
▁mató	-3659
▁odio	-3660
▁pasé	-3661
▁roja	-3662
▁dieta	-3663
▁echar	-3664
▁pasap	-3665
▁retir	-3666
▁separ	-3667
camente	-3668
▁americ	-3669
▁camión	-3670
▁casada	-3671
▁conocí	-3672
▁cuerpo	-3673
▁cuidad	-3674
▁elegir	-3675
▁expres	-3676
▁habías	-3677
▁maleta	-3678
▁nativo	-3679
▁pintar	-3680
▁sábado	-3681
▁teatro	-3682
▁tierra	-3683
▁derecha	-3684
▁incluso	-3685
▁negocio	-3686
▁encantan	-3687
▁galletas	-3688
▁canciones	-3689
▁inmediato	-3690
▁resultado	-3691
▁consciente	-3692
brir	-3693
dame	-3694
llar	-3695
pira	-3696
rios	-3697
▁lan	-3698
▁pér	-3699
▁rum	-3700
▁ton	-3701
▁urg	-3702
entas	-3703
▁Llam	-3704
tieron	-3705
▁ambos	-3706
▁arena	-3707
▁bajar	-3708
▁bella	-3709
▁cargo	-3710
▁cogió	-3711
▁deten	-3712
▁salvo	-3713
▁vuelo	-3714
▁agrada	-3715
▁caball	-3716
▁constr	-3717
▁descri	-3718
▁enorme	-3719
▁hechos	-3720
▁acompañ	-3721
▁afortun	-3722
▁asesina	-3723
▁bienven	-3724
▁capital	-3725
▁deporte	-3726
▁recibir	-3727
▁recibió	-3728
▁recomen	-3729
▁revista	-3730
▁terremo	-3731
▁absoluto	-3732
▁muchacho	-3733
▁preocupa	-3734
▁Necesitas	-3735
▁interrump	-3736
El	-3737
dul	-3738
orn	-3739
tró	-3740
caba	-3741
itos	-3742
oría	-3743
quer	-3744
▁Iré	-3745
▁Tam	-3746
▁suf	-3747
tarse	-3748
tines	-3749
árcel	-3750
▁desh	-3751
▁velo	-3752
ermina	-3753
▁Jamás	-3754
▁acabó	-3755
▁casti	-3756
▁cerró	-3757
▁comun	-3758
▁costó	-3759
▁debía	-3760
▁gradu	-3761
▁lágri	-3762
▁podrá	-3763
▁reser	-3764
▁verdu	-3765
▁Muchas	-3766
▁basura	-3767
▁bonito	-3768
▁corrió	-3769
▁fuiste	-3770
▁sueños	-3771
▁espacio	-3772
▁llegará	-3773
▁octubre	-3774
▁pedirle	-3775
▁piernas	-3776
▁pérdida	-3777
▁apareció	-3778
▁cantante	-3779
▁comenzar	-3780
▁deberían	-3781
▁despedir	-3782
▁supermer	-3783
▁compraste	-3784
▁empleados	-3785
▁impresion	-3786
▁pasaporte	-3787
▁propósito	-3788
▁importaría	-3789
cé	-3790
ye	-3791
chó	-3792
ene	-3793
▁Sí	-3794
ezco	-3795
oluc	-3796
áles	-3797
▁Vas	-3798
▁Vol	-3799
▁fri	-3800
▁lab	-3801
▁Haré	-3802
▁Olvi	-3803
▁alum	-3804
▁faci	-3805
▁míos	-3806
▁Llevo	-3807
▁Quier	-3808
▁calce	-3809
▁contr	-3810
▁doble	-3811
▁dulce	-3812
▁encar	-3813
▁enemi	-3814
▁guste	-3815
▁gusto	-3816
▁hambr	-3817
▁jugue	-3818
▁peces	-3819
▁prohi	-3820
▁vimos	-3821
▁Compar	-3822
▁cambió	-3823
▁cárcel	-3824
▁descub	-3825
▁gratis	-3826
▁página	-3827
▁salido	-3828
▁adentro	-3829
▁cumplir	-3830
▁escribe	-3831
▁hablado	-3832
▁involuc	-3833
▁muebles	-3834
▁ocultar	-3835
▁robaron	-3836
▁política	-3837
▁bromeando	-3838
▁confianza	-3839
▁oscuridad	-3840
▁casualidad	-3841
▁distinguir	-3842
▁fácilmente	-3843
▁supermercado	-3844
Re	-3845
coh	-3846
guí	-3847
ariz	-3848
cens	-3849
icen	-3850
▁cla	-3851
▁irá	-3852
▁vac	-3853
Usted	-3854
biste	-3855
sible	-3856
tidad	-3857
▁Hubo	-3858
▁besó	-3859
▁cuel	-3860
▁daré	-3861
▁esco	-3862
▁ocas	-3863
Necesi	-3864
Quiere	-3865
uestas	-3866
▁extre	-3867
▁luces	-3868
▁mover	-3869
▁techo	-3870
Conoces	-3871
eratura	-3872
feriría	-3873
▁Canadá	-3874
▁alemán	-3875
▁aproxi	-3876
▁arriba	-3877
▁ascens	-3878
▁costum	-3879
▁esposo	-3880
▁noches	-3881
▁pantal	-3882
▁quejar	-3883
▁Ninguno	-3884
▁acordar	-3885
▁emocion	-3886
▁enseñar	-3887
▁lenguas	-3888
▁ninguno	-3889
▁ocurrir	-3890
▁present	-3891
▁princip	-3892
▁televis	-3893
▁tomando	-3894
▁volveré	-3895
tivamente	-3896
▁cantando	-3897
▁cometido	-3898
▁japonesa	-3899
▁facilidad	-3900
▁necesitan	-3901
▁propuesta	-3902
▁temperatura	-3903
▁comportamiento	-3904
ji	-3905
éc	-3906
bar	-3907
deo	-3908
mir	-3909
nic	-3910
ord	-3911
▁Qu	-3912
▁bu	-3913
añol	-3914
ctos	-3915
lada	-3916
▁haz	-3917
▁sed	-3918
ctivo	-3919
esper	-3920
jeras	-3921
tador	-3922
▁beso	-3923
▁comí	-3924
▁dedi	-3925
▁reme	-3926
adores	-3927
uestos	-3928
▁Empez	-3929
▁alcoh	-3930
▁hogar	-3931
▁nariz	-3932
▁pizza	-3933
▁Cuanto	-3934
▁Siento	-3935
▁duerme	-3936
▁ingenu	-3937
▁invitó	-3938
▁parada	-3939
▁pasará	-3940
▁tenían	-3941
▁vuelve	-3942
▁destino	-3943
▁extraña	-3944
▁llamado	-3945
▁natural	-3946
▁prestar	-3947
▁tarjeta	-3948
▁trabajó	-3949
▁bolsillo	-3950
▁mediodía	-3951
▁vosotras	-3952
▁educación	-3953
▁encuentra	-3954
▁invitados	-3955
La	-3956
pé	-3957
sé	-3958
lló	-3959
ola	-3960
zan	-3961
Esto	-3962
aste	-3963
igió	-3964
ista	-3965
osas	-3966
tito	-3967
▁Más	-3968
▁Veo	-3969
▁afi	-3970
▁fáb	-3971
Están	-3972
dense	-3973
ombra	-3974
ámame	-3975
ísimo	-3976
ómago	-3977
▁arte	-3978
▁dejé	-3979
▁diré	-3980
olveré	-3981
▁armas	-3982
▁bolso	-3983
▁compe	-3984
▁estan	-3985
▁hable	-3986
▁harto	-3987
▁subió	-3988
▁trozo	-3989
▁vivió	-3990
▁Tierra	-3991
▁aunque	-3992
▁cientí	-3993
▁declar	-3994
▁fresco	-3995
▁imagin	-3996
▁llamas	-3997
▁piedra	-3998
▁preten	-3999
▁solici	-4000
▁tendrá	-4001
▁tenías	-4002
▁vivido	-4003
▁conoces	-4004
▁correos	-4005
▁disparó	-4006
▁español	-4007
▁estarás	-4008
▁fábrica	-4009
▁quedaré	-4010
▁queréis	-4011
▁saberlo	-4012
▁estómago	-4013
▁nosotras	-4014
▁dispuesto	-4015
▁empezando	-4016
▁extremadamente	-4017
Son	-4018
lle	-4019
mba	-4020
xto	-4021
▁Be	-4022
char	-4023
esas	-4024
garé	-4025
ment	-4026
▁Ale	-4027
▁Trá	-4028
▁hon	-4029
▁pez	-4030
cados	-4031
orias	-4032
tarme	-4033
▁anda	-4034
▁bail	-4035
▁cabo	-4036
▁caer	-4037
▁divi	-4038
▁fría	-4039
▁geme	-4040
▁impi	-4041
dentes	-4042
gieron	-4043
éramos	-4044
▁Tenés	-4045
▁alqui	-4046
▁hojas	-4047
▁trans	-4048
cciones	-4049
▁Discul	-4050
▁anillo	-4051
▁barato	-4052
▁blanca	-4053
▁entera	-4054
▁entero	-4055
▁partes	-4056
▁sabido	-4057
▁Pensaba	-4058
▁También	-4059
▁debemos	-4060
▁hubiese	-4061
▁pareció	-4062
▁partici	-4063
▁prefier	-4064
▁querían	-4065
▁supiera	-4066
mplemente	-4067
▁abandonó	-4068
▁gobierno	-4069
▁lágrimas	-4070
▁murieron	-4071
▁pregunté	-4072
▁proteger	-4073
▁quisiera	-4074
▁asesinato	-4075
▁necesidad	-4076
▁televisor	-4077
▁preparando	-4078
▁profesores	-4079
▁escondiendo	-4080
su	-4081
úa	-4082
ban	-4083
rea	-4084
zca	-4085
▁30	-4086
▁Ar	-4087
▁at	-4088
ceso	-4089
dito	-4090
drez	-4091
tida	-4092
▁Pol	-4093
▁che	-4094
▁eje	-4095
▁hun	-4096
▁juz	-4097
▁mej	-4098
▁sur	-4099
table	-4100
▁Dejé	-4101
▁Desa	-4102
▁Hici	-4103
▁Llev	-4104
▁adop	-4105
▁adul	-4106
▁alér	-4107
▁dibu	-4108
▁doce	-4109
▁ener	-4110
▁pegó	-4111
▁repu	-4112
gación	-4113
▁Dicen	-4114
▁Sabes	-4115
▁acaso	-4116
▁apres	-4117
▁corta	-4118
▁incor	-4119
▁obede	-4120
▁trajo	-4121
lamente	-4122
▁Fuimos	-4123
▁Termin	-4124
▁animal	-4125
▁arries	-4126
▁coment	-4127
▁genial	-4128
▁habían	-4129
▁llueva	-4130
▁probar	-4131
▁viejos	-4132
▁Intenté	-4133
▁ajedrez	-4134
▁andando	-4135
▁cometer	-4136
▁detener	-4137
▁general	-4138
▁jugador	-4139
▁maestro	-4140
▁pareces	-4141
▁recoger	-4142
ormalmente	-4143
▁descubrir	-4144
▁felicidad	-4145
▁Simplemente	-4146
ni	-4147
pl	-4148
col	-4149
fac	-4150
omo	-4151
uén	-4152
yos	-4153
óme	-4154
▁ag	-4155
edad	-4156
enza	-4157
gaba	-4158
ible	-4159
vent	-4160
ácti	-4161
▁Dos	-4162
▁aho	-4163
diera	-4164
gaste	-4165
jamos	-4166
terra	-4167
▁apla	-4168
▁atro	-4169
▁emer	-4170
▁habi	-4171
▁post	-4172
▁repe	-4173
Cuáles	-4174
diente	-4175
reíble	-4176
▁Ingla	-4177
▁arrep	-4178
▁ciego	-4179
▁creía	-4180
▁deman	-4181
▁exist	-4182
▁gordo	-4183
▁podés	-4184
▁siste	-4185
▁volar	-4186
▁Pregún	-4187
▁concen	-4188
▁cruzar	-4189
▁despre	-4190
▁famosa	-4191
▁listos	-4192
▁mismos	-4193
▁muñeca	-4194
▁olvidé	-4195
▁quince	-4196
▁vecino	-4197
▁Podemos	-4198
▁asistir	-4199
▁ayudara	-4200
▁cartera	-4201
▁casados	-4202
▁control	-4203
▁esquina	-4204
▁hicimos	-4205
▁quedado	-4206
▁tuvimos	-4207
▁vecinos	-4208
▁alcanzar	-4209
▁objetivo	-4210
▁Estábamos	-4211
▁contestar	-4212
▁enseguida	-4213
▁habilidad	-4214
▁Inglaterra	-4215
▁Preferiría	-4216
▁fotografía	-4217
▁aprendiendo	-4218
▁computadora	-4219
Tu	-4220
▁Pe	-4221
▁ví	-4222
cida	-4223
just	-4224
pera	-4225
▁leí	-4226
▁tec	-4227
▁vin	-4228
stola	-4229
turas	-4230
▁Mamá	-4231
▁cone	-4232
▁duró	-4233
▁ridí	-4234
▁verg	-4235
cuenta	-4236
encias	-4237
sación	-4238
▁Lleva	-4239
▁cance	-4240
▁chino	-4241
▁ejemp	-4242
▁emerg	-4243
▁huevo	-4244
▁llevo	-4245
▁malas	-4246
▁meter	-4247
▁metro	-4248
▁pasat	-4249
▁pelea	-4250
▁plato	-4251
▁razon	-4252
▁Vuelve	-4253
▁cortar	-4254
▁cuello	-4255
▁dieron	-4256
▁drogas	-4257
▁enseña	-4258
▁estaré	-4259
▁fingió	-4260
▁ganado	-4261
▁ocupar	-4262
▁tenéis	-4263
▁amistad	-4264
▁informe	-4265
▁levanté	-4266
▁llamaré	-4267
▁mayores	-4268
▁pistola	-4269
▁artículo	-4270
▁detalles	-4271
▁ayudarnos	-4272
▁caballero	-4273
▁cuidadoso	-4274
▁descansar	-4275
▁disculpar	-4276
▁estrellas	-4277
▁levantarse	-4278
▁Normalmente	-4279
▁absolutamente	-4280
Él	-4281
apá	-4282
ase	-4283
iza	-4284
ula	-4285
usa	-4286
▁Dé	-4287
▁Gu	-4288
mado	-4289
mbre	-4290
mica	-4291
sten	-4292
▁lee	-4293
racti	-4294
stitu	-4295
▁Esas	-4296
▁Perm	-4297
▁comb	-4298
▁demo	-4299
▁débi	-4300
▁prop	-4301
▁robo	-4302
▁vege	-4303
ámonos	-4304
▁Creía	-4305
▁Mejor	-4306
▁atras	-4307
▁calma	-4308
▁encon	-4309
▁fondo	-4310
▁moder	-4311
▁poema	-4312
▁vacía	-4313
iamente	-4314
inación	-4315
▁Cierra	-4316
▁Quizás	-4317
▁antigu	-4318
▁cuadro	-4319
▁detuvo	-4320
▁durmió	-4321
▁fuerza	-4322
▁fuimos	-4323
▁harías	-4324
▁limpia	-4325
▁merece	-4326
▁nuevas	-4327
▁pedido	-4328
▁picnic	-4329
▁prácti	-4330
▁teoría	-4331
▁Tuvimos	-4332
▁cabello	-4333
▁cigarri	-4334
▁naranja	-4335
▁regalos	-4336
▁requier	-4337
▁sistema	-4338
▁vistazo	-4339
▁cuidados	-4340
▁deseando	-4341
▁verduras	-4342
▁cincuenta	-4343
▁convertir	-4344
▁costumbre	-4345
▁mentiroso	-4346
▁necesitar	-4347
▁terremoto	-4348
▁preguntarle	-4349
▁responsable	-4350
aló	-4351
eas	-4352
fra	-4353
jón	-4354
ler	-4355
rio	-4356
roe	-4357
sia	-4358
tam	-4359
tín	-4360
val	-4361
▁ór	-4362
tina	-4363
▁alf	-4364
▁bre	-4365
▁inú	-4366
▁uso	-4367
tiene	-4368
tillo	-4369
▁Cual	-4370
▁Dudo	-4371
▁alma	-4372
▁cepi	-4373
▁impa	-4374
▁inde	-4375
▁leyó	-4376
▁menú	-4377
▁obra	-4378
▁pagó	-4379
▁rode	-4380
▁serp	-4381
▁sánd	-4382
ología	-4383
▁adver	-4384
▁autos	-4385
▁espec	-4386
▁gritó	-4387
▁matri	-4388
▁papas	-4389
▁piens	-4390
▁plata	-4391
▁rehus	-4392
▁sonar	-4393
▁triun	-4394
▁aburri	-4395
▁adelan	-4396
▁asegur	-4397
▁empeor	-4398
▁fracas	-4399
▁habéis	-4400
▁ingres	-4401
▁mirada	-4402
▁alcohol	-4403
▁haberle	-4404
▁pensado	-4405
▁seguros	-4406
▁atrapado	-4407
▁concentr	-4408
▁horrible	-4409
▁naranjas	-4410
▁recibido	-4411
▁saliendo	-4412
▁servicio	-4413
▁abandonar	-4414
▁convenció	-4415
▁despertar	-4416
▁increíble	-4417
▁preferido	-4418
▁diferentes	-4419
▁dormitorio	-4420
▁levantarme	-4421
▁resultados	-4422
▁sospechoso	-4423
▁mantequilla	-4424
eli	-4425
ési	-4426
▁CD	-4427
▁cá	-4428
ezas	-4429
imos	-4430
tale	-4431
umen	-4432
▁doy	-4433
▁lic	-4434
▁usu	-4435
cemos	-4436
ctura	-4437
llado	-4438
olvió	-4439
taría	-4440
ógico	-4441
▁Acep	-4442
▁Ital	-4443
▁Papá	-4444
▁Pasé	-4445
▁aman	-4446
▁baja	-4447
▁cast	-4448
▁desn	-4449
▁dise	-4450
▁dura	-4451
▁gros	-4452
▁huel	-4453
▁inca	-4454
Estáis	-4455
▁Habla	-4456
▁Hable	-4457
▁Hazlo	-4458
▁Según	-4459
▁Sigue	-4460
▁banda	-4461
▁bomba	-4462
▁derro	-4463
▁diría	-4464
▁metió	-4465
▁motor	-4466
▁texto	-4467
▁turno	-4468
▁Perdón	-4469
▁Pronto	-4470
▁defini	-4471
▁dejara	-4472
▁distra	-4473
▁entren	-4474
▁esperó	-4475
▁millas	-4476
▁salvar	-4477
▁supone	-4478
▁vengas	-4479
▁Aprendí	-4480
▁Quédate	-4481
▁empresa	-4482
▁estudia	-4483
▁hacemos	-4484
▁impidió	-4485
▁interés	-4486
▁invitar	-4487
▁molesta	-4488
▁tocando	-4489
▁asustado	-4490
▁caballos	-4491
▁comienzo	-4492
▁elección	-4493
▁hubieras	-4494
▁llegaron	-4495
▁miembros	-4496
▁quedaron	-4497
▁descubrió	-4498
▁población	-4499
▁calcetines	-4500
▁equivocada	-4501
▁respuestas	-4502
▁avergonzado	-4503
ho	-4504
vel	-4505
Pien	-4506
cero	-4507
cito	-4508
itas	-4509
triz	-4510
éndo	-4511
▁Ado	-4512
▁Ali	-4513
▁Cui	-4514
▁chu	-4515
▁cré	-4516
▁lav	-4517
▁niñ	-4518
▁plá	-4519
arnos	-4520
mania	-4521
moslo	-4522
steis	-4523
taria	-4524
testo	-4525
úrate	-4526
▁Come	-4527
▁Dije	-4528
▁Toda	-4529
▁capi	-4530
▁enfr	-4531
▁físi	-4532
▁ileg	-4533
▁rodi	-4534
▁simp	-4535
▁soci	-4536
tonces	-4537
▁India	-4538
▁acabo	-4539
▁altos	-4540
▁depar	-4541
▁envió	-4542
▁guapo	-4543
▁herir	-4544
▁huele	-4545
▁irnos	-4546
▁saltó	-4547
▁sepas	-4548
▁suger	-4549
▁testi	-4550
▁confer	-4551
▁dispon	-4552
▁mister	-4553
▁montar	-4554
▁podéis	-4555
▁pronun	-4556
▁riesgo	-4557
▁tímido	-4558
▁Policía	-4559
▁Vayamos	-4560
▁anciana	-4561
▁estudio	-4562
▁hacerme	-4563
▁ingenuo	-4564
▁mantuvo	-4565
▁novelas	-4566
▁paquete	-4567
▁respeto	-4568
▁segunda	-4569
▁vuelvas	-4570
Realmente	-4571
entamente	-4572
▁Alemania	-4573
▁cantidad	-4574
▁completo	-4575
▁cubierta	-4576
▁devolver	-4577
▁escritor	-4578
▁esfuerzo	-4579
▁estrella	-4580
▁incorrec	-4581
▁matrimon	-4582
▁peligros	-4583
▁poniendo	-4584
▁quedamos	-4585
▁relación	-4586
▁carretera	-4587
▁orgullosa	-4588
▁prohibido	-4589
▁tentación	-4590
▁comprender	-4591
▁convencido	-4592
▁pasatiempo	-4593
▁extranjeros	-4594
▁últimamente	-4595
▁perfectamente	-4596
el	-4597
ack	-4598
ala	-4599
cur	-4600
eso	-4601
ror	-4602
▁Ob	-4603
▁Sa	-4604
▁hé	-4605
amas	-4606
ioto	-4607
lica	-4608
licó	-4609
orro	-4610
paje	-4611
para	-4612
tica	-4613
▁rin	-4614
Podés	-4615
dario	-4616
didos	-4617
gados	-4618
stima	-4619
▁Incl	-4620
▁Jack	-4621
▁Tomé	-4622
▁abre	-4623
▁avan	-4624
▁debí	-4625
▁efec	-4626
▁nave	-4627
▁paga	-4628
▁real	-4629
iempos	-4630
ombres	-4631
▁adecu	-4632
▁admir	-4633
▁bebió	-4634
▁desma	-4635
▁insul	-4636
▁lloró	-4637
▁sonre	-4638
▁tanta	-4639
entando	-4640
robable	-4641
▁Decidí	-4642
▁Italia	-4643
▁Llegué	-4644
▁Olvidé	-4645
▁cintur	-4646
▁debido	-4647
▁dejaré	-4648
▁habido	-4649
▁hombro	-4650
▁llevas	-4651
▁motivo	-4652
▁podido	-4653
▁regist	-4654
▁sonido	-4655
▁sueldo	-4656
▁triunf	-4657
▁Escuché	-4658
▁Jackson	-4659
▁Parecía	-4660
▁Volveré	-4661
▁abierto	-4662
▁apresur	-4663
▁levanta	-4664
▁podamos	-4665
▁rechazó	-4666
▁remedio	-4667
▁suceder	-4668
▁talento	-4669
▁Disculpe	-4670
▁empezado	-4671
▁equipaje	-4672
▁estúpida	-4673
▁hablante	-4674
▁regresar	-4675
▁demasiada	-4676
▁entendido	-4677
▁escuchado	-4678
▁saludable	-4679
▁agradecido	-4680
▁improbable	-4681
▁nuevamente	-4682
▁pantalones	-4683
et	-4684
ecé	-4685
gia	-4686
vés	-4687
▁Da	-4688
▁Ma	-4689
arro	-4690
dial	-4691
jate	-4692
sist	-4693
talo	-4694
vate	-4695
▁mos	-4696
▁pañ	-4697
▁tos	-4698
Tenés	-4699
ciado	-4700
dicos	-4701
ertas	-4702
garon	-4703
illos	-4704
tales	-4705
údame	-4706
▁Vivo	-4707
▁bomb	-4708
▁inst	-4709
▁once	-4710
▁puse	-4711
▁tomé	-4712
▁área	-4713
endido	-4714
terior	-4715
▁Desde	-4716
▁amena	-4717
▁canta	-4718
▁desor	-4719
▁estri	-4720
▁medic	-4721
▁trago	-4722
▁Mantén	-4723
▁aceptó	-4724
▁agarró	-4725
▁atrope	-4726
▁cierta	-4727
▁curios	-4728
▁descon	-4729
▁embara	-4730
▁inútil	-4731
▁mandar	-4732
▁mintió	-4733
▁perdón	-4734
▁practi	-4735
▁querer	-4736
▁sabías	-4737
▁servir	-4738
▁admitió	-4739
▁consigo	-4740
▁crédito	-4741
▁ejemplo	-4742
▁esperan	-4743
▁esquiar	-4744
▁guardar	-4745
▁hablaba	-4746
▁ofreció	-4747
▁querido	-4748
▁termina	-4749
▁Mientras	-4750
▁aquellos	-4751
▁ascensor	-4752
▁castillo	-4753
▁escalera	-4754
▁montañas	-4755
▁pequeños	-4756
▁valiente	-4757
▁enfermera	-4758
▁accidentes	-4759
▁matrimonio	-4760
▁encontramos	-4761
▁encontraste	-4762
▁significado	-4763
Pre	-4764
bró	-4765
▁Fu	-4766
▁Li	-4767
▁Ro	-4768
▁rí	-4769
dero	-4770
grad	-4771
▁Llé	-4772
▁apu	-4773
▁gar	-4774
uelos	-4775
uelto	-4776
zamos	-4777
ítate	-4778
▁Creí	-4779
▁Entr	-4780
▁Plan	-4781
▁acti	-4782
▁apur	-4783
▁cuar	-4784
▁deje	-4785
▁jugo	-4786
▁just	-4787
▁quem	-4788
▁suje	-4789
▁suya	-4790
▁éste	-4791
ortuna	-4792
undial	-4793
▁Condu	-4794
▁apete	-4795
▁breve	-4796
▁brill	-4797
▁creyó	-4798
▁dando	-4799
▁deben	-4800
▁llame	-4801
▁llamo	-4802
▁mando	-4803
▁pollo	-4804
▁resca	-4805
▁vemos	-4806
▁éstos	-4807
▁Estudi	-4808
▁adónde	-4809
▁colina	-4810
▁pareja	-4811
▁través	-4812
▁Hagamos	-4813
▁Incluso	-4814
▁alterna	-4815
▁armario	-4816
▁atraves	-4817
▁billete	-4818
▁capitán	-4819
▁conduce	-4820
▁experim	-4821
▁fortuna	-4822
▁funeral	-4823
▁nombres	-4824
▁permite	-4825
▁ponerse	-4826
▁quedara	-4827
▁seguido	-4828
▁comienza	-4829
▁enemigos	-4830
▁esperado	-4831
▁gracioso	-4832
▁invitado	-4833
▁licencia	-4834
▁linterna	-4835
▁llamarme	-4836
▁muchacha	-4837
▁ocurrido	-4838
▁presente	-4839
▁supuesto	-4840
▁decepcion	-4841
▁disculpas	-4842
▁fantasmas	-4843
▁intentado	-4844
▁pasajeros	-4845
▁violencia	-4846
▁afortunado	-4847
▁emergencia	-4848
▁sorprender	-4849
▁conversación	-4850
▁trabajadores	-4851
Com	-4852
Nos	-4853
Que	-4854
ave	-4855
chu	-4856
elo	-4857
ior	-4858
ivo	-4859
▁án	-4860
Estu	-4861
Sabe	-4862
cera	-4863
dens	-4864
enda	-4865
gica	-4866
omía	-4867
rías	-4868
éter	-4869
▁Díg	-4870
▁Ver	-4871
▁flo	-4872
Viste	-4873
bería	-4874
darse	-4875
donde	-4876
jiste	-4877
tiste	-4878
éctri	-4879
▁Asum	-4880
▁Cuén	-4881
▁conc	-4882
▁fren	-4883
▁fuma	-4884
▁iría	-4885
▁mode	-4886
▁naci	-4887
▁redu	-4888
▁romp	-4889
▁rota	-4890
denses	-4891
minist	-4892
uestra	-4893
▁Hablo	-4894
▁Vimos	-4895
▁apagó	-4896
▁baile	-4897
▁cruel	-4898
▁depri	-4899
▁débil	-4900
▁estal	-4901
▁héroe	-4902
▁letra	-4903
▁monte	-4904
▁nevar	-4905
▁nubes	-4906
▁provo	-4907
▁suave	-4908
▁subir	-4909
▁trece	-4910
▁vende	-4911
▁Recibí	-4912
▁Tráeme	-4913
▁acabar	-4914
▁alarma	-4915
▁amigas	-4916
▁boleto	-4917
▁deshac	-4918
▁granja	-4919
▁gritar	-4920
▁incómo	-4921
▁músico	-4922
▁pelear	-4923
▁quedan	-4924
▁quedes	-4925
▁regaló	-4926
▁salida	-4927
▁suéter	-4928
▁vernos	-4929
▁visita	-4930
▁Detesto	-4931
▁Llámame	-4932
▁capaces	-4933
▁conoció	-4934
▁descono	-4935
▁eléctri	-4936
▁iguales	-4937
▁parecer	-4938
▁piensan	-4939
▁pudimos	-4940
▁retraso	-4941
▁bebiendo	-4942
▁contrato	-4943
▁cuestión	-4944
▁deportes	-4945
▁libertad	-4946
▁pidiendo	-4947
▁profundo	-4948
▁promesas	-4949
▁traducir	-4950
▁Esperemos	-4951
▁compartir	-4952
▁conocemos	-4953
▁estuviste	-4954
▁principal	-4955
▁lentamente	-4956
▁estadounidenses	-4957
▁í	-4958
bra	-4959
cta	-4960
ige	-4961
iró	-4962
▁ej	-4963
▁pl	-4964
.000	-4965
argo	-4966
irar	-4967
lida	-4968
osos	-4969
trón	-4970
▁ras	-4971
▁rue	-4972
Estoy	-4973
adora	-4974
iedad	-4975
pendo	-4976
quito	-4977
raron	-4978
rasil	-4979
untos	-4980
viera	-4981
▁Fuji	-4982
▁adiv	-4983
▁afec	-4984
▁cose	-4985
▁gall	-4986
▁loca	-4987
▁peda	-4988
▁pilo	-4989
▁pose	-4990
▁tomo	-4991
▁turi	-4992
mentos	-4993
ándome	-4994
▁Asumí	-4995
▁Consi	-4996
▁batal	-4997
▁conge	-4998
▁conoc	-4999
▁copia	-5000
▁debió	-5001
▁decía	-5002
▁decír	-5003
▁dejas	-5004
▁dieci	-5005
▁hagan	-5006
▁hecha	-5007
▁norte	-5008
▁odian	-5009
cientos	-5010
ológico	-5011
osición	-5012
▁Estuvo	-5013
▁Hablar	-5014
▁bebida	-5015
▁celoso	-5016
▁cierra	-5017
▁contac	-5018
▁derram	-5019
▁disfra	-5020
▁formas	-5021
▁lavado	-5022
▁limpio	-5023
▁oscure	-5024
▁pagado	-5025
▁tareas	-5026
▁toques	-5027
▁usando	-5028
▁admitir	-5029
▁agotado	-5030
▁artista	-5031
▁energía	-5032
▁hacerse	-5033
▁inventó	-5034
▁piscina	-5035
▁repetir	-5036
▁tendrás	-5037
▁urgente	-5038
▁viniera	-5039
▁ayudarle	-5040
▁cinturón	-5041
▁consejos	-5042
▁efectivo	-5043
▁llamaste	-5044
▁millones	-5045
▁preparar	-5046
▁ridículo	-5047
▁sentarme	-5048
▁levantado	-5049
▁productos	-5050
▁curiosidad	-5051
▁preocupada	-5052
▁apartamento	-5053
▁canadienses	-5054
3.	-5055
hí	-5056
ág	-5057
ñó	-5058
Les	-5059
adi	-5060
rón	-5061
▁Mé	-5062
Este	-5063
brio	-5064
cara	-5065
idas	-5066
lesc	-5067
saka	-5068
stes	-5069
timi	-5070
▁100	-5071
▁Apa	-5072
▁ger	-5073
▁hir	-5074
▁ore	-5075
culos	-5076
gante	-5077
girió	-5078
lamos	-5079
tones	-5080
uidos	-5081
▁Coge	-5082
▁Conf	-5083
▁Dale	-5084
▁Roma	-5085
▁Sois	-5086
▁ansi	-5087
▁entu	-5088
▁ibas	-5089
▁moda	-5090
▁moto	-5091
▁pata	-5092
▁piel	-5093
▁sano	-5094
ienten	-5095
▁Antes	-5096
▁Aquel	-5097
▁Comen	-5098
▁Osaka	-5099
▁comes	-5100
▁curso	-5101
▁ellas	-5102
▁niñas	-5103
▁pesca	-5104
▁robar	-5105
▁salva	-5106
▁trato	-5107
▁votar	-5108
Piensas	-5109
eración	-5110
oncesto	-5111
▁cómodo	-5112
▁esfuer	-5113
▁espejo	-5114
▁espero	-5115
▁extrañ	-5116
▁llevan	-5117
▁ordenó	-5118
▁rehusó	-5119
▁toalla	-5120
▁vienes	-5121
▁violín	-5122
▁Estaban	-5123
▁Intenta	-5124
▁adolesc	-5125
▁cercano	-5126
▁contado	-5127
▁haberse	-5128
▁muertos	-5129
▁nadando	-5130
▁regresó	-5131
▁relajar	-5132
▁tratado	-5133
▁vayamos	-5134
▁vendría	-5135
▁volumen	-5136
▁Entiendo	-5137
▁cansados	-5138
▁programa	-5139
▁tuvieron	-5140
▁vinieron	-5141
▁despedido	-5142
▁estupendo	-5143
▁impresión	-5144
▁impuestos	-5145
▁presentes	-5146
▁tranquilo	-5147
▁verdadera	-5148
▁volviendo	-5149
▁baloncesto	-5150
▁claramente	-5151
▁compañeros	-5152
▁intentarlo	-5153
▁condiciones	-5154
▁importancia	-5155
▁maravilloso	-5156
▁decepcionado	-5157
▁departamento	-5158
fo	-5159
só	-5160
zz	-5161
Ven	-5162
are	-5163
ete	-5164
gor	-5165
lam	-5166
séñ	-5167
una	-5168
uér	-5169
▁Ad	-5170
Ella	-5171
fica	-5172
gust	-5173
toño	-5174
xico	-5175
▁Har	-5176
▁Llo	-5177
▁Mué	-5178
▁San	-5179
▁fas	-5180
▁fer	-5181
▁hel	-5182
▁lig	-5183
▁ran	-5184
calde	-5185
chila	-5186
lleza	-5187
poner	-5188
▁Sién	-5189
▁acor	-5190
▁chan	-5191
▁cima	-5192
▁elef	-5193
▁luce	-5194
▁melo	-5195
▁pelu	-5196
▁supo	-5197
▁tiró	-5198
▁viva	-5199
enario	-5200
émonos	-5201
▁Prome	-5202
▁aguan	-5203
▁conmo	-5204
▁diste	-5205
▁incon	-5206
▁inver	-5207
▁lindo	-5208
▁lleve	-5209
▁otoño	-5210
▁perio	-5211
▁polvo	-5212
▁publi	-5213
▁repor	-5214
▁salvó	-5215
▁verle	-5216
▁Brasil	-5217
▁Disfru	-5218
▁España	-5219
▁Manten	-5220
▁Pregun	-5221
▁acercó	-5222
▁cambia	-5223
▁coches	-5224
▁conden	-5225
▁confes	-5226
▁consec	-5227
▁herida	-5228
▁imagen	-5229
▁iremos	-5230
▁largas	-5231
▁rendir	-5232
▁sabían	-5233
▁tempor	-5234
▁Trabajo	-5235
▁agujero	-5236
▁alcalde	-5237
▁apuesto	-5238
▁belleza	-5239
▁cometió	-5240
▁escribí	-5241
▁gerente	-5242
▁lástima	-5243
▁mochila	-5244
▁molesto	-5245
▁prision	-5246
▁progres	-5247
▁puntual	-5248
▁salario	-5249
▁soldado	-5250
▁soltero	-5251
▁sugirió	-5252
▁tiempos	-5253
▁dentista	-5254
▁despertó	-5255
▁personal	-5256
▁automóvil	-5257
▁controlar	-5258
▁conversar	-5259
▁convirtió	-5260
▁escenario	-5261
▁ocultando	-5262
▁razonable	-5263
▁renunciar	-5264
▁velocidad	-5265
▁zoológico	-5266
▁Pregúntale	-5267
▁abandonado	-5268
▁conferencia	-5269
▁estadounidense	-5270
▁aproximadamente	-5271
ei	-5272
id	-5273
bur	-5274
ich	-5275
igo	-5276
leo	-5277
tua	-5278
tía	-5279
uél	-5280
▁Ne	-5281
▁añ	-5282
adir	-5283
diós	-5284
guro	-5285
olar	-5286
omis	-5287
rito	-5288
▁Mer	-5289
▁ast	-5290
▁pen	-5291
▁tes	-5292
Tengo	-5293
antos	-5294
licóp	-5295
vamos	-5296
éjame	-5297
ífico	-5298
▁Dijo	-5299
▁Nací	-5300
▁Vine	-5301
▁celu	-5302
▁dejo	-5303
▁inun	-5304
▁juez	-5305
▁miel	-5306
▁orig	-5307
▁pési	-5308
▁quiz	-5309
▁teme	-5310
▁tocó	-5311
ulario	-5312
▁Asumo	-5313
▁Perdo	-5314
▁Ponte	-5315
▁actor	-5316
▁bello	-5317
▁cantó	-5318
▁culti	-5319
▁encer	-5320
▁falda	-5321
▁falle	-5322
▁firme	-5323
▁gener	-5324
▁móvil	-5325
▁organ	-5326
▁pintó	-5327
▁ponga	-5328
▁primo	-5329
▁regañ	-5330
▁relig	-5331
▁salga	-5332
▁Contin	-5333
▁Guerra	-5334
▁actuar	-5335
▁altura	-5336
▁confío	-5337
▁diecis	-5338
▁espere	-5339
▁fascin	-5340
▁hábito	-5341
▁incapa	-5342
▁postre	-5343
▁suspen	-5344
▁vieron	-5345
▁visitó	-5346
▁acusado	-5347
▁agradec	-5348
▁aquello	-5349
▁aspecto	-5350
▁ciencia	-5351
▁electri	-5352
▁escalar	-5353
▁helicóp	-5354
▁últimos	-5355
▁Entonces	-5356
▁acuerdas	-5357
▁desearía	-5358
▁desperté	-5359
▁enfadada	-5360
▁familiar	-5361
▁presentó	-5362
▁pusieron	-5363
▁quedando	-5364
▁teníamos	-5365
▁aprendido	-5366
▁contrario	-5367
▁esfuerzos	-5368
▁historias	-5369
▁solicitud	-5370
▁aprendiste	-5371
▁complicado	-5372
▁extranjera	-5373
▁invitación	-5374
▁recomendar	-5375
▁definitivamente	-5376
gí	-5377
abu	-5378
bio	-5379
brí	-5380
cán	-5381
lio	-5382
rás	-5383
ager	-5384
brar	-5385
ecen	-5386
este	-5387
gase	-5388
taré	-5389
vard	-5390
▁Ahí	-5391
▁Sen	-5392
▁mez	-5393
adura	-5394
cidos	-5395
ciosa	-5396
cular	-5397
denes	-5398
didas	-5399
dista	-5400
ertos	-5401
jeron	-5402
ática	-5403
▁Tres	-5404
▁Vete	-5405
▁anun	-5406
▁astr	-5407
▁bebo	-5408
▁coma	-5409
▁diam	-5410
▁dile	-5411
▁furi	-5412
▁rock	-5413
▁rosa	-5414
▁temb	-5415
▁unir	-5416
▁vali	-5417
áticos	-5418
▁Bueno	-5419
▁Enséñ	-5420
▁Traté	-5421
▁adiós	-5422
▁apoyo	-5423
▁archi	-5424
▁atent	-5425
▁cajón	-5426
▁cobar	-5427
▁coser	-5428
▁dudas	-5429
▁econó	-5430
▁honor	-5431
▁inten	-5432
▁presu	-5433
▁señor	-5434
▁vacío	-5435
Quieren	-5436
guieron	-5437
▁Podéis	-5438
▁Quiere	-5439
▁ataque	-5440
▁aterri	-5441
▁brazos	-5442
▁chiste	-5443
▁cómoda	-5444
▁desocu	-5445
▁dulces	-5446
▁escena	-5447
▁gustas	-5448
▁malent	-5449
▁materi	-5450
▁ocurre	-5451
▁placer	-5452
▁puesta	-5453
▁quejas	-5454
▁íbamos	-5455
▁Compren	-5456
▁Harvard	-5457
▁alumnos	-5458
▁antiguo	-5459
▁cercana	-5460
▁directo	-5461
▁fracaso	-5462
▁hagamos	-5463
▁miembro	-5464
▁nevando	-5465
▁plantas	-5466
▁preparó	-5467
▁razones	-5468
▁reparar	-5469
▁saliera	-5470
▁sonreír	-5471
▁suicidó	-5472
▁viniste	-5473
▁alérgico	-5474
▁encendió	-5475
▁entregar	-5476
▁llegaste	-5477
▁mostraré	-5478
▁requiere	-5479
▁alimentar	-5480
▁compromis	-5481
▁enamorada	-5482
▁planeando	-5483
▁hambriento	-5484
▁impaciente	-5485
▁conduciendo	-5486
▁importantes	-5487
▁maravillosa	-5488
▁electricidad	-5489
▁inteligentes	-5490
Rec	-5491
dez	-5492
lad	-5493
ped	-5494
seg	-5495
zon	-5496
ést	-5497
▁Pu	-5498
▁TV	-5499
lera	-5500
zcas	-5501
▁Cer	-5502
▁Pás	-5503
▁ara	-5504
▁far	-5505
▁mad	-5506
▁neg	-5507
▁quí	-5508
▁sil	-5509
bulan	-5510
ctiva	-5511
ganta	-5512
stres	-5513
▁Abre	-5514
▁Comí	-5515
▁Guar	-5516
▁huyó	-5517
▁jubi	-5518
▁león	-5519
▁nota	-5520
▁olor	-5521
▁reve	-5522
▁trán	-5523
▁uñas	-5524
Tienen	-5525
inario	-5526
tantes	-5527
▁Sentí	-5528
▁Venga	-5529
▁autén	-5530
▁besar	-5531
▁cerdo	-5532
▁chist	-5533
▁divir	-5534
▁dormí	-5535
▁encen	-5536
▁fines	-5537
▁fuese	-5538
▁gasol	-5539
▁genio	-5540
▁notas	-5541
▁persu	-5542
▁ratón	-5543
▁regla	-5544
▁rumor	-5545
▁video	-5546
Debería	-5547
▁México	-5548
▁actriz	-5549
▁arranc	-5550
▁bebido	-5551
▁charla	-5552
▁ciento	-5553
▁dijera	-5554
▁ilegal	-5555
▁instru	-5556
▁medida	-5557
▁ocurra	-5558
▁olvida	-5559
▁pongas	-5560
▁recuer	-5561
▁tantos	-5562
▁tendré	-5563
▁trenes	-5564
▁venden	-5565
▁asuntos	-5566
▁aumento	-5567
▁celular	-5568
▁comiste	-5569
▁comunic	-5570
▁embargo	-5571
▁enojada	-5572
▁estupen	-5573
▁grosero	-5574
▁pañuelo	-5575
▁ponerte	-5576
▁secuest	-5577
▁tendría	-5578
▁volando	-5579
▁atrasado	-5580
▁cerrados	-5581
▁deshacer	-5582
▁divertir	-5583
▁electrón	-5584
▁llamando	-5585
▁obedecer	-5586
▁sencillo	-5587
▁tránsito	-5588
▁colectivo	-5589
▁comprarlo	-5590
▁construyó	-5591
▁delicioso	-5592
▁recuerdas	-5593
▁trabajaba	-5594
▁apariencia	-5595
▁naturaleza	-5596
▁alternativa	-5597
▁preocuparse	-5598
▁acostumbrada	-5599
Si	-5600
Va	-5601
Yo	-5602
gá	-5603
jan	-5604
net	-5605
rim	-5606
ual	-5607
uto	-5608
▁Pi	-5609
Esta	-5610
cula	-5611
dias	-5612
drán	-5613
enti	-5614
ombr	-5615
tuve	-5616
vada	-5617
▁Col	-5618
▁Gan	-5619
▁caí	-5620
▁fij	-5621
▁mic	-5622
▁océ	-5623
▁pim	-5624
▁plu	-5625
▁ron	-5626
▁ses	-5627
▁vea	-5628
caron	-5629
ental	-5630
icago	-5631
ilóme	-5632
istas	-5633
pción	-5634
uroso	-5635
▁Haga	-5636
▁cach	-5637
▁crea	-5638
▁empu	-5639
▁inci	-5640
▁mani	-5641
▁mira	-5642
▁mías	-5643
▁regu	-5644
▁seme	-5645
▁seré	-5646
▁sois	-5647
▁vago	-5648
bieron	-5649
ármelo	-5650
▁Adoro	-5651
▁Inter	-5652
▁Trata	-5653
▁acusó	-5654
▁adora	-5655
▁aspir	-5656
▁calvo	-5657
▁china	-5658
▁colgó	-5659
▁comas	-5660
▁creen	-5661
▁escla	-5662
▁inqui	-5663
▁llamé	-5664
▁negra	-5665
▁oírte	-5666
▁pasto	-5667
▁refri	-5668
▁ricos	-5669
▁secun	-5670
▁sirve	-5671
▁apropi	-5672
▁aprove	-5673
▁confir	-5674
▁cumpli	-5675
▁encuen	-5676
▁escapó	-5677
▁fueras	-5678
▁herram	-5679
▁juzgar	-5680
▁marcha	-5681
▁pasear	-5682
▁pesado	-5683
▁poemas	-5684
▁resist	-5685
▁rieron	-5686
▁ruidos	-5687
▁saltar	-5688
▁tamaño	-5689
▁vienen	-5690
viamente	-5691
▁Ayúdame	-5692
▁Chicago	-5693
▁Podrías	-5694
▁ambulan	-5695
▁apetece	-5696
▁ausente	-5697
▁batalla	-5698
▁calidad	-5699
▁casarte	-5700
▁imaginé	-5701
▁inclinó	-5702
▁mercado	-5703
▁patatas	-5704
▁seguida	-5705
▁trataba	-5706
ilómetros	-5707
▁ayudaría	-5708
▁desierto	-5709
▁economía	-5710
▁empleado	-5711
▁escondió	-5712
▁francesa	-5713
▁garganta	-5714
▁llegamos	-5715
▁peleando	-5716
▁pimienta	-5717
▁teniendo	-5718
▁Cualquier	-5719
▁arrestado	-5720
▁cocinando	-5721
▁consecuen	-5722
▁documento	-5723
▁escondido	-5724
▁funcionar	-5725
▁podríamos	-5726
▁científico	-5727
▁compromiso	-5728
▁disponible	-5729
▁elecciones	-5730
▁seriamente	-5731
▁emocionante	-5732
▁fotografías	-5733
So	-5734
Sí	-5735
Vi	-5736
ju	-5737
abe	-5738
bla	-5739
dap	-5740
moh	-5741
rue	-5742
íde	-5743
▁Lá	-5744
▁vá	-5745
ampi	-5746
eliz	-5747
gáis	-5748
iano	-5749
into	-5750
orno	-5751
rori	-5752
sado	-5753
uele	-5754
uena	-5755
ules	-5756
vide	-5757
íste	-5758
ñado	-5759
▁cés	-5760
▁nor	-5761
▁ree	-5762
▁tru	-5763
▁Ésa	-5764
alada	-5765
amelo	-5766
arías	-5767
bimos	-5768
ciera	-5769
daron	-5770
semos	-5771
sequi	-5772
ustri	-5773
yeron	-5774
zados	-5775
▁Admi	-5776
▁Imag	-5777
▁Vale	-5778
▁ador	-5779
▁atas	-5780
▁caca	-5781
▁carb	-5782
▁chil	-5783
▁dete	-5784
▁dime	-5785
▁exha	-5786
▁fila	-5787
▁gast	-5788
▁hoja	-5789
▁iban	-5790
▁iden	-5791
▁luch	-5792
▁meta	-5793
▁mono	-5794
▁vine	-5795
guemos	-5796
áramos	-5797
▁Hablé	-5798
▁Permí	-5799
▁Suelo	-5800
▁ajust	-5801
▁almoh	-5802
▁botas	-5803
▁destr	-5804
▁estro	-5805
▁falso	-5806
▁gasta	-5807
▁gorda	-5808
▁harás	-5809
▁lados	-5810
▁llenó	-5811
▁nivel	-5812
▁pasan	-5813
▁patin	-5814
▁persi	-5815
▁pesad	-5816
▁pongo	-5817
▁quede	-5818
▁tipos	-5819
▁veras	-5820
stituto	-5821
▁Veamos	-5822
▁aprobó	-5823
▁azules	-5824
▁compla	-5825
▁compra	-5826
▁césped	-5827
▁descar	-5828
▁exager	-5829
▁excusa	-5830
▁física	-5831
▁hierro	-5832
▁litera	-5833
▁planea	-5834
▁repent	-5835
▁sentar	-5836
▁sueles	-5837
▁terror	-5838
▁Aquella	-5839
▁Escribe	-5840
▁antigua	-5841
▁compren	-5842
▁dejaron	-5843
▁desnudo	-5844
▁enfadar	-5845
▁experto	-5846
▁guantes	-5847
▁hacerle	-5848
▁humanos	-5849
▁incapaz	-5850
▁levanto	-5851
▁llegues	-5852
▁lugares	-5853
▁obsequi	-5854
▁pasamos	-5855
▁planeta	-5856
▁recogió	-5857
▁soporto	-5858
▁suponía	-5859
▁telefón	-5860
▁órdenes	-5861
Necesitas	-5862
▁Mantente	-5863
▁alfombra	-5864
▁caluroso	-5865
▁ciudades	-5866
▁cubierto	-5867
▁derechos	-5868
▁desperdi	-5869
▁imaginar	-5870
▁llegaría	-5871
▁mantiene	-5872
▁refriger	-5873
▁utilizar	-5874
▁asesinado	-5875
▁ciudadano	-5876
▁conocimos	-5877
▁disfrutar	-5878
▁enseñarme	-5879
▁evidencia	-5880
▁fijamente	-5881
▁inocencia	-5882
▁tendremos	-5883
▁adelantado	-5884
▁ambulancia	-5885
▁confundido	-5886
▁esperanzas	-5887
▁kilómetros	-5888
▁sobrevivir	-5889
▁considerado	-5890
▁medicamento	-5891
hu	-5892
cam	-5893
gna	-5894
más	-5895
món	-5896
ney	-5897
teó	-5898
▁só	-5899
aria	-5900
ezca	-5901
icia	-5902
iete	-5903
ismo	-5904
mico	-5905
mida	-5906
oler	-5907
orra	-5908
rsos	-5909
sias	-5910
tano	-5911
tese	-5912
▁Mon	-5913
▁dañ	-5914
▁ego	-5915
▁imi	-5916
▁mur	-5917
▁vir	-5918
▁zoo	-5919
curso	-5920
dores	-5921
ficos	-5922
laron	-5923
rando	-5924
trase	-5925
uicio	-5926
▁Apre	-5927
▁Enci	-5928
▁Tuvo	-5929
▁adap	-5930
▁clás	-5931
▁daba	-5932
▁dará	-5933
▁echo	-5934
▁emba	-5935
▁esti	-5936
▁infl	-5937
▁lava	-5938
▁libr	-5939
▁movi	-5940
▁mutu	-5941
▁méto	-5942
▁míni	-5943
▁past	-5944
▁poca	-5945
▁sole	-5946
▁trae	-5947
▁uvas	-5948
▁vano	-5949
Cuánta	-5950
ecemos	-5951
tencia	-5952
▁Levan	-5953
▁Llegó	-5954
▁alivi	-5955
▁avent	-5956
▁causó	-5957
▁datos	-5958
▁escas	-5959
▁estén	-5960
▁exten	-5961
▁fecha	-5962
▁imper	-5963
▁inven	-5964
▁junio	-5965
▁mandó	-5966
▁pizar	-5967
▁punta	-5968
▁queja	-5969
▁señal	-5970
▁toque	-5971
▁usado	-5972
▁verla	-5973
▁villa	-5974
▁vives	-5975
▁yendo	-5976
Quiénes	-5977
oración	-5978
▁Empezó	-5979
▁Ningún	-5980
▁Tenéis	-5981
▁acabas	-5982
▁alguno	-5983
▁aparte	-5984
▁bromas	-5985
▁calles	-5986
▁coinci	-5987
▁consul	-5988
▁crimin	-5989
▁cristi	-5990
▁enfadó	-5991
▁explos	-5992
▁humano	-5993
▁navide	-5994
▁optimi	-5995
▁pasara	-5996
▁piloto	-5997
▁primos	-5998
▁quieto	-5999
▁rostro	-6000
▁sucede	-6001
▁suelen	-6002
▁tejado	-6003
▁tomará	-6004
▁visité	-6005
piración	-6006
▁Estudio	-6007
▁Pasamos	-6008
▁ayudado	-6009
▁ayudará	-6010
▁bandera	-6011
▁condujo	-6012
▁decirlo	-6013
▁descubi	-6014
▁entregó	-6015
▁fuertes	-6016
▁inesper	-6017
▁intento	-6018
▁mejorar	-6019
▁obtener	-6020
▁ocasión	-6021
▁ponerme	-6022
▁poquito	-6023
▁propios	-6024
▁pruebas	-6025
▁páginas	-6026
▁testigo	-6027
▁Nuestros	-6028
▁amarilla	-6029
▁contrase	-6030
▁descubri	-6031
▁director	-6032
▁ensalada	-6033
▁estanque	-6034
▁extraños	-6035
▁gasolina	-6036
▁opciones	-6037
▁perfecta	-6038
▁posición	-6039
▁salieron	-6040
▁secundar	-6041
▁sentados	-6042
▁voluntad	-6043
▁Esperamos	-6044
▁agradecer	-6045
▁coleccion	-6046
▁compañero	-6047
▁comprarme	-6048
▁construir	-6049
▁encantado	-6050
▁incidente	-6051
▁muchísimo	-6052
▁perdiendo	-6053
▁preferida	-6054
▁profesion	-6055
▁arrepiento	-6056
▁bienvenido	-6057
▁documentos	-6058
▁formulario	-6059
▁participar	-6060
▁atentamente	-6061
▁desapareció	-6062
▁electrónico	-6063
▁encontraron	-6064
▁helicóptero	-6065
▁dificultades	-6066
▁refrigerador	-6067
▁especialmente	-6068
▁cuidadosamente	-6069
sf	-6070
xo	-6071
ade	-6072
gil	-6073
ite	-6074
jen	-6075
lor	-6076
ong	-6077
pto	-6078
rir	-6079
▁Ci	-6080
▁Dí	-6081
▁Or	-6082
enso	-6083
onde	-6084
stic	-6085
teme	-6086
zaba	-6087
▁Ayu	-6088
▁Leí	-6089
▁amp	-6090
▁joy	-6091
▁sig	-6092
▁var	-6093
▁Ése	-6094
▁ése	-6095
frica	-6096
giero	-6097
loque	-6098
quero	-6099
tanos	-6100
temos	-6101
▁Apar	-6102
▁Aseg	-6103
▁Bien	-6104
▁Dejó	-6105
▁Prim	-6106
▁apel	-6107
▁apli	-6108
▁arti	-6109
▁aula	-6110
▁bala	-6111
▁cuyo	-6112
▁dirá	-6113
▁humi	-6114
▁humo	-6115
▁ital	-6116
▁jazz	-6117
▁lími	-6118
▁mare	-6119
▁refu	-6120
▁sens	-6121
▁sube	-6122
▁ésta	-6123
lusión	-6124
tellas	-6125
tición	-6126
tróleo	-6127
ército	-6128
▁Discu	-6129
▁absur	-6130
▁aplau	-6131
▁bordo	-6132
▁camar	-6133
▁captu	-6134
▁cedió	-6135
▁corte	-6136
▁creas	-6137
▁durar	-6138
▁esquí	-6139
▁estad	-6140
▁extin	-6141
▁llego	-6142
▁líder	-6143
▁marca	-6144
▁obvio	-6145
▁patio	-6146
▁podré	-6147
▁rojas	-6148
▁rosas	-6149
▁sabor	-6150
▁sushi	-6151
▁tarda	-6152
▁temer	-6153
▁tradi	-6154
▁valla	-6155
▁vecin	-6156
▁venía	-6157
▁volví	-6158
▁éstas	-6159
Estabas	-6160
guiendo	-6161
turales	-6162
▁Dígame	-6163
▁Llovió	-6164
▁acceso	-6165
▁adonde	-6166
▁creció	-6167
▁enviar	-6168
▁grados	-6169
▁ingeni	-6170
▁juegos	-6171
▁matado	-6172
▁metros	-6173
▁modelo	-6174
▁obtuvo	-6175
▁océano	-6176
▁planta	-6177
▁pobres	-6178
▁quitar	-6179
▁siesta	-6180
▁talent	-6181
▁vengan	-6182
▁Sabemos	-6183
▁ahorrar	-6184
▁aliento	-6185
▁callado	-6186
▁campana	-6187
▁cerrado	-6188
▁chistes	-6189
▁colores	-6190
▁dejaría	-6191
▁elegido	-6192
▁escucho	-6193
▁estalló	-6194
▁estampi	-6195
▁estrope	-6196
▁estudió	-6197
▁haremos	-6198
▁juguete	-6199
▁llevaré	-6200
▁lloverá	-6201
▁materna	-6202
▁monedas	-6203
▁mostrar	-6204
▁rodilla	-6205
▁sentada	-6206
▁Deberían	-6207
▁Vosotros	-6208
▁adecuado	-6209
▁botellas	-6210
▁contener	-6211
▁cuarenta	-6212
▁entusias	-6213
▁estacion	-6214
▁familias	-6215
▁infancia	-6216
▁lavadora	-6217
▁parecido	-6218
▁petróleo	-6219
▁prefiero	-6220
▁producto	-6221
▁quejando	-6222
▁satisfac	-6223
▁sentarse	-6224
▁Deberíais	-6225
▁Tendremos	-6226
▁alimentos	-6227
▁autoridad	-6228
▁brillante	-6229
▁conocerte	-6230
▁continuar	-6231
▁contratar	-6232
▁despierta	-6233
▁divertida	-6234
▁empezaron	-6235
▁estudiado	-6236
▁explosión	-6237
▁pronuncia	-6238
▁reuniones	-6239
▁sensación	-6240
▁embarazada	-6241
▁emocionado	-6242
▁estuvieron	-6243
▁periódicos	-6244
▁permanecer	-6245
▁reputación	-6246
▁serpientes	-6247
▁comentarios	-6248
▁experimento	-6249
▁investigación	-6250
▁responsabilidad	-6251
if	-6252
sí	-6253
Aún	-6254
Des	-6255
gal	-6256
izo	-6257
ota	-6258
ume	-6259
vís	-6260
úme	-6261
▁Lu	-6262
▁iP	-6263
adme	-6264
anda	-6265
dará	-6266
ines	-6267
poca	-6268
tien	-6269
umar	-6270
▁Amo	-6271
▁Cen	-6272
▁Fal	-6273
▁Lee	-6274
▁Lin	-6275
▁Pro	-6276
▁Pón	-6277
▁Via	-6278
▁Vos	-6279
▁ató	-6280
▁cae	-6281
▁env	-6282
▁fan	-6283
▁fle	-6284
▁int	-6285
▁lam	-6286
▁sop	-6287
▁sub	-6288
adero	-6289
aldas	-6290
chera	-6291
drían	-6292
ferir	-6293
jante	-6294
junto	-6295
queza	-6296
stica	-6297
tiles	-6298
yendo	-6299
▁Hizo	-6300
▁Tras	-6301
▁Vive	-6302
▁afei	-6303
▁amas	-6304
▁ambi	-6305
▁bast	-6306
▁gras	-6307
▁húme	-6308
▁lujo	-6309
▁pala	-6310
▁tene	-6311
▁test	-6312
ancias	-6313
strame	-6314
táculo	-6315
▁Algún	-6316
▁Sobre	-6317
▁aclar	-6318
▁atrap	-6319
▁cabra	-6320
▁celos	-6321
▁cruzó	-6322
▁cuida	-6323
▁derri	-6324
▁deuda	-6325
▁horne	-6326
▁impac	-6327
▁locos	-6328
▁logro	-6329
▁malos	-6330
▁mires	-6331
▁previ	-6332
▁quedo	-6333
▁refle	-6334
▁román	-6335
▁senté	-6336
▁serás	-6337
▁sonrí	-6338
▁sordo	-6339
▁tinta	-6340
▁torre	-6341
▁vacas	-6342
▁época	-6343
olución	-6344
▁Escuch	-6345
▁Sencil	-6346
▁ayudes	-6347
▁britán	-6348
▁confía	-6349
▁conser	-6350
▁conten	-6351
▁dedicó	-6352
▁existe	-6353
▁gastos	-6354
▁honest	-6355
▁hundió	-6356
▁ignoró	-6357
▁jugaba	-6358
▁juicio	-6359
▁memori	-6360
▁moneda	-6361
▁mordió	-6362
▁normas	-6363
▁orejas	-6364
▁organi	-6365
▁pasaba	-6366
▁pesada	-6367
▁pierde	-6368
▁pintor	-6369
▁seguía	-6370
▁sosten	-6371
▁suceda	-6372
▁Querría	-6373
▁acuerda	-6374
▁adultos	-6375
▁aprendí	-6376
▁asesino	-6377
▁casarme	-6378
▁comidas	-6379
▁cuentas	-6380
▁disgust	-6381
▁escolar	-6382
▁gallina	-6383
▁gemelos	-6384
▁horario	-6385
▁incendi	-6386
▁indepen	-6387
▁llegara	-6388
▁melodía	-6389
▁mentido	-6390
▁necesit	-6391
▁pedirte	-6392
▁picante	-6393
▁presión	-6394
▁regular	-6395
▁reserva	-6396
▁sonando	-6397
Recuerdas	-6398
tualmente	-6399
▁Cuéntame	-6400
▁Hablemos	-6401
▁advirtió	-6402
▁agradeci	-6403
▁apellido	-6404
▁ayudando	-6405
▁bailando	-6406
▁cocinero	-6407
▁contarte	-6408
▁desesper	-6409
▁disculpa	-6410
▁entradas	-6411
▁exhausto	-6412
▁involucr	-6413
▁llevarse	-6414
▁martillo	-6415
▁perdonar	-6416
▁sensible	-6417
▁sociedad	-6418
▁vuestros	-6419
▁deprimido	-6420
▁instituto	-6421
▁izquierdo	-6422
▁necesites	-6423
▁temporada	-6424
▁amabilidad	-6425
▁contraseña	-6426
▁decisiones	-6427
▁encantaría	-6428
▁interesada	-6429
▁mutuamente	-6430
▁vecindario	-6431
▁encontrarte	-6432
▁espectáculo	-6433
▁habilidades	-6434
▁imaginación	-6435
▁preguntarte	-6436
▁malentendido	-6437
▁Sencillamente	-6438
▁acostumbrarse	-6439
▁instrucciones	-6440
Ay	-6441
Ll	-6442
dá	-6443
sp	-6444
ash	-6445
cén	-6446
smo	-6447
xíg	-6448
▁Bi	-6449
▁có	-6450
▁ge	-6451
Comp	-6452
Pens	-6453
lear	-6454
plom	-6455
tifi	-6456
vino	-6457
▁Gen	-6458
▁Lim	-6459
▁Nad	-6460
▁Tar	-6461
▁act	-6462
▁dob	-6463
▁doc	-6464
▁eli	-6465
▁inm	-6466
▁jug	-6467
▁oso	-6468
inada	-6469
lados	-6470
prete	-6471
tidos	-6472
tribu	-6473
▁Clar	-6474
▁Deme	-6475
▁Sabe	-6476
▁Sali	-6477
▁Sost	-6478
▁Tome	-6479
▁Trae	-6480
▁aten	-6481
▁atre	-6482
▁cero	-6483
▁dama	-6484
▁egoí	-6485
▁flui	-6486
▁impe	-6487
▁mezc	-6488
▁mila	-6489
▁muro	-6490
▁musi	-6491
▁nací	-6492
▁oxíg	-6493
▁saxo	-6494
▁supe	-6495
cieron	-6496
ciocho	-6497
entado	-6498
sistió	-6499
ándote	-6500
árselo	-6501
▁Camin	-6502
▁Corrí	-6503
▁Empie	-6504
▁Haría	-6505
▁Murió	-6506
▁Queda	-6507
▁Tanto	-6508
▁Venid	-6509
▁abril	-6510
▁apoyó	-6511
▁ascen	-6512
▁barba	-6513
▁cazar	-6514
▁caído	-6515
▁confí	-6516
▁costa	-6517
▁diera	-6518
▁dueño	-6519
▁engor	-6520
▁fasti	-6521
▁finan	-6522
▁grano	-6523
▁lucía	-6524
▁muere	-6525
▁ocupa	-6526
▁pinta	-6527
▁pluma	-6528
▁quejó	-6529
▁quemó	-6530
▁tifón	-6531
▁toler	-6532
▁veter	-6533
▁vitam	-6534
▁Éstos	-6535
Queréis	-6536
Ustedes	-6537
▁Déjalo	-6538
▁arrojó	-6539
▁atrapó	-6540
▁camina	-6541
▁coraje	-6542
▁demost	-6543
▁déjame	-6544
▁echado	-6545
▁frigor	-6546
▁incons	-6547
▁ingles	-6548
▁marchó	-6549
▁metido	-6550
▁millón	-6551
▁método	-6552
▁olvide	-6553
▁propor	-6554
▁riendo	-6555
▁saludó	-6556
▁señora	-6557
▁subido	-6558
▁traído	-6559
inamente	-6560
tamiento	-6561
▁Vivimos	-6562
▁charlar	-6563
▁cigarro	-6564
▁cosecha	-6565
▁costará	-6566
▁cuántas	-6567
▁desarro	-6568
▁gustado	-6569
▁influen	-6570
▁llamaba	-6571
▁mejilla	-6572
▁miraron	-6573
▁oficial	-6574
▁oxígeno	-6575
▁pizarra	-6576
▁ponerle	-6577
▁privado	-6578
▁quedaba	-6579
▁regrese	-6580
▁reporte	-6581
▁retrasó	-6582
▁robando	-6583
▁sábados	-6584
▁tomaron	-6585
▁vegetar	-6586
▁Esperaba	-6587
▁Teníamos	-6588
▁almohada	-6589
▁asientos	-6590
▁caminaba	-6591
▁clientes	-6592
▁concurso	-6593
▁consegui	-6594
▁ejército	-6595
▁encender	-6596
▁enseñaré	-6597
▁estarías	-6598
▁incómodo	-6599
▁intercam	-6600
▁librería	-6601
▁momentos	-6602
▁muriendo	-6603
▁obsequio	-6604
▁olvidaré	-6605
▁político	-6606
▁preciosa	-6607
▁prefiere	-6608
▁resuelto	-6609
▁suminist	-6610
▁tengamos	-6611
▁trabajan	-6612
▁turistas	-6613
▁visitado	-6614
▁americano	-6615
▁contactar	-6616
▁invitaron	-6617
▁mostrarme	-6618
▁mostrarte	-6619
▁muchachos	-6620
▁permitido	-6621
▁pretendía	-6622
▁sorprende	-6623
▁almorzando	-6624
▁cigarrillo	-6625
▁comentario	-6626
▁explicarlo	-6627
▁honestidad	-6628
▁particular	-6629
▁secundaria	-6630
▁voluntario	-6631
▁cigarrillos	-6632
▁despertador	-6633
▁frigorífico	-6634
▁involucrado	-6635
▁recientemente	-6636
▁frecuentemente	-6637
Ves	-6638
amo	-6639
amp	-6640
div	-6641
neo	-6642
pio	-6643
tér	-6644
ván	-6645
▁Fa	-6646
▁Ta	-6647
abri	-6648
cipe	-6649
dada	-6650
dica	-6651
mada	-6652
mpla	-6653
okka	-6654
▁Ade	-6655
▁Exp	-6656
▁abe	-6657
▁die	-6658
▁feo	-6659
▁ind	-6660
▁nub	-6661
▁pec	-6662
▁rab	-6663
▁sep	-6664
Ellos	-6665
cadas	-6666
cimos	-6667
intió	-6668
quite	-6669
riera	-6670
terre	-6671
tivas	-6672
tuoso	-6673
uegos	-6674
ídele	-6675
▁Adiv	-6676
▁Cuen	-6677
▁Fuer	-6678
▁Juan	-6679
▁Pase	-6680
▁Visi	-6681
▁agri	-6682
▁apuñ	-6683
▁arra	-6684
▁cafe	-6685
▁ciru	-6686
▁cura	-6687
▁diab	-6688
▁espa	-6689
▁gane	-6690
▁locu	-6691
▁magn	-6692
▁mudó	-6693
▁oper	-6694
▁opon	-6695
▁pago	-6696
▁pido	-6697
▁pozo	-6698
▁rogó	-6699
▁sobr	-6700
▁tumb	-6701
▁usan	-6702
▁vais	-6703
▁veas	-6704
▁vole	-6705
Pueden	-6706
Tenéis	-6707
dación	-6708
rantes	-6709
érmelo	-6710
▁Almor	-6711
▁Entre	-6712
▁Fumar	-6713
▁Hokka	-6714
▁Quien	-6715
▁aguar	-6716
▁carga	-6717
▁conté	-6718
▁cuidó	-6719
▁darse	-6720
▁desea	-6721
▁ensay	-6722
▁inclu	-6723
▁lanzó	-6724
▁lento	-6725
▁malga	-6726
▁negar	-6727
▁oeste	-6728
▁pasas	-6729
▁posee	-6730
▁predi	-6731
▁quisi	-6732
▁reina	-6733
▁revés	-6734
▁sabés	-6735
▁salón	-6736
▁sangr	-6737
▁sucio	-6738
▁talla	-6739
▁telef	-6740
▁tortu	-6741
▁vasos	-6742
▁vayan	-6743
▁veros	-6744
▁vigil	-6745
▁vícti	-6746
alizado	-6747
gámoslo	-6748
▁Planeo	-6749
▁Pueden	-6750
▁Tendré	-6751
▁acondi	-6752
▁adulto	-6753
▁alegre	-6754
▁apretó	-6755
▁apuntó	-6756
▁caminó	-6757
▁cargar	-6758
▁cierre	-6759
▁cogido	-6760
▁collar	-6761
▁comité	-6762
▁eligió	-6763
▁enojar	-6764
▁exitos	-6765
▁fuente	-6766
▁labios	-6767
▁leerlo	-6768
▁libres	-6769
▁martes	-6770
▁muerta	-6771
▁paliza	-6772
▁partió	-6773
▁piense	-6774
▁pálido	-6775
▁salgas	-6776
▁sellos	-6777
▁sincer	-6778
▁sombra	-6779
▁tantas	-6780
▁tesoro	-6781
▁Imagino	-6782
▁Mundial	-6783
▁Primero	-6784
▁acostar	-6785
▁actitud	-6786
▁ahorros	-6787
▁arquite	-6788
▁atrapar	-6789
▁batería	-6790
▁cliente	-6791
▁cobarde	-6792
▁cuántos	-6793
▁decente	-6794
▁declaró	-6795
▁dejarlo	-6796
▁detalle	-6797
▁divorci	-6798
▁educado	-6799
▁entendí	-6800
▁guardia	-6801
▁lamento	-6802
▁lección	-6803
▁maestra	-6804
▁maletas	-6805
▁números	-6806
▁parcial	-6807
▁partida	-6808
▁pasarme	-6809
▁pasaste	-6810
▁prendió	-6811
▁prepara	-6812
▁puertas	-6813
▁reducir	-6814
▁sienten	-6815
▁tradujo	-6816
▁vestida	-6817
▁Aprender	-6818
▁Enséñame	-6819
▁Hokkaido	-6820
▁Internet	-6821
▁Juguemos	-6822
▁Limítate	-6823
▁alquiler	-6824
▁amarillo	-6825
▁aprendió	-6826
▁cuestion	-6827
▁distinta	-6828
▁extraord	-6829
▁fantasma	-6830
▁habitual	-6831
▁hablamos	-6832
▁insectos	-6833
▁llegarás	-6834
▁llevarme	-6835
▁misterio	-6836
▁obligado	-6837
▁pidieron	-6838
▁querrías	-6839
▁respirar	-6840
▁subiendo	-6841
▁universo	-6842
▁volvería	-6843
entimiento	-6844
▁Asegúrate	-6845
▁Muéstrame	-6846
▁arrogante	-6847
▁atractiva	-6848
▁comprarle	-6849
▁dieciocho	-6850
▁jugadores	-6851
▁naturales	-6852
▁perdieron	-6853
▁políticos	-6854
▁reconocer	-6855
▁sonriendo	-6856
▁americanos	-6857
▁bienvenida	-6858
▁conocieron	-6859
▁construido	-6860
▁observando	-6861
▁capacidades	-6862
▁convertirse	-6863
▁descubierto	-6864
▁disculparme	-6865
▁extranjeras	-6866
▁preocupados	-6867
▁habitaciones	-6868
▁herramientas	-6869
▁impresionado	-6870
▁personalmente	-6871
▁Afortunadamente	-6872
Ah	-6873
cú	-6874
ái	-6875
amb	-6876
ate	-6877
cie	-6878
cra	-6879
dén	-6880
iga	-6881
ose	-6882
▁Ca	-6883
▁Go	-6884
▁Ru	-6885
▁ki	-6886
▁ál	-6887
anah	-6888
aras	-6889
arán	-6890
book	-6891
enme	-6892
erse	-6893
ibol	-6894
irse	-6895
llan	-6896
ojos	-6897
tara	-6898
udas	-6899
uida	-6900
zará	-6901
▁Rep	-6902
▁Sír	-6903
▁dif	-6904
▁hal	-6905
▁hom	-6906
▁jab	-6907
▁ove	-6908
▁sar	-6909
▁tem	-6910
0.000	-6911
Sabés	-6912
abaco	-6913
camos	-6914
ladas	-6915
mosle	-6916
orado	-6917
ortal	-6918
samos	-6919
tinas	-6920
vante	-6921
▁Salí	-6922
▁bola	-6923
▁cere	-6924
▁copa	-6925
▁cubo	-6926
▁echa	-6927
▁exám	-6928
▁fiar	-6929
▁fron	-6930
▁hipo	-6931
▁iPad	-6932
▁irre	-6933
▁lavó	-6934
▁limi	-6935
▁neum	-6936
▁pavo	-6937
▁pesa	-6938
▁rell	-6939
▁repi	-6940
▁sacu	-6941
▁sean	-6942
▁seca	-6943
▁secó	-6944
▁unif	-6945
▁ánge	-6946
Habéis	-6947
Sabéis	-6948
abezas	-6949
aranti	-6950
burgue	-6951
ciales	-6952
currió	-6953
dición	-6954
gnante	-6955
ración	-6956
respon	-6957
tarios	-6958
éndose	-6959
íncipe	-6960
▁Dejar	-6961
▁Dígan	-6962
▁Entra	-6963
▁Habrá	-6964
▁Hacía	-6965
▁Podés	-6966
▁Rusia	-6967
▁Salió	-6968
▁Tradu	-6969
▁altas	-6970
▁antig	-6971
▁atacó	-6972
▁balde	-6973
▁clara	-6974
▁conec	-6975
▁crecí	-6976
▁críti	-6977
▁cueva	-6978
▁digan	-6979
▁hablé	-6980
▁intér	-6981
▁jaula	-6982
▁lobos	-6983
▁masco	-6984
▁mudar	-6985
▁muero	-6986
▁prést	-6987
▁tinto	-6988
▁tuyos	-6989
▁viera	-6990
▁vivos	-6991
▁zanah	-6992
▁zorro	-6993
▁Busqué	-6994
▁acción	-6995
▁aceite	-6996
▁actual	-6997
▁adicto	-6998
▁andaba	-6999
▁barrio	-7000
▁califi	-7001
▁cheque	-7002
▁compre	-7003
▁engañó	-7004
▁firmar	-7005
▁harina	-7006
▁ligero	-7007
▁llegas	-7008
▁llores	-7009
▁maneja	-7010
▁miente	-7011
▁miraba	-7012
▁misión	-7013
▁mínimo	-7014
▁odiaba	-7015
▁opinas	-7016
▁oscura	-7017
▁podías	-7018
▁quedas	-7019
▁repres	-7020
▁rápida	-7021
▁sanguí	-7022
▁sirvió	-7023
▁sujeto	-7024
▁tabaco	-7025
▁timbre	-7026
▁tocaba	-7027
▁veinti	-7028
cimiento	-7029
▁Bienven	-7030
▁Hicimos	-7031
▁Perdone	-7032
▁aliment	-7033
▁aparcar	-7034
▁clásica	-7035
▁cochera	-7036
▁conejos	-7037
▁confesó	-7038
▁confuso	-7039
▁conozca	-7040
▁cuentes	-7041
▁cultura	-7042
▁delgado	-7043
▁egoísta	-7044
▁emborra	-7045
▁enamoró	-7046
▁escuché	-7047
▁fuerzas	-7048
▁furioso	-7049
▁intenta	-7050
▁llevará	-7051
▁lotería	-7052
▁lápices	-7053
▁olvidad	-7054
▁patinar	-7055
▁pienses	-7056
▁program	-7057
▁propias	-7058
▁química	-7059
▁regreso	-7060
▁resulta	-7061
▁soñando	-7062
▁vencido	-7063
▁vueltas	-7064
▁Llegamos	-7065
▁Siéntate	-7066
▁aburrida	-7067
▁ancianos	-7068
▁anteojos	-7069
▁ausencia	-7070
▁conjunto	-7071
▁continuó	-7072
▁desastre	-7073
▁disculpó	-7074
▁disfruta	-7075
▁empiezan	-7076
▁estudias	-7077
▁exámenes	-7078
▁falleció	-7079
▁heladera	-7080
▁industri	-7081
▁insistió	-7082
▁interpre	-7083
▁juguetes	-7084
▁necesite	-7085
▁nerviosa	-7086
▁promedio	-7087
▁práctica	-7088
▁pudieras	-7089
▁quejarse	-7090
▁resolvió	-7091
▁revistas	-7092
▁secretos	-7093
▁segundos	-7094
▁sentamos	-7095
▁subestim	-7096
▁traicion	-7097
▁triunfar	-7098
terrestres	-7099
▁agradeció	-7100
▁agradezco	-7101
▁amarillas	-7102
▁auténtico	-7103
▁comenzado	-7104
▁comprarse	-7105
▁condición	-7106
▁decidiste	-7107
▁difíciles	-7108
▁estúpidas	-7109
▁hamburgue	-7110
▁quedarnos	-7111
▁superfici	-7112
▁decidieron	-7113
▁diecisiete	-7114
▁encuentras	-7115
▁intérprete	-7116
▁periodista	-7117
▁repugnante	-7118
▁científicos	-7119
▁discutiendo	-7120
▁trescientos	-7121
▁computadores	-7122
▁construcción	-7123
▁desaparecido	-7124
▁inconsciente	-7125
▁interesantes	-7126
▁extraterrestres	-7127
..	-7128
01	-7129
Eh	-7130
ke	-7131
▁ó	-7132
Los	-7133
bia	-7134
cad	-7135
pin	-7136
ple	-7137
▁"¿	-7138
▁Ce	-7139
▁dí	-7140
Pero	-7141
blia	-7142
cesa	-7143
coln	-7144
cono	-7145
iver	-7146
mbol	-7147
peta	-7148
quía	-7149
rete	-7150
rrir	-7151
ríbe	-7152
tase	-7153
tear	-7154
tern	-7155
tora	-7156
tulo	-7157
vale	-7158
▁Cru	-7159
▁agi	-7160
▁gim	-7161
▁pij	-7162
▁psi	-7163
▁ros	-7164
Ahora	-7165
Habla	-7166
ament	-7167
entir	-7168
garse	-7169
ieron	-7170
lista	-7171
trodu	-7172
uiste	-7173
ánico	-7174
▁Déje	-7175
▁Esco	-7176
▁Limp	-7177
▁Luna	-7178
▁Revi	-7179
▁Vino	-7180
▁aqué	-7181
▁ayud	-7182
▁cana	-7183
▁chir	-7184
▁chis	-7185
▁core	-7186
▁creí	-7187
▁dimi	-7188
▁gara	-7189
▁grab	-7190
▁grie	-7191
▁murm	-7192
▁osos	-7193
▁saca	-7194
▁simi	-7195
▁soli	-7196
▁zona	-7197
Podéis	-7198
ington	-7199
landia	-7200
onario	-7201
tillas	-7202
ártelo	-7203
▁Alice	-7204
▁Ambas	-7205
▁Busco	-7206
▁Decid	-7207
▁Descu	-7208
▁Entré	-7209
▁Gener	-7210
▁Hacer	-7211
▁Llama	-7212
▁Pocos	-7213
▁Ponga	-7214
▁Segun	-7215
▁agres	-7216
▁ayudé	-7217
▁borde	-7218
▁comía	-7219
▁coste	-7220
▁criti	-7221
▁cuero	-7222
▁ebrio	-7223
▁esfor	-7224
▁grifo	-7225
▁gripe	-7226
▁infan	-7227
▁norma	-7228
▁oblig	-7229
▁prede	-7230
▁repro	-7231
▁rojos	-7232
▁solar	-7233
▁tales	-7234
▁tazas	-7235
▁tomas	-7236
▁tonta	-7237
▁veloz	-7238
cientes	-7239
stieron	-7240
▁Biblia	-7241
▁Conocí	-7242
▁Fueron	-7243
▁Pídele	-7244
▁acento	-7245
▁arrest	-7246
▁asombr	-7247
▁atento	-7248
▁contam	-7249
▁desmay	-7250
▁estilo	-7251
▁estorn	-7252
▁estupi	-7253
▁felici	-7254
▁frutas	-7255
▁gimnas	-7256
▁guarda	-7257
▁homici	-7258
▁juegan	-7259
▁lament	-7260
▁letras	-7261
▁nacion	-7262
▁negros	-7263
▁origin	-7264
▁porqué	-7265
▁quizás	-7266
▁rompec	-7267
▁tiende	-7268
▁Cuidado	-7269
▁Lincoln	-7270
▁alcanzó	-7271
▁alegría	-7272
▁ansioso	-7273
▁apetito	-7274
▁aprobar	-7275
▁combust	-7276
▁contaré	-7277
▁cortina	-7278
▁cumplió	-7279
▁desmayó	-7280
▁ganando	-7281
▁garanti	-7282
▁gastado	-7283
▁gatillo	-7284
▁lastimó	-7285
▁lectura	-7286
▁llevara	-7287
▁moderna	-7288
▁musical	-7289
▁papeles	-7290
▁queráis	-7291
▁sincero	-7292
▁sudando	-7293
▁teclado	-7294
▁tenedor	-7295
▁traslad	-7296
▁votaron	-7297
ariamente	-7298
▁acciones	-7299
▁alquilar	-7300
▁anterior	-7301
▁atravesó	-7302
▁cocinera	-7303
▁comieron	-7304
▁cruzando	-7305
▁cuaderno	-7306
▁detenido	-7307
▁divorcio	-7308
▁expresar	-7309
▁funcionó	-7310
▁habíamos	-7311
▁llamadas	-7312
▁mencionó	-7313
▁mentiras	-7314
▁molestes	-7315
▁planeado	-7316
▁progreso	-7317
▁príncipe	-7318
▁pudieron	-7319
▁recuperó	-7320
▁recursos	-7321
▁religión	-7322
▁renunció	-7323
▁salvajes	-7324
▁trabajas	-7325
▁tuvieras	-7326
▁cafetería	-7327
▁comercial	-7328
▁corriente	-7329
▁decírselo	-7330
▁demostrar	-7331
▁describir	-7332
▁despedida	-7333
▁pesadilla	-7334
▁populares	-7335
▁prefieres	-7336
▁preparada	-7337
▁siguiendo	-7338
▁talentoso	-7339
▁traicionó	-7340
▁tranquila	-7341
▁vegetales	-7342
▁escuchaste	-7343
▁estacionar	-7344
▁estantería	-7345
▁incorrecto	-7346
▁solucionar	-7347
▁sugerencia	-7348
▁agradecerte	-7349
▁profesional	-7350
▁directamente	-7351
▁rompecabezas	-7352
▁consecuencias	-7353
▁independiente	-7354
cn	-7355
fr	-7356
ud	-7357
vé	-7358
áf	-7359
íz	-7360
...	-7361
Ese	-7362
bal	-7363
bie	-7364
bum	-7365
cié	-7366
cun	-7367
dri	-7368
esp	-7369
gen	-7370
ias	-7371
ile	-7372
ovi	-7373
ron	-7374
sis	-7375
▁"¡	-7376
▁11	-7377
Hace	-7378
ctur	-7379
dras	-7380
dían	-7381
elan	-7382
geno	-7383
imen	-7384
lena	-7385
lico	-7386
rese	-7387
tará	-7388
tete	-7389
tral	-7390
▁300	-7391
▁Cal	-7392
▁Exi	-7393
▁Sea	-7394
▁Val	-7395
▁aud	-7396
▁leo	-7397
▁loc	-7398
▁oje	-7399
▁rió	-7400
▁ríe	-7401
▁sho	-7402
▁sup	-7403
▁ubi	-7404
Creés	-7405
Enten	-7406
Todos	-7407
Vamos	-7408
beros	-7409
carme	-7410
carse	-7411
copio	-7412
dones	-7413
ianos	-7414
icías	-7415
taban	-7416
toria	-7417
venir	-7418
érica	-7419
íamos	-7420
ómate	-7421
▁Deje	-7422
▁Dejá	-7423
▁Pero	-7424
▁Pres	-7425
▁Sigo	-7426
▁bene	-7427
▁bici	-7428
▁dame	-7429
▁debi	-7430
▁disp	-7431
▁firm	-7432
▁guía	-7433
▁haci	-7434
▁here	-7435
▁jugó	-7436
▁mari	-7437
▁máxi	-7438
▁prin	-7439
▁quej	-7440
▁reac	-7441
▁rece	-7442
▁salí	-7443
▁seda	-7444
▁sién	-7445
▁tela	-7446
▁tiro	-7447
▁técn	-7448
▁típi	-7449
▁zumo	-7450
alizar	-7451
cierto	-7452
ección	-7453
giendo	-7454
guimos	-7455
terías	-7456
zación	-7457
éndolo	-7458
▁Agrad	-7459
▁Corre	-7460
▁Depen	-7461
▁Justo	-7462
▁Llamé	-7463
▁Quedé	-7464
▁Vengo	-7465
▁actuó	-7466
▁ambas	-7467
▁buscó	-7468
▁cajas	-7469
▁cebol	-7470
▁clave	-7471
▁coman	-7472
▁corté	-7473
▁crudo	-7474
▁culpo	-7475
▁daños	-7476
▁enmar	-7477
▁firmó	-7478
▁hayan	-7479
▁hazlo	-7480
▁hijas	-7481
▁hormi	-7482
▁jabón	-7483
▁leyes	-7484
▁logró	-7485
▁magia	-7486
▁pares	-7487
▁pausa	-7488
▁perez	-7489
▁pides	-7490
▁rollo	-7491
▁sabia	-7492
▁semáf	-7493
▁terri	-7494
▁trigo	-7495
▁velas	-7496
▁vidas	-7497
▁vídeo	-7498
▁álbum	-7499
▁ángel	-7500
Tenemos	-7501
▁Empecé	-7502
▁Perdió	-7503
▁Perman	-7504
▁acudir	-7505
▁astuto	-7506
▁bancar	-7507
▁borrar	-7508
▁calent	-7509
▁ciervo	-7510
▁conejo	-7511
▁desgra	-7512
▁destro	-7513
▁destru	-7514
▁diplom	-7515
▁duermo	-7516
▁fresca	-7517
▁garaje	-7518
▁gustar	-7519
▁hierba	-7520
▁juntar	-7521
▁niebla	-7522
▁noctur	-7523
▁pasaje	-7524
▁pedazo	-7525
▁podían	-7526
▁pánico	-7527
▁pésimo	-7528
▁recomp	-7529
▁sienta	-7530
▁sillas	-7531
▁tengan	-7532
▁trozos	-7533
▁vendió	-7534
▁veneno	-7535
▁verdes	-7536
▁viajes	-7537
▁éramos	-7538
dimiento	-7539
▁Abandon	-7540
▁Aprecio	-7541
▁Comimos	-7542
▁Escriba	-7543
▁Prometo	-7544
▁Tendrás	-7545
▁aguanto	-7546
▁asintió	-7547
▁astrona	-7548
▁candida	-7549
▁contagi	-7550
▁cortado	-7551
▁cuantos	-7552
▁dejarte	-7553
▁deseaba	-7554
▁dormida	-7555
▁echarle	-7556
▁existen	-7557
▁exitoso	-7558
▁gustará	-7559
▁haberla	-7560
▁heridos	-7561
▁ignorar	-7562
▁impedir	-7563
▁infeliz	-7564
▁llegada	-7565
▁merecía	-7566
▁milagro	-7567
▁muestra	-7568
▁pasaron	-7569
▁precipi	-7570
▁presion	-7571
▁quedará	-7572
▁quienes	-7573
▁quiénes	-7574
▁riqueza	-7575
▁saludos	-7576
▁sientas	-7577
▁superar	-7578
▁tijeras	-7579
▁trampas	-7580
▁ventaja	-7581
ashington	-7582
▁Enciende	-7583
▁Esperaré	-7584
▁aprobado	-7585
▁ayudarla	-7586
▁bomberos	-7587
▁cepillar	-7588
▁comprome	-7589
▁cortinas	-7590
▁desagrad	-7591
▁desemple	-7592
▁desorden	-7593
▁desorien	-7594
▁disparar	-7595
▁esperara	-7596
▁extrañar	-7597
▁gimnasio	-7598
▁gustaban	-7599
▁hermosas	-7600
▁ingresos	-7601
▁intentes	-7602
▁ladrones	-7603
▁lastimar	-7604
▁lenguaje	-7605
▁maquilla	-7606
▁molestar	-7607
▁pequeñas	-7608
▁policías	-7609
▁previsto	-7610
▁princesa	-7611
▁respetar	-7612
▁sentarte	-7613
▁sospecha	-7614
▁sucedido	-7615
▁voleibol	-7616
▁Estuvimos	-7617
▁audiencia	-7618
▁bolsillos	-7619
▁cambiando	-7620
▁compraron	-7621
▁deliciosa	-7622
▁entiendes	-7623
▁informado	-7624
▁optimista	-7625
▁pacientes	-7626
▁presencia	-7627
▁recomendó	-7628
▁reconoció	-7629
▁recuerdos	-7630
▁serpiente	-7631
▁visitarme	-7632
▁comúnmente	-7633
▁considerar	-7634
▁desocupado	-7635
▁empeorando	-7636
▁enamorados	-7637
▁funcionará	-7638
▁incorrecta	-7639
▁molestando	-7640
▁preferiría	-7641
▁prisionero	-7642
▁suicidarse	-7643
▁trabajador	-7644
▁usualmente	-7645
▁zanahorias	-7646
▁divirtiendo	-7647
▁encontrarás	-7648
▁preocuparme	-7649
▁preocuparte	-7650
▁Generalmente	-7651
▁adolescentes	-7652
▁conocimiento	-7653
▁continuación	-7654
▁investigando	-7655
▁acondicionado	-7656
▁sencillamente	-7657
?"	-7658
In	-7659
Sal	-7660
Soy	-7661
bel	-7662
ben	-7663
cid	-7664
eré	-7665
fir	-7666
iré	-7667
kes	-7668
lga	-7669
lín	-7670
rán	-7671
yas	-7672
▁Af	-7673
▁Am	-7674
▁Sh	-7675
▁bl	-7676
▁ev	-7677
Reci	-7678
adió	-7679
bern	-7680
bras	-7681
cómo	-7682
erdo	-7683
ficó	-7684
irma	-7685
jano	-7686
laba	-7687
lete	-7688
llón	-7689
logo	-7690
onar	-7691
orre	-7692
rame	-7693
rosa	-7694
sivo	-7695
táis	-7696
usos	-7697
uérf	-7698
zaje	-7699
zoso	-7700
▁Cin	-7701
▁Der	-7702
▁Dev	-7703
▁Gre	-7704
▁Hág	-7705
▁Iba	-7706
▁alo	-7707
▁buf	-7708
▁cad	-7709
▁cír	-7710
▁ine	-7711
▁inj	-7712
▁och	-7713
▁rio	-7714
▁tej	-7715
Tomás	-7716
ampar	-7717
cidas	-7718
cunst	-7719
dales	-7720
didad	-7721
gadas	-7722
ovilí	-7723
paron	-7724
rimió	-7725
stras	-7726
strum	-7727
tadas	-7728
tarlo	-7729
teria	-7730
tilla	-7731
uelve	-7732
venta	-7733
vento	-7734
zador	-7735
▁Abrí	-7736
▁Baja	-7737
▁Cost	-7738
▁Ense	-7739
▁Face	-7740
▁Miré	-7741
▁Pedí	-7742
▁Prue	-7743
▁Prué	-7744
▁abro	-7745
▁abrí	-7746
▁alas	-7747
▁avis	-7748
▁colo	-7749
▁crió	-7750
▁diri	-7751
▁figu	-7752
▁gote	-7753
▁irri	-7754
▁lata	-7755
▁leía	-7756
▁lobo	-7757
▁sost	-7758
▁suma	-7759
▁vehí	-7760
▁voló	-7761
Fuiste	-7762
Vienes	-7763
edades	-7764
elanda	-7765
fieres	-7766
podría	-7767
sticas	-7768
tremos	-7769
ándolo	-7770
▁Deben	-7771
▁Donde	-7772
▁Juego	-7773
▁Jugar	-7774
▁Norte	-7775
▁Oímos	-7776
▁Seguí	-7777
▁Suena	-7778
▁agudo	-7779
▁apost	-7780
▁busca	-7781
▁caras	-7782
▁casco	-7783
▁ceder	-7784
▁chocó	-7785
▁ciega	-7786
▁decor	-7787
▁desan	-7788
▁disco	-7789
▁enojó	-7790
▁entré	-7791
▁explo	-7792
▁grito	-7793
▁horno	-7794
▁kilos	-7795
▁local	-7796
▁lucha	-7797
▁metas	-7798
▁miser	-7799
▁monos	-7800
▁pasta	-7801
▁pilló	-7802
▁poeta	-7803
▁prove	-7804
▁rueda	-7805
▁sabio	-7806
▁sabrá	-7807
▁seria	-7808
▁serán	-7809
▁sucia	-7810
▁susur	-7811
▁temas	-7812
▁tumba	-7813
▁viajó	-7814
iencias	-7815
legados	-7816
téntalo	-7817
únmente	-7818
▁Acepto	-7819
▁Debido	-7820
▁Disney	-7821
▁Espere	-7822
▁Estará	-7823
▁Estáis	-7824
▁Pásame	-7825
▁Respon	-7826
▁Seguro	-7827
▁Siguió	-7828
▁Tómate	-7829
▁Vuelvo	-7830
▁arrodi	-7831
▁arruin	-7832
▁asigna	-7833
▁barata	-7834
▁bloque	-7835
▁callar	-7836
▁cometa	-7837
▁cuánta	-7838
▁cálido	-7839
▁deseos	-7840
▁empecé	-7841
▁esperé	-7842
▁espina	-7843
▁estufa	-7844
▁evento	-7845
▁fingir	-7846
▁húmedo	-7847
▁indign	-7848
▁invent	-7849
▁llames	-7850
▁locura	-7851
▁límite	-7852
▁murmur	-7853
▁nación	-7854
▁pagará	-7855
▁podrás	-7856
▁presta	-7857
▁prestó	-7858
▁puedan	-7859
▁recibí	-7860
▁reprob	-7861
▁reunió	-7862
▁victor	-7863
▁videoj	-7864
▁viejas	-7865
▁únicos	-7866
amientos	-7867
▁Debiste	-7868
▁Desayun	-7869
▁Segunda	-7870
▁Trabajé	-7871
▁aprende	-7872
▁archivo	-7873
▁aseguro	-7874
▁ayudaré	-7875
▁bajando	-7876
▁bonitas	-7877
▁cambios	-7878
▁caridad	-7879
▁casamos	-7880
▁casaron	-7881
▁comerme	-7882
▁cuantas	-7883
▁demanda	-7884
▁dirigió	-7885
▁fastidi	-7886
▁fiestas	-7887
▁función	-7888
▁injusto	-7889
▁instrum	-7890
▁introdu	-7891
▁lavarro	-7892
▁limpias	-7893
▁mareado	-7894
▁mataron	-7895
▁mundial	-7896
▁navidad	-7897
▁nervios	-7898
▁ochenta	-7899
▁pasaría	-7900
▁recordó	-7901
▁reprodu	-7902
▁riesgos	-7903
▁sesenta	-7904
▁soltera	-7905
▁termine	-7906
▁tomarte	-7907
▁Facebook	-7908
▁Hablamos	-7909
▁Recuerda	-7910
▁actuando	-7911
▁alérgica	-7912
▁amanecer	-7913
▁aterrori	-7914
▁cambiará	-7915
▁cancelar	-7916
▁celebrar	-7917
▁conducta	-7918
▁conseguí	-7919
▁contestó	-7920
▁cumplido	-7921
▁doctores	-7922
▁elefante	-7923
▁exterior	-7924
▁hablarte	-7925
▁infantil	-7926
▁interior	-7927
▁llegando	-7928
▁maletero	-7929
▁parecían	-7930
▁permitió	-7931
▁predecir	-7932
▁primeros	-7933
▁probarlo	-7934
▁quejarte	-7935
▁recurrir	-7936
▁resistir	-7937
▁resultar	-7938
▁sentaron	-7939
▁telefone	-7940
▁vinieras	-7941
▁volviera	-7942
▁Comprendo	-7943
▁Estaremos	-7944
▁considera	-7945
▁desconcer	-7946
▁desgracia	-7947
▁elefantes	-7948
▁eléctrica	-7949
▁encuentre	-7950
▁enseñando	-7951
▁enterrado	-7952
▁importaba	-7953
▁limpiando	-7954
▁mejorando	-7955
▁ocasiones	-7956
▁operación	-7957
▁solamente	-7958
cionalmente	-7959
▁arreglarlo	-7960
▁asegurarme	-7961
▁aumentando	-7962
▁automovilí	-7963
▁ciudadanos	-7964
▁conseguido	-7965
▁convertido	-7966
▁desayunado	-7967
▁encuentres	-7968
▁entrenador	-7969
▁estuvieras	-7970
▁ignorancia	-7971
▁inundación	-7972
▁literatura	-7973
▁maquillaje	-7974
▁orgullosos	-7975
▁preguntado	-7976
▁Encontramos	-7977
▁encontrarlo	-7978
▁encontrarme	-7979
▁equivocados	-7980
▁estampillas	-7981
▁hambrientos	-7982
▁practicando	-7983
▁preguntando	-7984
▁tratamiento	-7985
▁coincidencia	-7986
▁concentrarme	-7987
▁personalidad	-7988
▁principiante	-7989
▁sorprendería	-7990
▁increíblemente	-7991
Di	-7992
ey	-7993
ác	-7994
Lle	-7995
gio	-7996
let	-7997
lli	-7998
lán	-7999
pes	-8000
reo	-8001
sal	-8002
▁Ag	-8003
▁Oh	-8004
▁pó	-8005
▁sú	-8006
Vete	-8007
cate	-8008
dale	-8009
días	-8010
ebro	-8011
enar	-8012
ices	-8013
lame	-8014
mano	-8015
mate	-8016
quen	-8017
rale	-8018
táti	-8019
udar	-8020
umir	-8021
▁Cay	-8022
▁Die	-8023
▁ben	-8024
▁din	-8025
▁elo	-8026
▁glo	-8027
▁lea	-8028
▁med	-8029
▁mul	-8030
▁rem	-8031
▁reí	-8032
▁tún	-8033
▁usó	-8034
▁ésa	-8035
Oíste	-8036
abaña	-8037
brado	-8038
ciona	-8039
coles	-8040
dante	-8041
ersey	-8042
gueme	-8043
iches	-8044
lenas	-8045
manes	-8046
mpara	-8047
rista	-8048
sando	-8049
sidad	-8050
tense	-8051
teros	-8052
ticos	-8053
tátil	-8054
uélve	-8055
vados	-8056
viles	-8057
zaste	-8058
írame	-8059
▁Abra	-8060
▁Agar	-8061
▁Atra	-8062
▁Dorm	-8063
▁Encu	-8064
▁Eran	-8065
▁Hago	-8066
▁Pone	-8067
▁Reco	-8068
▁Vaya	-8069
▁aler	-8070
▁alzó	-8071
▁atar	-8072
▁bole	-8073
▁cate	-8074
▁catá	-8075
▁cica	-8076
▁creó	-8077
▁elim	-8078
▁enve	-8079
▁fumo	-8080
▁gira	-8081
▁hilo	-8082
▁inus	-8083
▁lees	-8084
▁leña	-8085
▁masa	-8086
▁nudo	-8087
▁pian	-8088
▁pica	-8089
▁pide	-8090
▁rayo	-8091
▁seco	-8092
▁siga	-8093
▁tabu	-8094
▁tapa	-8095
▁tecn	-8096
▁torn	-8097
▁vela	-8098
▁vete	-8099
▁visa	-8100
Sabías	-8101
alista	-8102
anidad	-8103
grafos	-8104
lusion	-8105
meable	-8106
radora	-8107
állate	-8108
▁Acaba	-8109
▁Apaga	-8110
▁Cinco	-8111
▁Enten	-8112
▁Miles	-8113
▁Monte	-8114
▁Picas	-8115
▁Resul	-8116
▁Viene	-8117
▁aprue	-8118
▁banca	-8119
▁blusa	-8120
▁devol	-8121
▁dirig	-8122
▁diseñ	-8123
▁dólar	-8124
▁errón	-8125
▁falsa	-8126
▁fantá	-8127
▁huérf	-8128
▁impru	-8129
▁inevi	-8130
▁joyas	-8131
▁llora	-8132
▁minif	-8133
▁natal	-8134
▁nieva	-8135
▁opini	-8136
▁oírlo	-8137
▁paisa	-8138
▁pegar	-8139
▁preca	-8140
▁prohí	-8141
▁ratas	-8142
tiremos	-8143
tógrafo	-8144
ércoles	-8145
▁Cuesta	-8146
▁Descan	-8147
▁Esperé	-8148
▁Lament	-8149
▁Regres	-8150
▁adelga	-8151
▁además	-8152
▁almuer	-8153
▁asesin	-8154
▁avisar	-8155
▁ayudas	-8156
▁buscas	-8157
▁cabaña	-8158
▁carbón	-8159
▁comete	-8160
▁corona	-8161
▁crisis	-8162
▁cálida	-8163
▁dibujo	-8164
▁diseño	-8165
▁durará	-8166
▁escoba	-8167
▁gentil	-8168
▁guardó	-8169
▁habitu	-8170
▁huelga	-8171
▁insegu	-8172
▁jersey	-8173
▁juegas	-8174
▁jungla	-8175
▁juntas	-8176
▁jurado	-8177
▁limpió	-8178
▁llaman	-8179
▁llenos	-8180
▁llovió	-8181
▁manife	-8182
▁mosqui	-8183
▁máximo	-8184
▁puerto	-8185
▁refugi	-8186
▁reírme	-8187
▁ruedas	-8188
▁sobras	-8189
▁solían	-8190
▁sufrió	-8191
▁tigres	-8192
▁tocado	-8193
▁tomaré	-8194
▁trates	-8195
▁verlos	-8196
▁Apuesto	-8197
▁Depende	-8198
▁Dijeron	-8199
▁Dijiste	-8200
▁Estabas	-8201
▁Ocurrió	-8202
▁Sigamos	-8203
▁Sugiero	-8204
▁absurdo	-8205
▁abuelos	-8206
▁arrojar	-8207
▁arruinó	-8208
▁blancos	-8209
▁bufanda	-8210
▁campaña	-8211
▁canilla	-8212
▁castigo	-8213
▁cerebro	-8214
▁ceremon	-8215
▁content	-8216
▁creerlo	-8217
▁círculo	-8218
▁dejaste	-8219
▁dominar	-8220
▁escrita	-8221
▁esperas	-8222
▁esperes	-8223
▁estable	-8224
▁excusas	-8225
▁famosos	-8226
▁idiotas	-8227
▁interna	-8228
▁interro	-8229
▁jugamos	-8230
▁lámpara	-8231
▁medalla	-8232
▁modales	-8233
▁muñecas	-8234
▁navegar	-8235
▁nublado	-8236
▁ocurren	-8237
▁oración	-8238
▁pedazos	-8239
▁piedras	-8240
▁pierdas	-8241
▁puestos	-8242
▁pusiste	-8243
▁rodeado	-8244
▁rumores	-8245
▁saxofón	-8246
▁sábanas	-8247
▁tercera	-8248
▁tiendas	-8249
Compraste	-8250
▁abiertas	-8251
▁abogados	-8252
▁alimento	-8253
▁ballenas	-8254
▁benefici	-8255
▁circunst	-8256
▁confiado	-8257
▁conmovió	-8258
▁defectos	-8259
▁desierta	-8260
▁despegar	-8261
▁diamante	-8262
▁entendió	-8263
▁entraron	-8264
▁escuchas	-8265
▁escuches	-8266
▁frontera	-8267
▁hablarle	-8268
▁identifi	-8269
▁instante	-8270
▁justicia	-8271
▁llamaron	-8272
▁llevamos	-8273
▁material	-8274
▁pensarlo	-8275
▁perderás	-8276
▁perdimos	-8277
▁petición	-8278
▁pianista	-8279
▁plátanos	-8280
▁portátil	-8281
▁posponer	-8282
▁préstamo	-8283
▁reservar	-8284
▁rodillas	-8285
▁semáforo	-8286
▁suicidio	-8287
▁tarjetas	-8288
▁tontería	-8289
▁trabajos	-8290
▁viniendo	-8291
áticamente	-8292
▁Hagámoslo	-8293
▁Permítame	-8294
▁ahorrando	-8295
▁apropiado	-8296
▁atrapados	-8297
▁borrachos	-8298
▁charlando	-8299
▁comprendo	-8300
▁condenado	-8301
▁conociera	-8302
▁conociste	-8303
▁creciendo	-8304
▁delegados	-8305
▁diamantes	-8306
▁entienden	-8307
▁esperamos	-8308
▁estaremos	-8309
▁estupenda	-8310
▁estuvimos	-8311
▁excepción	-8312
▁hirviendo	-8313
▁homicidio	-8314
▁humanidad	-8315
▁lleguemos	-8316
▁memorizar	-8317
▁opiniones	-8318
▁peligrosa	-8319
▁persuadir	-8320
▁rechazado	-8321
▁romántico	-8322
▁siguieron	-8323
▁Comúnmente	-8324
▁Cualquiera	-8325
▁asignatura	-8326
▁bolígrafos	-8327
▁demasiados	-8328
▁entenderlo	-8329
▁fascinante	-8330
▁millonario	-8331
▁producción	-8332
▁tecnología	-8333
▁visitarnos	-8334
▁coleccionar	-8335
▁conseguiste	-8336
▁convencerlo	-8337
▁descripción	-8338
▁impermeable	-8339
▁motocicleta	-8340
▁prisioneros	-8341
▁suficientes	-8342
▁videojuegos	-8343
▁enfermedades	-8344
▁hamburguesas	-8345
▁sorprendidos	-8346
▁correctamente	-8347
▁impresionante	-8348
▁universitario	-8349
Su	-8350
by	-8351
it	-8352
Esa	-8353
Han	-8354
Pas	-8355
aca	-8356
ang	-8357
asa	-8358
dam	-8359
dlo	-8360
dom	-8361
fle	-8362
omi	-8363
sul	-8364
tmo	-8365
tui	-8366
tás	-8367
ude	-8368
▁Añ	-8369
▁Is	-8370
▁aé	-8371
▁im	-8372
▁on	-8373
▁ín	-8374
Hola	-8375
amar	-8376
bate	-8377
dese	-8378
dora	-8379
efac	-8380
erio	-8381
gate	-8382
guar	-8383
leti	-8384
mósf	-8385
neas	-8386
seme	-8387
timo	-8388
uiza	-8389
vame	-8390
vará	-8391
▁Gol	-8392
▁Imp	-8393
▁Jes	-8394
▁Leo	-8395
▁Mán	-8396
▁Ren	-8397
▁Sha	-8398
▁chi	-8399
▁cue	-8400
▁eva	-8401
▁ini	-8402
▁inn	-8403
▁jur	-8404
▁mam	-8405
▁mol	-8406
▁pil	-8407
▁réc	-8408
▁teñ	-8409
▁viv	-8410
▁órg	-8411
chada	-8412
clear	-8413
críbe	-8414
daban	-8415
daste	-8416
ecerá	-8417
jados	-8418
pando	-8419
tarle	-8420
ticas	-8421
titud	-8422
ífica	-8423
▁Agár	-8424
▁Cogí	-8425
▁Mirá	-8426
▁Most	-8427
▁Park	-8428
▁Pasó	-8429
▁Seré	-8430
▁Siga	-8431
▁abdu	-8432
▁apañ	-8433
▁ardu	-8434
▁asco	-8435
▁bebí	-8436
▁boli	-8437
▁capí	-8438
▁caza	-8439
▁coar	-8440
▁cort	-8441
▁dele	-8442
▁dudo	-8443
▁enco	-8444
▁espi	-8445
▁fran	-8446
▁gram	-8447
▁hola	-8448
▁huir	-8449
▁idén	-8450
▁incu	-8451
▁mata	-8452
▁maíz	-8453
▁meti	-8454
▁notó	-8455
▁ruso	-8456
▁tier	-8457
▁topé	-8458
▁tost	-8459
▁vaca	-8460
aduras	-8461
chando	-8462
ciosas	-8463
entate	-8464
imenea	-8465
licado	-8466
óstico	-8467
▁Claro	-8468
▁Deseo	-8469
▁Dormí	-8470
▁Elige	-8471
▁Extra	-8472
▁Pagué	-8473
▁Viven	-8474
▁adqui	-8475
▁aguja	-8476
▁daría	-8477
▁defra	-8478
▁desta	-8479
▁entra	-8480
▁etern	-8481
▁excur	-8482
▁falló	-8483
▁gastó	-8484
▁grasa	-8485
▁hábil	-8486
▁intri	-8487
▁jarra	-8488
▁julio	-8489
▁lluvi	-8490
▁madru	-8491
▁metal	-8492
▁micro	-8493
▁montó	-8494
▁movió	-8495
▁oídos	-8496
▁oíste	-8497
▁pelar	-8498
▁probó	-8499
▁recon	-8500
▁ritmo	-8501
▁salgo	-8502
▁saqué	-8503
▁según	-8504
▁sever	-8505
▁siglo	-8506
▁sufre	-8507
▁tomes	-8508
▁vesti	-8509
▁viaja	-8510
aración	-8511
dientes	-8512
mósfera	-8513
ramente	-8514
stantes	-8515
taremos	-8516
▁Confío	-8517
▁Conver	-8518
▁Estate	-8519
▁Iremos	-8520
▁Lávate	-8521
▁Merece	-8522
▁Pagaré	-8523
▁Piensa	-8524
▁Vendré	-8525
▁alerta	-8526
▁alumno	-8527
▁amargo	-8528
▁arañas	-8529
▁bañera	-8530
▁besara	-8531
▁cabras	-8532
▁cadena	-8533
▁cambie	-8534
▁carnet	-8535
▁cerdos	-8536
▁crecer	-8537
▁deudas	-8538
▁devuel	-8539
▁dismin	-8540
▁echaré	-8541
▁efecto	-8542
▁equili	-8543
▁filoso	-8544
▁gastar	-8545
▁gemelo	-8546
▁graduó	-8547
▁humana	-8548
▁injust	-8549
▁jugará	-8550
▁largos	-8551
▁médica	-8552
▁pijama	-8553
▁plantó	-8554
▁pulsar	-8555
▁rancho	-8556
▁recién	-8557
▁refres	-8558
▁región	-8559
▁resaca	-8560
▁retiró	-8561
▁reveló	-8562
▁rodeos	-8563
▁ruinas	-8564
▁récord	-8565
▁saldrá	-8566
▁siguen	-8567
▁sucios	-8568
▁suelto	-8569
▁tomate	-8570
▁tímida	-8571
▁veamos	-8572
▁vencer	-8573
ualmente	-8574
▁Empieza	-8575
▁Escucha	-8576
▁Intentó	-8577
▁Picasso	-8578
▁Quieren	-8579
▁Terminé	-8580
▁aprecio	-8581
▁aprendi	-8582
▁apuntes	-8583
▁apuñaló	-8584
▁aviones	-8585
▁bonitos	-8586
▁buscaba	-8587
▁calefac	-8588
▁cavando	-8589
▁cheques	-8590
▁cientos	-8591
▁compens	-8592
▁compone	-8593
▁creerla	-8594
▁despegó	-8595
▁detecti	-8596
▁engañar	-8597
▁entrevi	-8598
▁escriba	-8599
▁estemos	-8600
▁galleti	-8601
▁hablara	-8602
▁heridas	-8603
▁intenté	-8604
▁llamara	-8605
▁llevado	-8606
▁llovido	-8607
▁matarme	-8608
▁misteri	-8609
▁médicos	-8610
▁nativos	-8611
▁pararme	-8612
▁paredes	-8613
▁pediste	-8614
▁pelando	-8615
▁pobreza	-8616
▁podrían	-8617
▁postura	-8618
▁prestas	-8619
▁probado	-8620
▁produce	-8621
▁prometo	-8622
▁pudiste	-8623
▁raqueta	-8624
▁reempla	-8625
▁sacerdo	-8626
▁tristes	-8627
▁utiliza	-8628
▁Comparto	-8629
▁Gobierno	-8630
▁Hicieron	-8631
▁Llegaste	-8632
▁Salgamos	-8633
▁Volvamos	-8634
▁adivinar	-8635
▁adorable	-8636
▁aliviado	-8637
▁antiguas	-8638
▁antiguos	-8639
▁aspirina	-8640
▁ayudarlo	-8641
▁ayudaros	-8642
▁chimenea	-8643
▁comprara	-8644
▁contarle	-8645
▁contiene	-8646
▁contrató	-8647
▁contribu	-8648
▁cordones	-8649
▁criminal	-8650
▁desayuna	-8651
▁despreci	-8652
▁disfrazó	-8653
▁empeorar	-8654
▁engañado	-8655
▁entreten	-8656
▁espaldas	-8657
▁espantos	-8658
▁estudios	-8659
▁evidente	-8660
▁explique	-8661
▁inquieto	-8662
▁ladrando	-8663
▁llevaron	-8664
▁peluquer	-8665
▁perdiste	-8666
▁perezoso	-8667
▁podremos	-8668
▁precioso	-8669
▁profunda	-8670
▁reconocí	-8671
▁relajado	-8672
▁supieras	-8673
▁uniforme	-8674
▁venganza	-8675
▁victoria	-8676
ltimamente	-8677
▁actividad	-8678
▁asistente	-8679
▁atmósfera	-8680
▁atractivo	-8681
▁colección	-8682
▁comprando	-8683
▁compraría	-8684
▁comprende	-8685
▁condujera	-8686
▁describió	-8687
▁encargaré	-8688
▁enseñarte	-8689
▁familiari	-8690
▁funcionan	-8691
▁hicisteis	-8692
▁juramento	-8693
▁mentirosa	-8694
▁miércoles	-8695
▁novelista	-8696
▁perdonado	-8697
▁preguntes	-8698
▁propiedad	-8699
▁semejante	-8700
▁sonrieron	-8701
▁terminará	-8702
▁arreglando	-8703
▁arrepentir	-8704
▁astronauta	-8705
▁británicos	-8706
▁comenzando	-8707
▁conciencia	-8708
▁consideran	-8709
▁demasiadas	-8710
▁despertado	-8711
▁divertimos	-8712
▁estaciones	-8713
▁gravemente	-8714
▁haciéndolo	-8715
▁levantarte	-8716
▁nacimiento	-8717
▁obviamente	-8718
▁olvidadizo	-8719
▁secretaria	-8720
▁sobrevivió	-8721
▁sucediendo	-8722
▁traducción	-8723
▁competencia	-8724
▁convencerle	-8725
▁despidieron	-8726
▁interrumpir	-8727
▁presupuesto	-8728
▁satisfechos	-8729
▁secuestrado	-8730
▁suministros	-8731
▁veterinario	-8732
▁desagradable	-8733
▁pensamientos	-8734
▁presentimiento	-8735
▁repentinamente	-8736
bó	-8737
cr	-8738
ky	-8739
tn	-8740
új	-8741
00.	-8742
Dis	-8743
cre	-8744
ecu	-8745
enó	-8746
fía	-8747
hue	-8748
lón	-8749
pul	-8750
rer	-8751
uló	-8752
yen	-8753
▁At	-8754
▁Tó	-8755
▁ló	-8756
▁sh	-8757
Escu	-8758
abul	-8759
dalo	-8760
difi	-8761
drio	-8762
irme	-8763
izon	-8764
ller	-8765
mail	-8766
puse	-8767
raba	-8768
trib	-8769
uega	-8770
unta	-8771
unté	-8772
vase	-8773
vidu	-8774
▁Acu	-8775
▁Hil	-8776
▁Pin	-8777
▁Quí	-8778
▁Van	-8779
▁amb	-8780
▁det	-8781
▁emi	-8782
▁fea	-8783
▁fil	-8784
▁fué	-8785
▁lío	-8786
▁num	-8787
▁tér	-8788
Conoc	-8789
Hasta	-8790
Llama	-8791
Nunca	-8792
Saben	-8793
Sobre	-8794
arias	-8795
asion	-8796
cante	-8797
dilla	-8798
ernos	-8799
ganse	-8800
gerte	-8801
grama	-8802
kespe	-8803
seguí	-8804
teras	-8805
tible	-8806
ámalo	-8807
ético	-8808
▁Anti	-8809
▁Asia	-8810
▁Cayó	-8811
▁Cier	-8812
▁Date	-8813
▁Duer	-8814
▁Hola	-8815
▁Invi	-8816
▁Llor	-8817
▁Mire	-8818
▁Olví	-8819
▁Pací	-8820
▁Pasa	-8821
▁Sent	-8822
▁Sube	-8823
▁Temo	-8824
▁Tomó	-8825
▁abol	-8826
▁acum	-8827
▁agre	-8828
▁ando	-8829
▁aves	-8830
▁baña	-8831
▁cabe	-8832
▁casé	-8833
▁coro	-8834
▁curi	-8835
▁desp	-8836
▁fero	-8837
▁fuga	-8838
▁hura	-8839
▁imág	-8840
▁insi	-8841
▁leas	-8842
▁metí	-8843
▁miré	-8844
▁nado	-8845
▁nega	-8846
▁oigo	-8847
▁olfa	-8848
▁palo	-8849
▁pira	-8850
▁pisó	-8851
▁rana	-8852
▁reda	-8853
▁resi	-8854
▁risa	-8855
▁term	-8856
Entien	-8857
Estaba	-8858
andona	-8859
chemos	-8860
ctores	-8861
eciera	-8862
iembre	-8863
inaria	-8864
staron	-8865
torios	-8866
áblame	-8867
ándalo	-8868
ándole	-8869
ísimas	-8870
▁Colón	-8871
▁Falta	-8872
▁Marte	-8873
▁Noche	-8874
▁Orden	-8875
▁Pocas	-8876
▁Podía	-8877
▁Renun	-8878
▁Saben	-8879
▁Suiza	-8880
▁Tenga	-8881
▁abras	-8882
▁ancho	-8883
▁anoch	-8884
▁aquél	-8885
▁aviso	-8886
▁buses	-8887
▁calen	-8888
▁casta	-8889
▁crema	-8890
▁desaf	-8891
▁droga	-8892
▁empap	-8893
▁energ	-8894
▁enero	-8895
▁fabri	-8896
▁grado	-8897
▁hirió	-8898
▁ideal	-8899
▁impar	-8900
▁indef	-8901
▁latín	-8902
▁maris	-8903
▁mentí	-8904
▁orien	-8905
▁pagan	-8906
▁pecho	-8907
▁perse	-8908
▁podri	-8909
▁quizá	-8910
▁redon	-8911
▁robot	-8912
▁rompí	-8913
▁soltó	-8914
▁soñar	-8915
▁suyos	-8916
▁temen	-8917
▁toman	-8918
▁travi	-8919
▁truco	-8920
▁túnel	-8921
▁verás	-8922
Siempre	-8923
amentos	-8924
ciencia	-8925
ización	-8926
▁Comien	-8927
▁Cuento	-8928
▁Decile	-8929
▁Grecia	-8930
▁Llegar	-8931
▁Sostén	-8932
▁Verdad	-8933
▁abarro	-8934
▁abrazó	-8935
▁arrast	-8936
▁bastón	-8937
▁burlar	-8938
▁chinos	-8939
▁conclu	-8940
▁cortas	-8941
▁cortés	-8942
▁cucara	-8943
▁cuente	-8944
▁decidí	-8945
▁descal	-8946
▁diente	-8947
▁engaño	-8948
▁ensayo	-8949
▁figura	-8950
▁flecha	-8951
▁fluido	-8952
▁fortal	-8953
▁fritas	-8954
▁futbol	-8955
▁gatito	-8956
▁gratui	-8957
▁graves	-8958
▁grupos	-8959
▁huesos	-8960
▁indisp	-8961
▁ligera	-8962
▁lleves	-8963
▁luchar	-8964
▁líneas	-8965
▁margar	-8966
▁marrón	-8967
▁mastic	-8968
▁morder	-8969
▁observ	-8970
▁ocultó	-8971
▁pillar	-8972
▁pondré	-8973
▁puntos	-8974
▁sigues	-8975
▁sobres	-8976
▁sótano	-8977
▁traido	-8978
▁traiga	-8979
▁traigo	-8980
▁ventas	-8981
▁vergon	-8982
▁vidrio	-8983
▁zapato	-8984
entación	-8985
ficiente	-8986
kespeare	-8987
▁Comamos	-8988
▁Estaría	-8989
▁Estudia	-8990
▁Hiciste	-8991
▁Intento	-8992
▁Jugamos	-8993
▁almacén	-8994
▁apasion	-8995
▁aseguró	-8996
▁asistió	-8997
▁ballena	-8998
▁besando	-8999
▁cacahue	-9000
▁canasta	-9001
▁celebra	-9002
▁comemos	-9003
▁confíes	-9004
▁cuestan	-9005
▁dejando	-9006
▁duermen	-9007
▁efectos	-9008
▁estante	-9009
▁estatua	-9010
▁finales	-9011
▁florero	-9012
▁fumando	-9013
▁hombros	-9014
▁horizon	-9015
▁hábitos	-9016
▁insensa	-9017
▁juegues	-9018
▁lavarse	-9019
▁llámame	-9020
▁matarte	-9021
▁materia	-9022
▁nuclear	-9023
▁objetos	-9024
▁orgullo	-9025
▁palacio	-9026
▁parezca	-9027
▁perrito	-9028
▁planeas	-9029
▁pollera	-9030
▁produjo	-9031
▁pusiera	-9032
▁respira	-9033
▁salimos	-9034
▁servirá	-9035
▁señales	-9036
▁sincera	-9037
▁soleado	-9038
▁sueltes	-9039
▁supiste	-9040
▁susurró	-9041
▁tardará	-9042
▁terminé	-9043
▁tomaste	-9044
▁vendido	-9045
▁vendrás	-9046
▁versión	-9047
Estuviste	-9048
Recibiste	-9049
fortunado	-9050
▁Aquellos	-9051
▁Pacífico	-9052
▁Vosotras	-9053
▁absoluta	-9054
▁administ	-9055
▁aguantar	-9056
▁aplaudió	-9057
▁asustada	-9058
▁cachorro	-9059
▁castigar	-9060
▁cercanos	-9061
▁coartada	-9062
▁conozcas	-9063
▁consiste	-9064
▁contaste	-9065
▁contenta	-9066
▁continúa	-9067
▁defender	-9068
▁devolvió	-9069
▁divirtió	-9070
▁embajada	-9071
▁generoso	-9072
▁granjero	-9073
▁guardado	-9074
▁imágenes	-9075
▁individu	-9076
▁italiano	-9077
▁lamentar	-9078
▁mejorado	-9079
▁observar	-9080
▁ocupadas	-9081
▁original	-9082
▁pantalla	-9083
▁pinturas	-9084
▁podíamos	-9085
▁prestaré	-9086
▁sabíamos	-9087
▁sediento	-9088
▁solíamos	-9089
▁vendrías	-9090
▁Empecemos	-9091
▁acostarme	-9092
▁asombroso	-9093
▁cancelado	-9094
▁ceremonia	-9095
▁complacer	-9096
▁contentos	-9097
▁diversión	-9098
▁edificios	-9099
▁eléctrico	-9100
▁empezamos	-9101
▁encendida	-9102
▁estúpidos	-9103
▁excursión	-9104
▁favoritos	-9105
▁incendios	-9106
▁lastimado	-9107
▁pastillas	-9108
▁políticas	-9109
▁practicar	-9110
▁prometido	-9111
▁relajarme	-9112
▁retrasado	-9113
▁sacerdote	-9114
▁sanguíneo	-9115
▁sentarnos	-9116
▁simpático	-9117
▁Comencemos	-9118
▁Hablaremos	-9119
▁arquitecto	-9120
▁arriesgado	-9121
▁encontraba	-9122
▁inesperado	-9123
▁inevitable	-9124
▁influencia	-9125
▁intercambi	-9126
▁lastimarte	-9127
▁obligación	-9128
▁permitirme	-9129
▁pronunciar	-9130
▁pronóstico	-9131
▁resultaría	-9132
▁telefónica	-9133
▁verdaderos	-9134
▁Shakespeare	-9135
▁adolescente	-9136
▁atropellado	-9137
▁combustible	-9138
▁declaración	-9139
▁encantadora	-9140
▁fluidamente	-9141
▁intenciones	-9142
▁presentarte	-9143
▁respiración	-9144
▁sorprendida	-9145
▁sorprendente	-9146
▁Aparentemente	-9147
▁desconcertado	-9148
▁prácticamente	-9149
▁Verdaderamente	-9150
▁circunstancias	-9151
▁descubrimiento	-9152
30	-9153
fu	-9154
fó	-9155
ki	-9156
áy	-9157
úe	-9158
Hoy	-9159
Las	-9160
Tra	-9161
Vos	-9162
bor	-9163
his	-9164
hua	-9165
imi	-9166
imo	-9167
iva	-9168
ker	-9169
koh	-9170
nge	-9171
ock	-9172
rag	-9173
rup	-9174
tic	-9175
íos	-9176
▁13	-9177
▁Ga	-9178
▁Mo	-9179
▁Pá	-9180
▁il	-9181
013.	-9182
Aquí	-9183
Cree	-9184
apro	-9185
bete	-9186
bran	-9187
caño	-9188
daré	-9189
deme	-9190
galo	-9191
isas	-9192
oles	-9193
ompe	-9194
onia	-9195
ortó	-9196
piro	-9197
port	-9198
ptop	-9199
rota	-9200
valo	-9201
vero	-9202
▁Bar	-9203
▁Ber	-9204
▁Cuí	-9205
▁Dás	-9206
▁Hal	-9207
▁Hol	-9208
▁Lea	-9209
▁Oye	-9210
▁Pos	-9211
▁Soñ	-9212
▁Tai	-9213
▁Ter	-9214
▁Usu	-9215
▁apo	-9216
▁ave	-9217
▁bru	-9218
▁eri	-9219
▁eru	-9220
▁eti	-9221
▁fro	-9222
▁ina	-9223
▁ira	-9224
▁nar	-9225
Encon	-9226
billo	-9227
cador	-9228
chame	-9229
dirse	-9230
gador	-9231
gimos	-9232
icana	-9233
inete	-9234
istro	-9235
izado	-9236
maron	-9237
rezca	-9238
sider	-9239
tendo	-9240
uelan	-9241
urope	-9242
vitud	-9243
énico	-9244
ísima	-9245
▁Allí	-9246
▁Andá	-9247
▁Char	-9248
▁Cruz	-9249
▁Cump	-9250
▁Diez	-9251
▁Envi	-9252
▁Gira	-9253
▁Gran	-9254
▁Puse	-9255
▁Segu	-9256
▁Toco	-9257
▁Vini	-9258
▁abus	-9259
▁acto	-9260
▁arco	-9261
▁bost	-9262
▁brin	-9263
▁cenó	-9264
▁codo	-9265
▁estr	-9266
▁fabu	-9267
▁giró	-9268
▁guap	-9269
▁mayo	-9270
▁mona	-9271
▁novi	-9272
▁paté	-9273
▁pida	-9274
▁raci	-9275
▁rama	-9276
▁remo	-9277
▁some	-9278
▁soñó	-9279
▁tasa	-9280
▁tome	-9281
▁trop	-9282
▁unió	-9283
▁vigi	-9284
▁ésos	-9285
Mañana	-9286
Quiero	-9287
brando	-9288
ineros	-9289
iniste	-9290
kohama	-9291
ladora	-9292
llando	-9293
ngeles	-9294
omitas	-9295
párate	-9296
quinas	-9297
streme	-9298
▁Alqui	-9299
▁Atlán	-9300
▁Cambi	-9301
▁Corea	-9302
▁Hazme	-9303
▁Huele	-9304
▁Nadar	-9305
▁Ponlo	-9306
▁Reino	-9307
▁abeja	-9308
▁absor	-9309
▁acabe	-9310
▁actúa	-9311
▁afuer	-9312
▁alfab	-9313
▁amaré	-9314
▁animó	-9315
▁bodas	-9316
▁burló	-9317
▁buzón	-9318
▁cable	-9319
▁calcu	-9320
▁campe	-9321
▁caros	-9322
▁casos	-9323
▁centí	-9324
▁cerez	-9325
▁champ	-9326
▁colap	-9327
▁convi	-9328
▁dejen	-9329
▁demon	-9330
▁dentí	-9331
▁desac	-9332
▁dimos	-9333
▁entri	-9334
▁feroz	-9335
▁festi	-9336
▁firma	-9337
▁frust	-9338
▁gorra	-9339
▁harta	-9340
▁inici	-9341
▁legal	-9342
▁limón	-9343
▁mantu	-9344
▁mueve	-9345
▁multa	-9346
▁obten	-9347
▁oveja	-9348
▁pajar	-9349
▁pelos	-9350
▁perju	-9351
▁pidas	-9352
▁plazo	-9353
▁porta	-9354
▁pulso	-9355
▁quema	-9356
▁rabia	-9357
▁rayos	-9358
▁recto	-9359
▁retra	-9360
▁ricas	-9361
▁rifle	-9362
▁rompe	-9363
▁sales	-9364
▁salía	-9365
▁sudor	-9366
▁tigre	-9367
▁tires	-9368
▁tocas	-9369
▁truen	-9370
▁ópera	-9371
ecieron	-9372
ortamos	-9373
queroso	-9374
quillos	-9375
tencias	-9376
tábamos	-9377
▁Admiro	-9378
▁Adonde	-9379
▁Corrió	-9380
▁Dejame	-9381
▁Déjeme	-9382
▁Hilton	-9383
▁Seamos	-9384
▁Varios	-9385
▁Volvió	-9386
▁abrazo	-9387
▁agrado	-9388
▁ajetre	-9389
▁alivio	-9390
▁aplica	-9391
▁apuros	-9392
▁asusta	-9393
▁asustó	-9394
▁atasco	-9395
▁ayudan	-9396
▁ayuden	-9397
▁barcos	-9398
▁bronce	-9399
▁celosa	-9400
▁cocinó	-9401
▁colgar	-9402
▁copias	-9403
▁corría	-9404
▁criada	-9405
▁criado	-9406
▁descui	-9407
▁docena	-9408
▁dormía	-9409
▁empeza	-9410
▁empujó	-9411
▁entres	-9412
▁escape	-9413
▁escaso	-9414
▁exigió	-9415
▁fiable	-9416
▁filete	-9417
▁frenos	-9418
▁frutos	-9419
▁gobern	-9420
▁grites	-9421
▁hacían	-9422
▁instal	-9423
▁laguna	-9424
▁liberó	-9425
▁lógica	-9426
▁mancha	-9427
▁medias	-9428
▁mismas	-9429
▁mojado	-9430
▁mueras	-9431
▁mueren	-9432
▁muevas	-9433
▁objeto	-9434
▁parano	-9435
▁pegado	-9436
▁portón	-9437
▁pésima	-9438
▁póquer	-9439
▁quebró	-9440
▁quinto	-9441
▁recibo	-9442
▁seamos	-9443
▁severo	-9444
▁social	-9445
▁sonríe	-9446
▁sordos	-9447
▁tacaño	-9448
▁tercer	-9449
▁típico	-9450
▁vacías	-9451
▁vendré	-9452
▁útiles	-9453
Preferir	-9454
▁Díganme	-9455
▁Escribí	-9456
▁Escríbe	-9457
▁Estudié	-9458
▁Llamaré	-9459
▁Llegaré	-9460
▁Perdona	-9461
▁Quítate	-9462
▁Sobrevi	-9463
▁Trabaja	-9464
▁apurado	-9465
▁arregló	-9466
▁arrestó	-9467
▁ascenso	-9468
▁bañarme	-9469
▁besarte	-9470
▁buscado	-9471
▁cambies	-9472
▁camello	-9473
▁camisas	-9474
▁cantaba	-9475
▁cazador	-9476
▁cediste	-9477
▁costaba	-9478
▁cuchara	-9479
▁cuidará	-9480
▁dejaran	-9481
▁deprisa	-9482
▁derramó	-9483
▁desafío	-9484
▁dolores	-9485
▁encerró	-9486
▁encogió	-9487
▁enfrent	-9488
▁entrado	-9489
▁enviado	-9490
▁equipos	-9491
▁escasez	-9492
▁fáciles	-9493
▁golpear	-9494
▁honesta	-9495
▁huellas	-9496
▁ilusión	-9497
▁impacto	-9498
▁inneces	-9499
▁insulto	-9500
▁insultó	-9501
▁jubilar	-9502
▁maletín	-9503
▁mascota	-9504
▁matando	-9505
▁mientas	-9506
▁moleste	-9507
▁mudarse	-9508
▁negocia	-9509
▁noventa	-9510
▁observó	-9511
▁ofrecer	-9512
▁pagaron	-9513
▁pedimos	-9514
▁pintado	-9515
▁prender	-9516
▁prohíbe	-9517
▁prometí	-9518
▁pública	-9519
▁realizó	-9520
▁reflexi	-9521
▁regalar	-9522
▁respeta	-9523
▁sección	-9524
▁soborno	-9525
▁supervi	-9526
▁supongo	-9527
▁tomates	-9528
▁veremos	-9529
▁visitas	-9530
▁víctima	-9531
▁últimas	-9532
Entiendes	-9533
ceramente	-9534
▁Acabamos	-9535
▁Conseguí	-9536
▁Continúa	-9537
▁Nuestras	-9538
▁Perdimos	-9539
▁Yokohama	-9540
▁aceptado	-9541
▁acerques	-9542
▁advertir	-9543
▁arrancar	-9544
▁artifici	-9545
▁aterrizó	-9546
▁billetes	-9547
▁cerradas	-9548
▁cicatriz	-9549
▁claridad	-9550
▁completa	-9551
▁conocida	-9552
▁culparte	-9553
▁distinto	-9554
▁dormidos	-9555
▁entendía	-9556
▁funcione	-9557
▁hablaste	-9558
▁hablemos	-9559
▁hicieras	-9560
▁llevando	-9561
▁mejillas	-9562
▁mentiste	-9563
▁nacional	-9564
▁navideña	-9565
▁ordenada	-9566
▁patético	-9567
▁plástico	-9568
▁pretende	-9569
▁prevenir	-9570
▁provocar	-9571
▁realizar	-9572
▁rechazar	-9573
▁registro	-9574
▁rendirse	-9575
▁semestre	-9576
▁sencilla	-9577
▁sentimos	-9578
▁separado	-9579
▁taburete	-9580
▁travieso	-9581
▁vendedor	-9582
▁vestidos	-9583
▁violento	-9584
▁vitamina	-9585
▁vuestras	-9586
Entendiste	-9587
▁Podríamos	-9588
▁aceptable	-9589
▁aconsejar	-9590
▁asqueroso	-9591
▁cerradura	-9592
▁descuento	-9593
▁dieciséis	-9594
▁económico	-9595
▁encantaba	-9596
▁engordado	-9597
▁equivocas	-9598
▁escuchaba	-9599
▁espantoso	-9600
▁especiali	-9601
▁estuviese	-9602
▁eternidad	-9603
▁fotógrafo	-9604
▁gramática	-9605
▁identidad	-9606
▁invitaste	-9607
▁marineros	-9608
▁mosquitos	-9609
▁objetivos	-9610
▁oscurezca	-9611
▁palomitas	-9612
▁prestando	-9613
▁prestarle	-9614
▁queríamos	-9615
▁redacción	-9616
▁represent	-9617
▁separados	-9618
▁servicios	-9619
▁sintieron	-9620
▁sufriendo	-9621
▁universal	-9622
Encontraste	-9623
Preferirías	-9624
▁Bienvenido	-9625
▁Obviamente	-9626
▁Sentémonos	-9627
▁Trabajamos	-9628
▁Usualmente	-9629
▁aprovechar	-9630
▁asistieron	-9631
▁complicada	-9632
▁criminales	-9633
▁cuidadosos	-9634
▁desperdici	-9635
▁equilibrio	-9636
▁esclavitud	-9637
▁escucharlo	-9638
▁estropeado	-9639
▁fantástico	-9640
▁molestarte	-9641
▁peligrosos	-9642
▁preguntaré	-9643
▁principios	-9644
▁relaciones	-9645
▁revolución	-9646
▁sospechaba	-9647
▁suavemente	-9648
▁superficie	-9649
▁terremotos	-9650
▁trabajamos	-9651
▁Actualmente	-9652
▁afortunados	-9653
▁agradecerle	-9654
▁convertirme	-9655
▁decepcionar	-9656
▁desconocido	-9657
▁encontrarse	-9658
▁entendieron	-9659
▁esperábamos	-9660
▁fuertemente	-9661
▁guitarrista	-9662
▁interrumpas	-9663
▁preguntarme	-9664
▁principales	-9665
▁desorientado	-9666
▁medicamentos	-9667
▁registradora	-9668
▁vegetarianos	-9669
▁desafortunado	-9670
▁internacional	-9671
▁posibilidades	-9672
▁pronunciación	-9673
▁automovilístico	-9674
NI	-9675
Oh	-9676
lf	-9677
ép	-9678
Era	-9679
Fue	-9680
Jue	-9681
Per	-9682
VNI	-9683
all	-9684
ans	-9685
bby	-9686
cis	-9687
cte	-9688
ecí	-9689
ill	-9690
mbo	-9691
mes	-9692
rie	-9693
ríe	-9694
une	-9695
vol	-9696
▁Fí	-9697
▁Ti	-9698
▁bú	-9699
▁fó	-9700
▁hí	-9701
Ayer	-9702
Deja	-9703
Dese	-9704
Sois	-9705
ance	-9706
anti	-9707
arde	-9708
atía	-9709
bias	-9710
came	-9711
caré	-9712
chup	-9713
cita	-9714
ckey	-9715
digo	-9716
ecta	-9717
enzo	-9718
erne	-9719
geré	-9720
gulo	-9721
iana	-9722
incu	-9723
oros	-9724
pero	-9725
rada	-9726
salo	-9727
tore	-9728
uras	-9729
uses	-9730
zate	-9731
▁Dil	-9732
▁Hey	-9733
▁Muy	-9734
▁Rom	-9735
▁Sur	-9736
▁Váy	-9737
▁aco	-9738
▁aga	-9739
▁ajo	-9740
▁arb	-9741
▁aso	-9742
▁ate	-9743
▁box	-9744
▁bás	-9745
▁bús	-9746
▁coo	-9747
▁crí	-9748
▁díg	-9749
▁flu	-9750
▁hol	-9751
▁ket	-9752
▁leg	-9753
▁lon	-9754
ambul	-9755
aréis	-9756
asión	-9757
cedió	-9758
cenas	-9759
escri	-9760
ficas	-9761
fines	-9762
fonos	-9763
garte	-9764
hisky	-9765
ibles	-9766
ienda	-9767
laban	-9768
mbolo	-9769
mbras	-9770
micos	-9771
mones	-9772
puedo	-9773
quién	-9774
racas	-9775
rador	-9776
resas	-9777
rilla	-9778
saron	-9779
stame	-9780
taros	-9781
tarra	-9782
ución	-9783
uelas	-9784
uelen	-9785
yente	-9786
zadas	-9787
zarte	-9788
ómete	-9789
▁Bell	-9790
▁Ever	-9791
▁OVNI	-9792
▁Poca	-9793
▁Saca	-9794
▁Shin	-9795
▁Tran	-9796
▁afer	-9797
▁argu	-9798
▁asal	-9799
▁azar	-9800
▁base	-9801
▁cadá	-9802
▁clic	-9803
▁detu	-9804
▁enca	-9805
▁enví	-9806
▁esen	-9807
▁gota	-9808
▁gris	-9809
▁hoyo	-9810
▁iles	-9811
▁inmi	-9812
▁insp	-9813
▁irás	-9814
▁jard	-9815
▁mago	-9816
▁maní	-9817
▁mens	-9818
▁mete	-9819
▁mide	-9820
▁misa	-9821
▁moti	-9822
▁nube	-9823
▁obst	-9824
▁olla	-9825
▁oyes	-9826
▁pega	-9827
▁pidi	-9828
▁pura	-9829
▁salv	-9830
▁sana	-9831
▁saté	-9832
▁titu	-9833
▁tiza	-9834
▁toco	-9835
▁tone	-9836
▁votó	-9837
Seguro	-9838
Sigues	-9839
ciosos	-9840
ecería	-9841
enciar	-9842
grafía	-9843
olverá	-9844
teando	-9845
árgate	-9846
érselo	-9847
óviles	-9848
▁Ayudé	-9849
▁Confi	-9850
▁Conse	-9851
▁Consí	-9852
▁Corri	-9853
▁Corta	-9854
▁Cuida	-9855
▁Despi	-9856
▁Detén	-9857
▁Dimos	-9858
▁Envía	-9859
▁Franc	-9860
▁Jesús	-9861
▁Leván	-9862
▁Luces	-9863
▁Parec	-9864
▁Salgo	-9865
▁Tarde	-9866
▁Unido	-9867
▁Volví	-9868
▁acuer	-9869
▁ahogó	-9870
▁apaga	-9871
▁araña	-9872
▁atajo	-9873
▁barca	-9874
▁basta	-9875
▁bebas	-9876
▁botes	-9877
▁canal	-9878
▁centa	-9879
▁colab	-9880
▁corri	-9881
▁crist	-9882
▁cruce	-9883
▁decís	-9884
▁deseó	-9885
▁despa	-9886
▁eches	-9887
▁espía	-9888
▁farma	-9889
▁harán	-9890
▁hobby	-9891
▁incre	-9892
▁lechu	-9893
▁liado	-9894
▁llevé	-9895
▁logra	-9896
▁mandé	-9897
▁marzo	-9898
▁mates	-9899
▁mecán	-9900
▁miles	-9901
▁mosca	-9902
▁niega	-9903
▁nieto	-9904
▁niñez	-9905
▁oreja	-9906
▁pateó	-9907
▁pedía	-9908
▁perca	-9909
▁plaza	-9910
▁plena	-9911
▁ponen	-9912
▁propa	-9913
▁quemé	-9914
▁rebel	-9915
▁resol	-9916
▁retor	-9917
▁rumbo	-9918
▁sello	-9919
▁serlo	-9920
▁shock	-9921
▁sonro	-9922
▁sopló	-9923
▁tatua	-9924
▁temor	-9925
▁vengo	-9926
▁verse	-9927
▁veían	-9928
▁árabe	-9929
Termina	-9930
dencial	-9931
ensable	-9932
grantes	-9933
icación	-9934
levante	-9935
vientes	-9936
▁Cómete	-9937
▁Hablas	-9938
▁Hágame	-9939
▁Prepar	-9940
▁Univer	-9941
▁Visité	-9942
▁aburre	-9943
▁acepta	-9944
▁afirma	-9945
▁agenda	-9946
▁agente	-9947
▁anticu	-9948
▁apague	-9949
▁bancos	-9950
▁barrer	-9951
▁brilla	-9952
▁cachor	-9953
▁cambié	-9954
▁cardía	-9955
▁chance	-9956
▁choque	-9957
▁chubas	-9958
▁confli	-9959
▁cuento	-9960
▁cueste	-9961
▁dejará	-9962
▁dejase	-9963
▁desvan	-9964
▁dibujó	-9965
▁duelen	-9966
▁enfada	-9967
▁estadí	-9968
▁europe	-9969
▁exacta	-9970
▁hagáis	-9971
▁hockey	-9972
▁inquie	-9973
▁ladrar	-9974
▁laptop	-9975
▁leyera	-9976
▁leíste	-9977
▁limpie	-9978
▁modifi	-9979
▁mojada	-9980
▁muñeco	-9981
▁nevada	-9982
▁nevará	-9983
▁obliga	-9984
▁origen	-9985
▁ostras	-9986
▁pensás	-9987
▁pesimi	-9988
▁pierda	-9989
▁planeo	-9990
▁pondrá	-9991
▁rastro	-9992
▁regañó	-9993
▁reunir	-9994
▁reírse	-9995
▁sabrás	-9996
▁salada	-9997
▁sangra	-9998
▁señaló	-9999
▁sillón	-10000
▁soltar	-10001
▁tardar	-10002
▁tardes	-10003
▁tirado	-10004
▁traeré	-10005
▁tropas	-10006
▁trucos	-10007
▁volcán	-10008
▁volvía	-10009
▁válido	-10010
▁Éramos	-10011
cionales	-10012
peración	-10013
resúrate	-10014
saciones	-10015
tentemos	-10016
▁Adivina	-10017
▁Creemos	-10018
▁Durante	-10019
▁Déjanos	-10020
▁Escocia	-10021
▁Esperad	-10022
▁Hablaré	-10023
▁Hacemos	-10024
▁Levanta	-10025
▁Llévate	-10026
▁Parecen	-10027
▁Tomamos	-10028
▁Vuestra	-10029
▁abriera	-10030
▁acuesto	-10031
▁adoptar	-10032
▁afueras	-10033
▁agricul	-10034
▁alcance	-10035
▁amenazó	-10036
▁apagado	-10037
▁atender	-10038
▁bebidas	-10039
▁besaron	-10040
▁boletos	-10041
▁cadáver	-10042
▁carbono	-10043
▁chances	-10044
▁cintura	-10045
▁cirugía	-10046
▁colegas	-10047
▁comimos	-10048
▁consume	-10049
▁coreano	-10050
▁costoso	-10051
▁creerle	-10052
▁cámaras	-10053
▁cómodos	-10054
▁dejarme	-10055
▁desanim	-10056
▁diablos	-10057
▁dibujar	-10058
▁doctora	-10059
▁encantó	-10060
▁entorno	-10061
▁escabul	-10062
▁escoger	-10063
▁espague	-10064
▁estarán	-10065
▁factura	-10066
▁financi	-10067
▁forzado	-10068
▁ganaría	-10069
▁hablará	-10070
▁ingreso	-10071
▁inusual	-10072
▁jueguen	-10073
▁jugaban	-10074
▁ketchup	-10075
▁lastimé	-10076
▁lavando	-10077
▁lloraba	-10078
▁mandado	-10079
▁manteca	-10080
▁menores	-10081
▁merezco	-10082
▁mienten	-10083
▁muriera	-10084
▁ocasion	-10085
▁paisaje	-10086
▁palomas	-10087
▁pararon	-10088
▁pasillo	-10089
▁pedirme	-10090
▁plátano	-10091
▁ponerlo	-10092
▁proceso	-10093
▁puestas	-10094
▁pusimos	-10095
▁quédate	-10096
▁revelar	-10097
▁revisar	-10098
▁sacaste	-10099
▁salvado	-10100
▁secreta	-10101
▁similar	-10102
▁símbolo	-10103
▁taxista	-10104
▁tenista	-10105
▁tobillo	-10106
▁trasero	-10107
▁tumbado	-10108
▁turista	-10109
▁tuviste	-10110
▁usuario	-10111
▁vanidos	-10112
▁verdura	-10113
▁vivimos	-10114
▁vuelvan	-10115
losamente	-10116
▁Nosotras	-10117
▁abducido	-10118
▁abiertos	-10119
▁acusaron	-10120
▁adquirir	-10121
▁agresivo	-10122
▁ahogarse	-10123
▁almuerza	-10124
▁ambiente	-10125
▁apagaron	-10126
▁arruinar	-10127
▁ayudaron	-10128
▁biología	-10129
▁camarero	-10130
▁cebollas	-10131
▁cirujano	-10132
▁cogieron	-10133
▁colgando	-10134
▁conduces	-10135
▁confiaba	-10136
▁consigue	-10137
▁contando	-10138
▁culpando	-10139
▁culparía	-10140
▁delfines	-10141
▁desampar	-10142
▁divorció	-10143
▁doloroso	-10144
▁enciende	-10145
▁enfrente	-10146
▁enseñado	-10147
▁enterado	-10148
▁entienda	-10149
▁estabais	-10150
▁estricto	-10151
▁etiqueta	-10152
▁extendió	-10153
▁festival	-10154
▁gallinas	-10155
▁gritando	-10156
▁hablaron	-10157
▁huérfano	-10158
▁intentas	-10159
▁levantas	-10160
▁llamarte	-10161
▁llevarte	-10162
▁lucharon	-10163
▁mensajes	-10164
▁monedero	-10165
▁máquinas	-10166
▁nacieron	-10167
▁partidos	-10168
▁pintando	-10169
▁planeaba	-10170
▁poderoso	-10171
▁preocupo	-10172
▁práctico	-10173
▁quedaras	-10174
▁quedarás	-10175
▁quitarse	-10176
▁realista	-10177
▁reciente	-10178
▁refieres	-10179
▁rellenar	-10180
▁reparado	-10181
▁salgamos	-10182
▁sobresal	-10183
▁sostenía	-10184
▁superior	-10185
▁tortugas	-10186
▁trabajes	-10187
▁vehículo	-10188
Terminaste	-10189
ciosamente	-10190
▁acordarme	-10191
▁acostarte	-10192
▁altamente	-10193
▁anochecer	-10194
▁asiáticos	-10195
▁atropelló	-10196
▁candidato	-10197
▁capturado	-10198
▁compartió	-10199
▁compasión	-10200
▁concierne	-10201
▁conducido	-10202
▁considero	-10203
▁consideró	-10204
▁correspon	-10205
▁deportivo	-10206
▁desprecio	-10207
▁detective	-10208
▁discutido	-10209
▁empezaste	-10210
▁escaparon	-10211
▁escribiré	-10212
▁escándalo	-10213
▁esquiando	-10214
▁estudiara	-10215
▁estupidez	-10216
▁explicaré	-10217
▁expresión	-10218
▁filosofía	-10219
▁fracasado	-10220
▁granjeros	-10221
▁habituado	-10222
▁indignado	-10223
▁ingeniero	-10224
▁inmediata	-10225
▁intervino	-10226
▁inversión	-10227
▁magnífica	-10228
▁meditando	-10229
▁minifalda	-10230
▁necesaria	-10231
▁neumático	-10232
▁participó	-10233
▁personaje	-10234
▁presentar	-10235
▁prestarme	-10236
▁reconozco	-10237
▁recuperar	-10238
▁regresará	-10239
▁requieren	-10240
▁sintiendo	-10241
▁solitario	-10242
▁sumamente	-10243
▁tonterías	-10244
▁tranquili	-10245
▁vendiendo	-10246
▁visitarte	-10247
▁vitaminas	-10248
▁Almorzamos	-10249
▁Terminemos	-10250
▁apresurado	-10251
▁bancarrota	-10252
▁conclusión	-10253
▁desilusion	-10254
▁disgustado	-10255
▁divertirse	-10256
▁entrevista	-10257
▁escondidas	-10258
▁estaríamos	-10259
▁existencia	-10260
▁generación	-10261
▁mantenerte	-10262
▁movimiento	-10263
▁ocurriendo	-10264
▁peligrosas	-10265
▁peluquería	-10266
▁proporcion	-10267
▁pudiéramos	-10268
▁recordarte	-10269
▁respondido	-10270
▁soportarlo	-10271
▁telefónico	-10272
▁vergonzoso	-10273
▁Encontrarás	-10274
▁abandonaron	-10275
▁actualmente	-10276
▁apariencias	-10277
▁ciertamente	-10278
▁conseguirte	-10279
▁crecimiento	-10280
▁direcciones	-10281
▁disculparse	-10282
▁emocionados	-10283
▁entenderías	-10284
▁esperándote	-10285
▁funcionando	-10286
▁impacientes	-10287
▁ordenadores	-10288
▁presentarme	-10289
▁reproductor	-10290
▁voluntarios	-10291
▁Sinceramente	-10292
▁aburrimiento	-10293
▁comunicación	-10294
▁construyeron	-10295
▁inteligencia	-10296
▁nacionalidad	-10297
▁pertenencias	-10298
▁probabilidad	-10299
▁regularmente	-10300
▁encontraremos	-10301
▁principiantes	-10302
▁preocupaciones	-10303
▁estacionamiento	-10304
!,	-10305
Be	-10306
th	-10307
uy	-10308
Voy	-10309
cif	-10310
cli	-10311
clo	-10312
cor	-10313
dea	-10314
ear	-10315
grá	-10316
ham	-10317
jad	-10318
lin	-10319
lén	-10320
mpa	-10321
pia	-10322
pur	-10323
vis	-10324
xis	-10325
ína	-10326
▁Bo	-10327
▁Có	-10328
▁EE	-10329
▁Lé	-10330
▁Sú	-10331
▁ov	-10332
Buen	-10333
Debo	-10334
Mira	-10335
Todo	-10336
abes	-10337
ablo	-10338
adlo	-10339
alif	-10340
berg	-10341
bres	-10342
calo	-10343
cano	-10344
diar	-10345
enlo	-10346
form	-10347
frío	-10348
gida	-10349
gési	-10350
iado	-10351
igan	-10352
igas	-10353
inan	-10354
jaba	-10355
lace	-10356
olas	-10357
onía	-10358
osau	-10359
pada	-10360
pión	-10361
quia	-10362
rían	-10363
simo	-10364
sita	-10365
stin	-10366
teca	-10367
tonó	-10368
tían	-10369
udos	-10370
vaja	-10371
árme	-10372
ñeta	-10373
▁Ayú	-10374
▁Che	-10375
▁Def	-10376
▁Gri	-10377
▁Mil	-10378
▁Sed	-10379
▁Toy	-10380
▁aca	-10381
▁aun	-10382
▁azo	-10383
▁bir	-10384
▁cau	-10385
▁cub	-10386
▁cur	-10387
▁exi	-10388
▁ext	-10389
▁fic	-10390
▁hur	-10391
▁nom	-10392
▁nov	-10393
▁red	-10394
▁riñ	-10395
▁tab	-10396
▁tac	-10397
▁vul	-10398
Esper	-10399
Ojalá	-10400
Vives	-10401
ambre	-10402
buena	-10403
ceder	-10404
chale	-10405
chero	-10406
cible	-10407
ciclo	-10408
cioné	-10409
domin	-10410
estás	-10411
fista	-10412
frico	-10413
ganlo	-10414
grado	-10415
jarse	-10416
lidos	-10417
litar	-10418
llada	-10419
morre	-10420
noslo	-10421
ormes	-10422
ornia	-10423
rimir	-10424
rones	-10425
sario	-10426
tarte	-10427
teles	-10428
terno	-10429
tiera	-10430
uelle	-10431
vador	-10432
zarme	-10433
zarse	-10434
ácter	-10435
ógeno	-10436
ólogo	-10437
újula	-10438
▁Adop	-10439
▁Arre	-10440
▁Aver	-10441
▁Avís	-10442
▁Bebe	-10443
▁Cook	-10444
▁Dejo	-10445
▁Echo	-10446
▁Leer	-10447
▁Logr	-10448
▁Mánd	-10449
▁Nevó	-10450
▁Noel	-10451
▁Paso	-10452
▁Pude	-10453
▁Suél	-10454
▁alti	-10455
▁amig	-10456
▁busc	-10457
▁calu	-10458
▁cami	-10459
▁cari	-10460
▁carn	-10461
▁cató	-10462
▁curr	-10463
▁drag	-10464
▁fama	-10465
▁fati	-10466
▁fide	-10467
▁fina	-10468
▁freg	-10469
▁fósf	-10470
▁gané	-10471
▁gata	-10472
▁goma	-10473
▁grue	-10474
▁guer	-10475
▁hipó	-10476
▁inso	-10477
▁lana	-10478
▁leve	-10479
▁mudo	-10480
▁pico	-10481
▁picó	-10482
▁ping	-10483
▁pino	-10484
▁pren	-10485
▁puro	-10486
▁rabo	-10487
▁reba	-10488
▁recl	-10489
▁robé	-10490
▁roca	-10491
▁silb	-10492
▁súbi	-10493
▁usas	-10494
▁uses	-10495
▁vaci	-10496
▁vist	-10497
Conoce	-10498
Déjame	-10499
Juegas	-10500
Pensás	-10501
adería	-10502
apropi	-10503
bación	-10504
choclo	-10505
ciaron	-10506
cracia	-10507
descen	-10508
erales	-10509
huates	-10510
llanci	-10511
lájate	-10512
mieron	-10513
ositor	-10514
quemos	-10515
queros	-10516
tables	-10517
trover	-10518
ventud	-10519
éndote	-10520
értame	-10521
értelo	-10522
ésemos	-10523
ñetazo	-10524
▁Anota	-10525
▁Calif	-10526
▁Cerré	-10527
▁Conte	-10528
▁Danos	-10529
▁Dejen	-10530
▁Dinos	-10531
▁Llevé	-10532
▁Madre	-10533
▁Quita	-10534
▁Respe	-10535
▁Super	-10536
▁Tomas	-10537
▁Vemos	-10538
▁Vista	-10539
▁acomo	-10540
▁alist	-10541
▁aprie	-10542
▁apuro	-10543
▁arque	-10544
▁asomb	-10545
▁barra	-10546
▁beben	-10547
▁bebés	-10548
▁canto	-10549
▁carpa	-10550
▁civil	-10551
▁comba	-10552
▁copas	-10553
▁creés	-10554
▁damos	-10555
▁delan	-10556
▁desli	-10557
▁devor	-10558
▁difun	-10559
▁dispu	-10560
▁evacu	-10561
▁exces	-10562
▁exqui	-10563
▁fatal	-10564
▁flojo	-10565
▁frotó	-10566
▁gasté	-10567
▁grama	-10568
▁guiso	-10569
▁habré	-10570
▁hacés	-10571
▁irres	-10572
▁licen	-10573
▁limon	-10574
▁marco	-10575
▁miran	-10576
▁modos	-10577
▁moral	-10578
▁niego	-10579
▁obras	-10580
▁opina	-10581
▁patas	-10582
▁pisos	-10583
▁pista	-10584
▁provi	-10585
▁puntu	-10586
▁ramas	-10587
▁regar	-10588
▁renta	-10589
▁retro	-10590
▁sacri	-10591
▁salto	-10592
▁secos	-10593
▁seguí	-10594
▁suene	-10595
▁sufri	-10596
▁temía	-10597
▁tibur	-10598
▁tirar	-10599
▁traté	-10600
▁tripu	-10601
▁valle	-10602
▁virus	-10603
▁voces	-10604
Estamos	-10605
cadillo	-10606
ciembre	-10607
culares	-10608
dedores	-10609
leccion	-10610
respons	-10611
tranqui	-10612
unciona	-10613
urantes	-10614
▁10.000	-10615
▁Además	-10616
▁Berlín	-10617
▁Buenos	-10618
▁Cambié	-10619
▁Cometí	-10620
▁Contra	-10621
▁Cuatro	-10622
▁Desper	-10623
▁Dáselo	-10624
▁Guarda	-10625
▁Perten	-10626
▁Prueba	-10627
▁Supuse	-10628
▁Tenías	-10629
▁Valent	-10630
▁abrirá	-10631
▁acaban	-10632
▁afecta	-10633
▁agosto	-10634
▁apoyes	-10635
▁basada	-10636
▁burles	-10637
▁carece	-10638
▁cement	-10639
▁champú	-10640
▁chaval	-10641
▁compro	-10642
▁descom	-10643
▁dijese	-10644
▁empare	-10645
▁enlace	-10646
▁espada	-10647
▁esplén	-10648
▁estres	-10649
▁estric	-10650
▁exacto	-10651
▁explic	-10652
▁explor	-10653
▁faldas	-10654
▁faltan	-10655
▁fingía	-10656
▁formal	-10657
▁frases	-10658
▁fueran	-10659
▁ganara	-10660
▁hervir	-10661
▁horneó	-10662
▁horror	-10663
▁incomo	-10664
▁indica	-10665
▁indios	-10666
▁inició	-10667
▁invité	-10668
▁jarrón	-10669
▁libras	-10670
▁maledu	-10671
▁maltra	-10672
▁manejo	-10673
▁medios	-10674
▁mejore	-10675
▁mejoró	-10676
▁mezcla	-10677
▁motiva	-10678
▁muelle	-10679
▁muerde	-10680
▁navaja	-10681
▁niñito	-10682
▁obtuve	-10683
▁operar	-10684
▁opongo	-10685
▁parale	-10686
▁pediré	-10687
▁perlas	-10688
▁reales	-10689
▁receta	-10690
▁repisa	-10691
▁rutina	-10692
▁satéli	-10693
▁senten	-10694
▁sentís	-10695
▁soborn	-10696
▁sobrep	-10697
▁soñado	-10698
▁suegra	-10699
▁templo	-10700
▁título	-10701
▁usarlo	-10702
▁vestir	-10703
▁vuelan	-10704
▁vuelos	-10705
▁vuelvo	-10706
Entonces	-10707
Estudias	-10708
chísimas	-10709
firiendo	-10710
portable	-10711
▁Constru	-10712
▁Cállate	-10713
▁Decidme	-10714
▁Everest	-10715
▁Extraño	-10716
▁Llevaba	-10717
▁Ninguna	-10718
▁Quedaos	-10719
▁Quieres	-10720
▁Quédese	-10721
▁Sentate	-10722
▁Tomemos	-10723
▁abrirla	-10724
▁absurda	-10725
▁afición	-10726
▁afilado	-10727
▁ajustar	-10728
▁alcanza	-10729
▁alejado	-10730
▁algodón	-10731
▁amenaza	-10732
▁anuncio	-10733
▁aparece	-10734
▁apuesta	-10735
▁arbusto	-10736
▁arrancó	-10737
▁atómica	-10738
▁bajaron	-10739
▁bañando	-10740
▁blancas	-10741
▁bombero	-10742
▁brillan	-10743
▁brújula	-10744
▁cantado	-10745
▁castaño	-10746
▁cayeron	-10747
▁cepillo	-10748
▁comerte	-10749
▁comesti	-10750
▁comiera	-10751
▁compres	-10752
▁conocés	-10753
▁consiga	-10754
▁coquete	-10755
▁costado	-10756
▁crecido	-10757
▁creerme	-10758
▁cuentos	-10759
▁defensa	-10760
▁delincu	-10761
▁derrota	-10762
▁deshone	-10763
▁dimitir	-10764
▁dinosau	-10765
▁disparo	-10766
▁dividió	-10767
▁echaron	-10768
▁escribi	-10769
▁estudié	-10770
▁explotó	-10771
▁fallado	-10772
▁ficción	-10773
▁fluidez	-10774
▁hayamos	-10775
▁helados	-10776
▁hiciese	-10777
▁hierbas	-10778
▁hoteles	-10779
▁huracán	-10780
▁imagino	-10781
▁incluye	-10782
▁incompe	-10783
▁infarto	-10784
▁inglesa	-10785
▁injusta	-10786
▁limpios	-10787
▁maneras	-10788
▁medidas	-10789
▁mereces	-10790
▁moderno	-10791
▁monstru	-10792
▁moverse	-10793
▁máscara	-10794
▁ofender	-10795
▁palmada	-10796
▁parques	-10797
▁perdida	-10798
▁periodo	-10799
▁perjudi	-10800
▁pidiera	-10801
▁pilchas	-10802
▁porción	-10803
▁privada	-10804
▁promete	-10805
▁provocó	-10806
▁ratones	-10807
▁ruidosa	-10808
▁seguiré	-10809
▁sugiero	-10810
▁tatuaje	-10811
▁tierras	-10812
▁tomamos	-10813
▁tomarme	-10814
▁tomarse	-10815
▁traerme	-10816
▁traidor	-10817
▁transmi	-10818
▁trasera	-10819
▁tuviese	-10820
▁valioso	-10821
▁veranos	-10822
stitución	-10823
▁Adelante	-10824
▁Disfruté	-10825
▁Pregunta	-10826
▁Pregunté	-10827
▁Probemos	-10828
▁Pruébate	-10829
▁Quédense	-10830
▁Reciente	-10831
▁Tuvieron	-10832
▁acabamos	-10833
▁alegrará	-10834
▁alfabeto	-10835
▁archivos	-10836
▁asegurar	-10837
▁aspectos	-10838
▁atascado	-10839
▁bailarín	-10840
▁bombones	-10841
▁calcetín	-10842
▁cambiaré	-10843
▁cansando	-10844
▁capítulo	-10845
▁carreras	-10846
▁carácter	-10847
▁cervezas	-10848
▁chatarra	-10849
▁competir	-10850
▁complejo	-10851
▁conducía	-10852
▁conduzco	-10853
▁conocéis	-10854
▁conocías	-10855
▁corregir	-10856
▁cántaros	-10857
▁demonios	-10858
▁descalzo	-10859
▁disfruto	-10860
▁disparos	-10861
▁eliminar	-10862
▁empezará	-10863
▁encargar	-10864
▁engordar	-10865
▁entraste	-10866
▁equivoca	-10867
▁escondas	-10868
▁esperaré	-10869
▁estallar	-10870
▁evitarlo	-10871
▁fuéramos	-10872
▁haríamos	-10873
▁inapropi	-10874
▁instalar	-10875
▁juventud	-10876
▁llevaría	-10877
▁luchando	-10878
▁mariscos	-10879
▁menospre	-10880
▁ocurrirá	-10881
▁palillos	-10882
▁paseando	-10883
▁pasteles	-10884
▁pochoclo	-10885
▁puñetazo	-10886
▁quedaste	-10887
▁quemando	-10888
▁resfriar	-10889
▁responde	-10890
▁sentirás	-10891
▁subieron	-10892
▁tejiendo	-10893
▁trajiste	-10894
▁vanidoso	-10895
▁vaqueros	-10896
▁villanci	-10897
▁volviste	-10898
▁víctimas	-10899
▁Empezamos	-10900
▁Intentaré	-10901
▁Permíteme	-10902
▁Tailandia	-10903
▁Vayámonos	-10904
▁aburridos	-10905
▁acompañar	-10906
▁adaptarse	-10907
▁almorzado	-10908
▁arreglado	-10909
▁arruinado	-10910
▁artículos	-10911
▁atravesar	-10912
▁autobuses	-10913
▁ayudarlos	-10914
▁cambiarme	-10915
▁cantantes	-10916
▁castigado	-10917
▁chismorre	-10918
▁comienzan	-10919
▁comportar	-10920
▁condescen	-10921
▁constante	-10922
▁contenido	-10923
▁correctas	-10924
▁cristiano	-10925
▁cuidadosa	-10926
▁decírtelo	-10927
▁desprecia	-10928
▁disparado	-10929
▁económica	-10930
▁eligieron	-10931
▁enfadarse	-10932
▁entiendas	-10933
▁espagueti	-10934
▁espinacas	-10935
▁estacionó	-10936
▁exactitud	-10937
▁franceses	-10938
▁fregadero	-10939
▁horizonte	-10940
▁industria	-10941
▁intentaba	-10942
▁intranqui	-10943
▁inténtalo	-10944
▁invención	-10945
▁irrespons	-10946
▁manejando	-10947
▁marcharte	-10948
▁miserable	-10949
▁molestado	-10950
▁paranoico	-10951
▁parecidos	-10952
▁perdonará	-10953
▁perdonaré	-10954
▁permitiré	-10955
▁pesimista	-10956
▁recompens	-10957
▁relajarse	-10958
▁retirarse	-10959
▁sucediera	-10960
▁terribles	-10961
▁toneladas	-10962
▁tradición	-10963
▁valientes	-10964
▁Apresúrate	-10965
▁California	-10966
▁Escuchamos	-10967
▁Nochebuena	-10968
▁abandonada	-10969
▁aficionado	-10970
▁aplicación	-10971
▁aprobación	-10972
▁caballeros	-10973
▁cacahuates	-10974
▁cacahuetes	-10975
▁cachorrito	-10976
▁campamento	-10977
▁cementerio	-10978
▁comenzaron	-10979
▁cometiendo	-10980
▁comprendió	-10981
▁confundida	-10982
▁convertirá	-10983
▁democracia	-10984
▁dentífrico	-10985
▁despedirme	-10986
▁despistado	-10987
▁destrozado	-10988
▁dispararon	-10989
▁emocionada	-10990
▁encantador	-10991
▁esconderse	-10992
▁escribirle	-10993
▁estuvieran	-10994
▁familiares	-10995
▁financiera	-10996
▁firmemente	-10997
▁galletitas	-10998
▁imprudente	-10999
▁interpretó	-11000
▁investigar	-11001
▁levantaron	-11002
▁murmurando	-11003
▁pendientes	-11004
▁permaneció	-11005
▁preparados	-11006
▁protegerte	-11007
▁recogiendo	-11008
▁recomiendo	-11009
▁refugiados	-11010
▁subestimes	-11011
▁terminamos	-11012
▁terminaron	-11013
▁terminaste	-11014
▁testamento	-11015
▁Ciertamente	-11016
▁Disfrutamos	-11017
▁Universidad	-11018
▁alrededores	-11019
▁calculadora	-11020
▁chubasquero	-11021
▁consciencia	-11022
▁conversando	-11023
▁desesperado	-11024
▁diferenciar	-11025
▁disfrutando	-11026
▁inmigrantes	-11027
▁instrumento	-11028
▁interrumpió	-11029
▁profundidad	-11030
▁tripulación	-11031
▁Adondequiera	-11032
▁artificiales	-11033
▁concentrarse	-11034
▁consecuencia	-11035
▁entusiasmado	-11036
▁generalmente	-11037
▁insoportable	-11038
▁oscureciendo	-11039
▁restaurantes	-11040
▁urgentemente	-11041
▁Recientemente	-11042
▁familiarizado	-11043
▁indispensable	-11044
▁interfiriendo	-11045
▁pacientemente	-11046
▁relativamente	-11047
▁sobrevivieron	-11048
▁terriblemente	-11049
▁universitaria	-11050
▁agradecimiento	-11051
▁extraordinario	-11052
▁necesariamente	-11053
▁automáticamente	-11054
▁silenciosamente	-11055
!"	-11056
1.	-11057
Ar	-11058
BI	-11059
He	-11060
Mi	-11061
UU	-11062
ku	-11063
ly	-11064
mí	-11065
od	-11066
pí	-11067
Llo	-11068
Sos	-11069
adí	-11070
aya	-11071
bun	-11072
cla	-11073
ctu	-11074
cón	-11075
dal	-11076
dis	-11077
dka	-11078
een	-11079
ezó	-11080
fes	-11081
fil	-11082
gad	-11083
ges	-11084
ide	-11085
jeó	-11086
ley	-11087
sér	-11088
ueb	-11089
áme	-11090
énd	-11091
íes	-11092
íri	-11093
ñar	-11094
▁Bá	-11095
▁Id	-11096
▁Vo	-11097
▁ko	-11098
Acep	-11099
Hici	-11100
Irás	-11101
Toca	-11102
amón	-11103
ayer	-11104
balo	-11105
bios	-11106
crip	-11107
dete	-11108
dita	-11109
ecia	-11110
ertu	-11111
gale	-11112
game	-11113
gila	-11114
iros	-11115
kele	-11116
lina	-11117
mese	-11118
mula	-11119
rosi	-11120
roso	-11121
sera	-11122
stra	-11123
ting	-11124
velt	-11125
vili	-11126
xido	-11127
yoto	-11128
▁Alé	-11129
▁Bai	-11130
▁Cho	-11131
▁Dur	-11132
▁Egi	-11133
▁Evi	-11134
▁FBI	-11135
▁Mad	-11136
▁Mah	-11137
▁Usa	-11138
▁Uso	-11139
▁alb	-11140
▁ame	-11141
▁api	-11142
▁ari	-11143
▁dia	-11144
▁dic	-11145
▁drá	-11146
▁dup	-11147
▁fol	-11148
▁foo	-11149
▁grá	-11150
▁gus	-11151
▁hin	-11152
▁ida	-11153
▁jal	-11154
▁llé	-11155
▁mué	-11156
▁ord	-11157
▁oía	-11158
▁pár	-11159
▁pás	-11160
▁sín	-11161
▁use	-11162
▁yen	-11163
▁zan	-11164
Bebes	-11165
Comes	-11166
Desea	-11167
Había	-11168
Queda	-11169
Sería	-11170
Traba	-11171
adado	-11172
aduro	-11173
allas	-11174
cinco	-11175
cisco	-11176
deces	-11177
derás	-11178
fiere	-11179
gapur	-11180
gnora	-11181
guila	-11182
guiré	-11183
ición	-11184
iosos	-11185
jadas	-11186
jones	-11187
lemos	-11188
mados	-11189
micas	-11190
ondas	-11191
pular	-11192
queda	-11193
ralla	-11194
renta	-11195
stece	-11196
tarla	-11197
tenos	-11198
tulos	-11199
ueles	-11200
uelta	-11201
uelva	-11202
vadas	-11203
xible	-11204
zante	-11205
ámelo	-11206
ética	-11207
íralo	-11208
▁Bajé	-11209
▁Blan	-11210
▁Cuel	-11211
▁Dice	-11212
▁Echa	-11213
▁Eras	-11214
▁Guár	-11215
▁Hacé	-11216
▁Lava	-11217
▁Miró	-11218
▁Nara	-11219
▁Oigo	-11220
▁Paré	-11221
▁Pese	-11222
▁Pido	-11223
▁Pién	-11224
▁Poné	-11225
▁Repi	-11226
▁Roja	-11227
▁Sean	-11228
▁Soñé	-11229
▁Tomá	-11230
▁Veré	-11231
▁Viví	-11232
▁anon	-11233
▁asom	-11234
▁auxi	-11235
▁cent	-11236
▁cobr	-11237
▁coge	-11238
▁cuya	-11239
▁dañó	-11240
▁deme	-11241
▁derr	-11242
▁deso	-11243
▁ende	-11244
▁enju	-11245
▁exhi	-11246
▁hala	-11247
▁hidr	-11248
▁inad	-11249
▁leal	-11250
▁letr	-11251
▁mamí	-11252
▁maté	-11253
▁mina	-11254
▁mire	-11255
▁oler	-11256
▁papa	-11257
▁pomo	-11258
▁prej	-11259
▁qued	-11260
▁reno	-11261
▁retó	-11262
▁rudo	-11263
▁rías	-11264
▁semi	-11265
▁sigi	-11266
▁tiñó	-11267
▁tími	-11268
▁vean	-11269
▁Ésas	-11270
Alguno	-11271
bramos	-11272
breros	-11273
bricas	-11274
cesión	-11275
ciamos	-11276
cluido	-11277
cuador	-11278
entaos	-11279
ificar	-11280
kelele	-11281
metros	-11282
mático	-11283
onomía	-11284
oridad	-11285
semeja	-11286
stando	-11287
tinaje	-11288
álmate	-11289
áticas	-11290
éndome	-11291
▁Aguar	-11292
▁Crecí	-11293
▁Diles	-11294
▁Entró	-11295
▁Estar	-11296
▁Explí	-11297
▁Ganar	-11298
▁Golpe	-11299
▁Limpi	-11300
▁Léelo	-11301
▁Miren	-11302
▁Nació	-11303
▁Parte	-11304
▁Permi	-11305
▁Roger	-11306
▁Roose	-11307
▁Saqué	-11308
▁Segui	-11309
▁Vendí	-11310
▁Vivir	-11311
▁abofe	-11312
▁agitó	-11313
▁amará	-11314
▁ampli	-11315
▁ampol	-11316
▁arren	-11317
▁aéreo	-11318
▁barri	-11319
▁cabez	-11320
▁cabre	-11321
▁cansó	-11322
▁carca	-11323
▁caída	-11324
▁cesta	-11325
▁cinta	-11326
▁clavo	-11327
▁codos	-11328
▁costo	-11329
▁criar	-11330
▁culpó	-11331
▁curar	-11332
▁damas	-11333
▁defec	-11334
▁dejan	-11335
▁denun	-11336
▁derre	-11337
▁desab	-11338
▁desen	-11339
▁desvi	-11340
▁dolía	-11341
▁echas	-11342
▁elevó	-11343
▁empac	-11344
▁envej	-11345
▁enven	-11346
▁estru	-11347
▁evitó	-11348
▁exige	-11349
▁expul	-11350
▁fallo	-11351
▁ferro	-11352
▁forzó	-11353
▁fríos	-11354
▁girar	-11355
▁globo	-11356
▁icono	-11357
▁impon	-11358
▁impre	-11359
▁impul	-11360
▁indis	-11361
▁invas	-11362
▁jamón	-11363
▁jeans	-11364
▁jugué	-11365
▁labor	-11366
▁ladra	-11367
▁lango	-11368
▁latir	-11369
▁liger	-11370
▁milla	-11371
▁monum	-11372
▁muera	-11373
▁muest	-11374
▁nombr	-11375
▁ofrec	-11376
▁pague	-11377
▁pagué	-11378
▁pases	-11379
▁perdo	-11380
▁pesos	-11381
▁pizca	-11382
▁plana	-11383
▁plati	-11384
▁porte	-11385
▁portó	-11386
▁poses	-11387
▁preso	-11388
▁quité	-11389
▁raras	-11390
▁rotos	-11391
▁rubio	-11392
▁ruego	-11393
▁salen	-11394
▁salsa	-11395
▁segui	-11396
▁sepan	-11397
▁talló	-11398
▁taxis	-11399
▁teles	-11400
▁toser	-11401
▁ubica	-11402
▁usaba	-11403
▁usual	-11404
▁venda	-11405
▁venen	-11406
▁venís	-11407
▁vodka	-11408
▁volan	-11409
▁volcó	-11410
▁ático	-11411
Conocés	-11412
Querías	-11413
Vendrás	-11414
adeando	-11415
conozco	-11416
ensible	-11417
mbencia	-11418
ordaron	-11419
podrías	-11420
rategia	-11421
uélveme	-11422
▁Adivin	-11423
▁Admito	-11424
▁Agarra	-11425
▁Apagué	-11426
▁Buenas	-11427
▁Camina	-11428
▁Compró	-11429
▁Cookie	-11430
▁Cuenta	-11431
▁Dentro	-11432
▁Duerme	-11433
▁Egipto	-11434
▁Fuiste	-11435
▁Fíjate	-11436
▁Invité	-11437
▁Llueve	-11438
▁Miller	-11439
▁Person	-11440
▁Tomaré	-11441
▁Toyota	-11442
▁Vengan	-11443
▁Vigila	-11444
▁abejas	-11445
▁acatar	-11446
▁aceler	-11447
▁acerti	-11448
▁admira	-11449
▁admiro	-11450
▁admite	-11451
▁agachó	-11452
▁agarré	-11453
▁alcohó	-11454
▁aliado	-11455
▁amamos	-11456
▁angust	-11457
▁apesta	-11458
▁apreci	-11459
▁arregl	-11460
▁atravi	-11461
▁besado	-11462
▁bolsas	-11463
▁bondad	-11464
▁cajero	-11465
▁camise	-11466
▁cancel	-11467
▁cantes	-11468
▁capaci	-11469
▁carpin	-11470
▁cartón	-11471
▁casara	-11472
▁causar	-11473
▁causas	-11474
▁cerezo	-11475
▁chanta	-11476
▁chicle	-11477
▁chofer	-11478
▁civili	-11479
▁claros	-11480
▁compul	-11481
▁conqui	-11482
▁consol	-11483
▁consti	-11484
▁corpor	-11485
▁cortos	-11486
▁costar	-11487
▁crecen	-11488
▁cuchar	-11489
▁darles	-11490
▁debían	-11491
▁defrau	-11492
▁delito	-11493
▁demora	-11494
▁desató	-11495
▁descif	-11496
▁dirige	-11497
▁dirías	-11498
▁distri	-11499
▁dímelo	-11500
▁enfríe	-11501
▁enseñé	-11502
▁escala	-11503
▁estrés	-11504
▁exceso	-11505
▁fallar	-11506
▁falsas	-11507
▁fondos	-11508
▁formar	-11509
▁gracia	-11510
▁gustos	-11511
▁hablen	-11512
▁hablás	-11513
▁helada	-11514
▁heredó	-11515
▁herman	-11516
▁hierve	-11517
▁hornea	-11518
▁huella	-11519
▁hígado	-11520
▁intimi	-11521
▁jueves	-11522
▁lindos	-11523
▁listas	-11524
▁micros	-11525
▁mirado	-11526
▁morado	-11527
▁mueble	-11528
▁muelas	-11529
▁nacido	-11530
▁niñera	-11531
▁niñita	-11532
▁noción	-11533
▁obligó	-11534
▁ojeada	-11535
▁ovejas	-11536
▁pagaré	-11537
▁pasaré	-11538
▁patada	-11539
▁peleas	-11540
▁peluca	-11541
▁pregún	-11542
▁prensa	-11543
▁previo	-11544
▁propon	-11545
▁prover	-11546
▁pulmón	-11547
▁puñado	-11548
▁recado	-11549
▁recibe	-11550
▁recost	-11551
▁reparó	-11552
▁respir	-11553
▁restos	-11554
▁revisó	-11555
▁reímos	-11556
▁sartén	-11557
▁sector	-11558
▁separó	-11559
▁sequía	-11560
▁silbar	-11561
▁suertu	-11562
▁sufrir	-11563
▁tanque	-11564
▁temper	-11565
▁tercio	-11566
▁testar	-11567
▁tomara	-11568
▁torneo	-11569
▁tratas	-11570
▁tremen	-11571
▁trepar	-11572
▁triple	-11573
▁trueno	-11574
▁unidos	-11575
▁varían	-11576
▁virtud	-11577
▁visado	-11578
Querrías	-11579
icamente	-11580
taciones	-11581
teriores	-11582
▁Aléjate	-11583
▁Continu	-11584
▁Cuídate	-11585
▁Decidió	-11586
▁Detente	-11587
▁Esperen	-11588
▁Llámalo	-11589
▁Posible	-11590
▁Póngase	-11591
▁Respeto	-11592
▁Resultó	-11593
▁Trataré	-11594
▁Venecia	-11595
▁Volverá	-11596
▁Vámonos	-11597
▁aclarar	-11598
▁agencia	-11599
▁ahorita	-11600
▁alturas	-11601
▁amables	-11602
▁apreció	-11603
▁apretar	-11604
▁asemeja	-11605
▁asesinó	-11606
▁austral	-11607
▁aventón	-11608
▁ayudase	-11609
▁cabezas	-11610
▁calmado	-11611
▁canceló	-11612
▁capturó	-11613
▁cartero	-11614
▁cenando	-11615
▁ciertas	-11616
▁comerse	-11617
▁cometas	-11618
▁comprob	-11619
▁confías	-11620
▁congela	-11621
▁contuvo	-11622
▁coreana	-11623
▁creemos	-11624
▁cristal	-11625
▁crítico	-11626
▁cuidaré	-11627
▁curioso	-11628
▁debiste	-11629
▁decides	-11630
▁dejaras	-11631
▁dejarle	-11632
▁deletre	-11633
▁desaten	-11634
▁dijeras	-11635
▁disfraz	-11636
▁disminu	-11637
▁dominio	-11638
▁débiles	-11639
▁echarme	-11640
▁elevado	-11641
▁empiece	-11642
▁empiezo	-11643
▁empujar	-11644
▁enemiga	-11645
▁engañes	-11646
▁enloque	-11647
▁entraba	-11648
▁envidia	-11649
▁errónea	-11650
▁esclavo	-11651
▁escribo	-11652
▁escuche	-11653
▁especie	-11654
▁estadio	-11655
▁estados	-11656
▁exponer	-11657
▁exporta	-11658
▁febrero	-11659
▁fracasó	-11660
▁ganaron	-11661
▁hablase	-11662
▁informó	-11663
▁insiste	-11664
▁intenso	-11665
▁lechuga	-11666
▁logrado	-11667
▁límites	-11668
▁malvado	-11669
▁marchar	-11670
▁mataste	-11671
▁meterse	-11672
▁militar	-11673
▁motivos	-11674
▁muralla	-11675
▁narices	-11676
▁oscuras	-11677
▁pagando	-11678
▁pelotas	-11679
▁perfume	-11680
▁pierdes	-11681
▁plancha	-11682
▁planifi	-11683
▁postuló	-11684
▁psiquia	-11685
▁puentes	-11686
▁pulsera	-11687
▁quieran	-11688
▁racista	-11689
▁rebelde	-11690
▁reescri	-11691
▁refiero	-11692
▁resfrío	-11693
▁retirar	-11694
▁separar	-11695
▁sobrino	-11696
▁suicida	-11697
▁trabajé	-11698
▁técnica	-11699
▁ukelele	-11700
▁viajado	-11701
▁vuelves	-11702
untémonos	-11703
▁Consider	-11704
▁Descubrí	-11705
▁Mostrame	-11706
▁Podíamos	-11707
▁Relájate	-11708
▁Renuncié	-11709
▁Responde	-11710
▁Salieron	-11711
▁Singapur	-11712
▁Trabajar	-11713
▁Valentín	-11714
▁adelanta	-11715
▁admiraba	-11716
▁ahogando	-11717
▁alemanes	-11718
▁amistoso	-11719
▁aparcado	-11720
▁aventura	-11721
▁ayudamos	-11722
▁banquero	-11723
▁bombarde	-11724
▁búsqueda	-11725
▁callados	-11726
▁callejón	-11727
▁caramelo	-11728
▁catálogo	-11729
▁comparto	-11730
▁compensa	-11731
▁contador	-11732
▁convencí	-11733
▁corredor	-11734
▁cosechas	-11735
▁costaría	-11736
▁cuidarte	-11737
▁cultivos	-11738
▁decirles	-11739
▁decirnos	-11740
▁demandar	-11741
▁demandas	-11742
▁despidan	-11743
▁destruyó	-11744
▁determin	-11745
▁devuelto	-11746
▁discutió	-11747
▁disfrutó	-11748
▁distraer	-11749
▁embajado	-11750
▁empezaba	-11751
▁enemigas	-11752
▁enfermos	-11753
▁entregué	-11754
▁enviarle	-11755
▁escalado	-11756
▁escuelas	-11757
▁esencial	-11758
▁estrecho	-11759
▁estrelló	-11760
▁estribos	-11761
▁evitando	-11762
▁expertos	-11763
▁expliqué	-11764
▁fabuloso	-11765
▁fábricas	-11766
▁graciosa	-11767
▁gramatic	-11768
▁gravedad	-11769
▁guardias	-11770
▁hablaría	-11771
▁hermosos	-11772
▁hicieran	-11773
▁hormigas	-11774
▁impuesto	-11775
▁informar	-11776
▁levantan	-11777
▁liberado	-11778
▁llamarle	-11779
▁llamarlo	-11780
▁llevaban	-11781
▁llevarlo	-11782
▁lluvioso	-11783
▁mantengo	-11784
▁mascotas	-11785
▁ministro	-11786
▁modernos	-11787
▁monstruo	-11788
▁natación	-11789
▁negociar	-11790
▁pariente	-11791
▁patinaje	-11792
▁perdedor	-11793
▁pescando	-11794
▁planchar	-11795
▁presionó	-11796
▁quitaste	-11797
▁regalado	-11798
▁regañado	-11799
▁regreses	-11800
▁ridícula	-11801
▁sentidos	-11802
▁siembras	-11803
▁simpatía	-11804
▁sucederá	-11805
▁talentos	-11806
▁testigos	-11807
▁transpor	-11808
▁variedad	-11809
▁vestirse	-11810
▁volverme	-11811
▁volverás	-11812
entalmente	-11813
▁Compramos	-11814
▁Comprendí	-11815
▁Escríbeme	-11816
▁Francisco	-11817
▁Roosevelt	-11818
▁aceptaron	-11819
▁actuación	-11820
▁americana	-11821
▁aparecerá	-11822
▁apropiada	-11823
▁arriesgar	-11824
▁asustarte	-11825
▁británico	-11826
▁clarinete	-11827
▁compensar	-11828
▁completar	-11829
▁conduzcas	-11830
▁congelado	-11831
▁consultar	-11832
▁decepción	-11833
▁derrotado	-11834
▁descartar	-11835
▁devolveré	-11836
▁disfrutan	-11837
▁distingue	-11838
▁distraído	-11839
▁emociones	-11840
▁enfadados	-11841
▁enfrentar	-11842
▁equivoqué	-11843
▁escapando	-11844
▁esperabas	-11845
▁esperanto	-11846
▁esperaron	-11847
▁fumadores	-11848
▁graduarse	-11849
▁habérmelo	-11850
▁hidrógeno	-11851
▁interesan	-11852
▁intereses	-11853
▁jardinero	-11854
▁jugábamos	-11855
▁lavarropa	-11856
▁malgastes	-11857
▁mantenido	-11858
▁minerales	-11859
▁noviembre	-11860
▁obligaron	-11861
▁organizar	-11862
▁panadería	-11863
▁parientes	-11864
▁pendiente	-11865
▁prefieren	-11866
▁preguntan	-11867
▁prioridad	-11868
▁programas	-11869
▁quisieras	-11870
▁recordado	-11871
▁repetirlo	-11872
▁sacudirse	-11873
▁sangrando	-11874
▁sucedería	-11875
▁temblando	-11876
▁traductor	-11877
▁vigilando	-11878
▁visitarle	-11879
▁Desconozco	-11880
▁Importamos	-11881
▁Intentemos	-11882
▁Manténgase	-11883
▁Muchísimas	-11884
▁Necesitaba	-11885
▁acompañaré	-11886
▁asegurarte	-11887
▁asistencia	-11888
▁astronomía	-11889
▁aterrizaje	-11890
▁calendario	-11891
▁celebrando	-11892
▁conducción	-11893
▁costumbres	-11894
▁cucarachas	-11895
▁defectuoso	-11896
▁desarrollo	-11897
▁descuidado	-11898
▁despedirse	-11899
▁discutimos	-11900
▁disfrazado	-11901
▁dispuestos	-11902
▁doscientos	-11903
▁encontrará	-11904
▁encontraré	-11905
▁entendemos	-11906
▁entendiera	-11907
▁entusiasmo	-11908
▁escondiste	-11909
▁especiales	-11910
▁estampilla	-11911
▁estrategia	-11912
▁garantizar	-11913
▁hiciéramos	-11914
▁imaginarme	-11915
▁intentaron	-11916
▁interferir	-11917
▁lavarropas	-11918
▁microondas	-11919
▁misteriosa	-11920
▁nacionales	-11921
▁pesadillas	-11922
▁prometiste	-11923
▁recompensa	-11924
▁recuperará	-11925
▁reparación	-11926
▁telescopio	-11927
▁terminarlo	-11928
▁visitantes	-11929
▁aprendieron	-11930
▁automóviles	-11931
▁calefacción	-11932
▁centímetros	-11933
▁comestibles	-11934
▁competición	-11935
▁conductores	-11936
▁considerada	-11937
▁conveniente	-11938
▁desempleado	-11939
▁diferencias	-11940
▁disponibles	-11941
▁dondequiera	-11942
▁dormitorios	-11943
▁enormemente	-11944
▁equivocadas	-11945
▁estupideces	-11946
▁excepcional	-11947
▁físicamente	-11948
▁impresionar	-11949
▁incumbencia	-11950
▁irrelevante	-11951
▁ligeramente	-11952
▁microscopio	-11953
▁necesidades	-11954
▁orientación	-11955
▁proposición	-11956
▁quienquiera	-11957
▁reflexionar	-11958
▁terroristas	-11959
▁vegetariano	-11960
▁veinticinco	-11961
▁villancicos	-11962
▁Posiblemente	-11963
▁advertencias	-11964
▁alternativas	-11965
▁arquitectura	-11966
▁computadoras	-11967
▁desperdiciar	-11968
▁diccionarios	-11969
▁especialidad	-11970
▁estadísticas	-11971
▁temperamento	-11972
▁contaminación	-11973
▁irresponsable	-11974
▁necesitábamos	-11975
▁sigilosamente	-11976
▁calificaciones	-11977
▁estupendamente	-11978
▁Lamentablemente	-11979
,"	-11980
?,	-11981
Pa	-11982
Pe	-11983
Pu	-11984
cá	-11985
he	-11986
pp	-11987
ry	-11988
tú	-11989
áz	-11990
éñ	-11991
úl	-11992
Cui	-11993
Emp	-11994
Exi	-11995
Tus	-11996
Van	-11997
bía	-11998
cua	-11999
cúl	-12000
dme	-12001
dro	-12002
fal	-12003
gno	-12004
idu	-12005
ime	-12006
lon	-12007
mad	-12008
mal	-12009
mis	-12010
mpi	-12011
ons	-12012
ood	-12013
oró	-12014
pan	-12015
pón	-12016
ria	-12017
rru	-12018
tea	-12019
tus	-12020
uno	-12021
vul	-12022
xon	-12023
yes	-12024
úan	-12025
▁AD	-12026
▁Do	-12027
▁MP	-12028
▁Oc	-12029
▁SI	-12030
▁aj	-12031
▁ul	-12032
▁ás	-12033
▁én	-12034
,000	-12035
Date	-12036
Eras	-12037
Gana	-12038
Llam	-12039
Solo	-12040
Vaya	-12041
alas	-12042
ayas	-12043
bana	-12044
bida	-12045
bili	-12046
buja	-12047
capa	-12048
cket	-12049
culi	-12050
delo	-12051
ense	-12052
enté	-12053
esía	-12054
fado	-12055
gote	-12056
gros	-12057
hima	-12058
jita	-12059
jong	-12060
lago	-12061
leza	-12062
liar	-12063
mino	-12064
omba	-12065
ombo	-12066
onas	-12067
pame	-12068
psia	-12069
puso	-12070
rico	-12071
saré	-12072
spec	-12073
stri	-12074
tana	-12075
tios	-12076
tizo	-12077
tnam	-12078
umió	-12079
verá	-12080
vete	-12081
xión	-12082
zara	-12083
zaré	-12084
ísmo	-12085
▁Acá	-12086
▁Aun	-12087
▁Bús	-12088
▁CDs	-12089
▁Cap	-12090
▁Cla	-12091
▁Dar	-12092
▁Din	-12093
▁Doy	-12094
▁Día	-12095
▁Ech	-12096
▁Edi	-12097
▁Fir	-12098
▁Fre	-12099
▁Min	-12100
▁Nar	-12101
▁Pré	-12102
▁Sir	-12103
▁Tur	-12104
▁alu	-12105
▁bac	-12106
▁bió	-12107
▁blo	-12108
▁bul	-12109
▁ebr	-12110
▁fis	-12111
▁imb	-12112
▁ino	-12113
▁iny	-12114
▁neb	-12115
▁reb	-12116
▁sel	-12117
▁tai	-12118
▁zor	-12119
Ayuda	-12120
Escri	-12121
Pasas	-12122
alizó	-12123
carri	-12124
carte	-12125
ciste	-12126
codri	-12127
crito	-12128
curio	-12129
ellos	-12130
enado	-12131
entra	-12132
fasis	-12133
ficaz	-12134
forma	-12135
gedia	-12136
gible	-12137
goría	-12138
gresa	-12139
iales	-12140
iende	-12141
ingos	-12142
itter	-12143
jimos	-12144
licas	-12145
ornos	-12146
orías	-12147
ositó	-12148
ostic	-12149
pping	-12150
quido	-12151
quita	-12152
rangu	-12153
sitos	-12154
stros	-12155
tidas	-12156
tores	-12157
umbre	-12158
vidas	-12159
ámara	-12160
ñando	-12161
úrese	-12162
▁Acér	-12163
▁Anda	-12164
▁Apro	-12165
▁Bebí	-12166
▁Cepí	-12167
▁Dilo	-12168
▁Divi	-12169
▁Escú	-12170
▁Hong	-12171
▁Llen	-12172
▁Mane	-12173
▁Pala	-12174
▁Puso	-12175
▁Rell	-12176
▁Sujé	-12177
▁Supe	-12178
▁Tira	-12179
▁Vení	-12180
▁acal	-12181
▁acre	-12182
▁ahuy	-12183
▁anal	-12184
▁atún	-12185
▁beba	-12186
▁boch	-12187
▁chap	-12188
▁chef	-12189
▁coli	-12190
▁cuen	-12191
▁cuna	-12192
▁curó	-12193
▁deca	-12194
▁decí	-12195
▁deva	-12196
▁digi	-12197
▁dudé	-12198
▁eché	-12199
▁empa	-12200
▁expe	-12201
▁fume	-12202
▁fíes	-12203
▁gano	-12204
▁higi	-12205
▁insa	-12206
▁jira	-12207
▁lavo	-12208
▁list	-12209
▁metá	-12210
▁obso	-12211
▁obtu	-12212
▁ofen	-12213
▁orde	-12214
▁otor	-12215
▁ovni	-12216
▁pací	-12217
▁parp	-12218
▁pela	-12219
▁peni	-12220
▁perd	-12221
▁pila	-12222
▁pist	-12223
▁plen	-12224
▁prov	-12225
▁pupi	-12226
▁quis	-12227
▁rehú	-12228
▁ruta	-12229
▁ríos	-12230
▁sonr	-12231
▁subí	-12232
▁sínt	-12233
▁taló	-12234
▁toro	-12235
▁trom	-12236
▁tubo	-12237
▁turí	-12238
▁vain	-12239
▁vere	-12240
▁vomi	-12241
▁voto	-12242
▁Ésos	-12243
Creéis	-12244
Dispar	-12245
Estuvo	-12246
Hablas	-12247
Vendrá	-12248
americ	-12249
anismo	-12250
erosas	-12251
ferior	-12252
ideció	-12253
inaste	-12254
landés	-12255
melada	-12256
quetas	-12257
rasile	-12258
rujada	-12259
sibles	-12260
stamos	-12261
sterna	-12262
sticos	-12263
strofe	-12264
tileza	-12265
uestro	-12266
uicios	-12267
viente	-12268
zonada	-12269
ásemos	-12270
ómetro	-12271
▁1.000	-12272
▁Acost	-12273
▁Alcan	-12274
▁Busca	-12275
▁Cerrá	-12276
▁Comer	-12277
▁Costó	-12278
▁Enseñ	-12279
▁Fuera	-12280
▁Hagan	-12281
▁Hallo	-12282
▁Liber	-12283
▁Llena	-12284
▁Obser	-12285
▁Obsér	-12286
▁Presi	-12287
▁Procu	-12288
▁Prosi	-12289
▁Salid	-12290
▁Santa	-12291
▁Sospe	-12292
▁Trato	-12293
▁Tráig	-12294
▁Vayan	-12295
▁acari	-12296
▁accid	-12297
▁agria	-12298
▁alber	-12299
▁amado	-12300
▁amueb	-12301
▁andas	-12302
▁apara	-12303
▁armar	-12304
▁asign	-12305
▁atrae	-12306
▁baila	-12307
▁bailó	-12308
▁bajos	-12309
▁balón	-12310
▁bebes	-12311
▁caigo	-12312
▁cargó	-12313
▁carné	-12314
▁cejas	-12315
▁compi	-12316
▁crece	-12317
▁darán	-12318
▁darás	-12319
▁desal	-12320
▁deshi	-12321
▁dirás	-12322
▁dobló	-12323
▁doler	-12324
▁dudes	-12325
▁duras	-12326
▁encal	-12327
▁endeu	-12328
▁enséñ	-12329
▁envío	-12330
▁escép	-12331
▁estim	-12332
▁faltó	-12333
▁filas	-12334
▁freno	-12335
▁frito	-12336
▁fumes	-12337
▁gotea	-12338
▁grita	-12339
▁halla	-12340
▁holan	-12341
▁hondo	-12342
▁huelo	-12343
▁hueso	-12344
▁impor	-12345
▁ingre	-12346
▁insom	-12347
▁instó	-12348
▁jaleo	-12349
▁labio	-12350
▁lasti	-12351
▁logré	-12352
▁luchó	-12353
▁manda	-12354
▁mango	-12355
▁marcó	-12356
▁medir	-12357
▁melan	-12358
▁merec	-12359
▁miras	-12360
▁moría	-12361
▁musul	-12362
▁nitró	-12363
▁occid	-12364
▁ocupó	-12365
▁odias	-12366
▁opone	-12367
▁orque	-12368
▁padra	-12369
▁pagas	-12370
▁pedír	-12371
▁peine	-12372
▁pelli	-12373
▁perdi	-12374
▁poker	-12375
▁pones	-12376
▁portu	-12377
▁proce	-12378
▁prose	-12379
▁racha	-12380
▁rasca	-12381
▁repos	-12382
▁riñón	-12383
▁saque	-12384
▁serie	-12385
▁señas	-12386
▁sobra	-12387
▁sorbo	-12388
▁sorda	-12389
▁sueña	-12390
▁tenso	-12391
▁terco	-12392
▁toqué	-12393
▁torpe	-12394
▁total	-12395
▁traía	-12396
▁tribu	-12397
▁tropi	-12398
▁vacil	-12399
▁vació	-12400
▁vapor	-12401
▁varon	-12402
▁vestí	-12403
▁vigor	-12404
▁viuda	-12405
▁votos	-12406
▁ánimo	-12407
Escucha	-12408
Gracias	-12409
Hiciste	-12410
Lloverá	-12411
Pensáis	-12412
Viniste	-12413
américa	-12414
antemos	-12415
cientas	-12416
ciélago	-12417
garemos	-12418
gracias	-12419
stación	-12420
tividad	-12421
turaron	-12422
ándonos	-12423
▁Acepté	-12424
▁Alguno	-12425
▁Alicia	-12426
▁Apunta	-12427
▁Chicos	-12428
▁Cogeré	-12429
▁Cuelga	-12430
▁Cuidar	-12431
▁Decime	-12432
▁Discúl	-12433
▁Dígale	-12434
▁Fracas	-12435
▁Habéis	-12436
▁Llevar	-12437
▁Narita	-12438
▁Párate	-12439
▁Recono	-12440
▁Repent	-12441
▁Saldré	-12442
▁Súbete	-12443
▁Teresa	-12444
▁Unidas	-12445
▁Váyase	-12446
▁acanti	-12447
▁acorde	-12448
▁acordó	-12449
▁acostó	-12450
▁acurru	-12451
▁adopta	-12452
▁alboro	-12453
▁aniver	-12454
▁armado	-12455
▁asesor	-12456
▁astuta	-12457
▁atacar	-12458
▁atleta	-12459
▁atribu	-12460
▁avance	-12461
▁añadir	-12462
▁bombas	-12463
▁cables	-12464
▁calaba	-12465
▁camion	-12466
▁campes	-12467
▁cariño	-12468
▁cayera	-12469
▁cebras	-12470
▁chilló	-12471
▁claras	-12472
▁convir	-12473
▁creerá	-12474
▁cuáles	-12475
▁cuñado	-12476
▁cólera	-12477
▁darnos	-12478
▁debate	-12479
▁decida	-12480
▁dejaba	-12481
▁democr	-12482
▁dental	-12483
▁desafi	-12484
▁deseas	-12485
▁discre	-12486
▁discri	-12487
▁disper	-12488
▁divide	-12489
▁doblar	-12490
▁domést	-12491
▁dueños	-12492
▁echada	-12493
▁eficaz	-12494
▁elogió	-12495
▁encaja	-12496
▁entras	-12497
▁enveje	-12498
▁escalo	-12499
▁escapa	-12500
▁exhibi	-12501
▁fallos	-12502
▁furios	-12503
▁ganará	-12504
▁guapas	-12505
▁hartos	-12506
▁inacep	-12507
▁inclin	-12508
▁leerla	-12509
▁lesion	-12510
▁lidiar	-12511
▁llanto	-12512
▁llenar	-12513
▁mataré	-12514
▁moscas	-12515
▁mostré	-12516
▁museos	-12517
▁odiado	-12518
▁olfato	-12519
▁ordené	-12520
▁orilla	-12521
▁papión	-12522
▁parara	-12523
▁pelean	-12524
▁pequeñ	-12525
▁pistas	-12526
▁pizzas	-12527
▁plante	-12528
▁poesía	-12529
▁postal	-12530
▁poster	-12531
▁presté	-12532
▁primas	-12533
▁ratito	-12534
▁rindas	-12535
▁rindió	-12536
▁sabría	-12537
▁sabéis	-12538
▁saluda	-12539
▁serios	-12540
▁sitios	-12541
▁sonado	-12542
▁sólida	-12543
▁ticket	-12544
▁tontos	-12545
▁tortas	-12546
▁tragar	-12547
▁trotar	-12548
▁unirse	-12549
▁usaste	-12550
▁visión	-12551
▁vitore	-12552
▁vivían	-12553
▁zorros	-12554
▁órgano	-12555
▁únicas	-12556
Estarías	-12557
Hablaste	-12558
Quisiera	-12559
Vosotros	-12560
biliario	-12561
ferencia	-12562
lusiones	-12563
osamente	-12564
▁Aliment	-12565
▁Comencé	-12566
▁Comenzó	-12567
▁Conoces	-12568
▁Dejemos	-12569
▁Estarás	-12570
▁Existen	-12571
▁Haremos	-12572
▁Holanda	-12573
▁Háblame	-12574
▁Pasaron	-12575
▁Pasemos	-12576
▁Respira	-12577
▁Salimos	-12578
▁Sírvase	-12579
▁Traduce	-12580
▁Tranqui	-12581
▁Turquía	-12582
▁Vinimos	-12583
▁abrazar	-12584
▁acababa	-12585
▁adivina	-12586
▁agradan	-12587
▁agregar	-12588
▁almacen	-12589
▁aprieto	-12590
▁apruebo	-12591
▁ardilla	-12592
▁arrastr	-12593
▁arreglo	-12594
▁arresto	-12595
▁asegura	-12596
▁ayúdame	-12597
▁balance	-12598
▁besarse	-12599
▁botones	-12600
▁callada	-12601
▁campera	-12602
▁campeón	-12603
▁candado	-12604
▁cargada	-12605
▁carpeta	-12606
▁cayendo	-12607
▁cebolla	-12608
▁cenaste	-12609
▁cogerlo	-12610
▁colgado	-12611
▁comamos	-12612
▁combine	-12613
▁comedor	-12614
▁confían	-12615
▁consumo	-12616
▁contara	-12617
▁contrib	-12618
▁costosa	-12619
▁crítica	-12620
▁cuadros	-12621
▁cuerdas	-12622
▁cultiva	-12623
▁debamos	-12624
▁debiera	-12625
▁demente	-12626
▁derribó	-12627
▁desatar	-12628
▁desnuda	-12629
▁detenga	-12630
▁detiene	-12631
▁divertí	-12632
▁docenas	-12633
▁duermas	-12634
▁echamos	-12635
▁echando	-12636
▁emoción	-12637
▁empeora	-12638
▁encargo	-12639
▁entrome	-12640
▁envidio	-12641
▁escondí	-12642
▁esposas	-12643
▁expecta	-12644
▁faltado	-12645
▁feriado	-12646
▁footing	-12647
▁fuentes	-12648
▁galleta	-12649
▁ganarse	-12650
▁hartado	-12651
▁implica	-12652
▁indicar	-12653
▁instaló	-12654
▁invento	-12655
▁joyería	-12656
▁lavarte	-12657
▁levante	-12658
▁llegaba	-12659
▁llegaré	-12660
▁manchas	-12661
▁mandaré	-12662
▁mencion	-12663
▁mendigo	-12664
▁mensual	-12665
▁meterme	-12666
▁mirarla	-12667
▁mirarme	-12668
▁mordido	-12669
▁morimos	-12670
▁mudarme	-12671
▁nadador	-12672
▁neblina	-12673
▁notable	-12674
▁ordenar	-12675
▁patines	-12676
▁pegarle	-12677
▁perdonó	-12678
▁perilla	-12679
▁perspec	-12680
▁piensen	-12681
▁planchó	-12682
▁podrido	-12683
▁quedase	-12684
▁quejaba	-12685
▁recortó	-12686
▁refugio	-12687
▁rememor	-12688
▁renunci	-12689
▁reventó	-12690
▁ruidoso	-12691
▁sabroso	-12692
▁secador	-12693
▁seguras	-12694
▁setenta	-12695
▁soledad	-12696
▁tenerte	-12697
▁termino	-12698
▁tomaría	-12699
▁término	-12700
▁valijas	-12701
▁valiosa	-12702
▁viajero	-12703
▁vuelven	-12704
▁énfasis	-12705
▁íntimos	-12706
▁órganos	-12707
actamente	-12708
alización	-12709
▁Agárrate	-12710
▁Conducir	-12711
▁Confieso	-12712
▁Entraron	-12713
▁Hablando	-12714
▁Llevamos	-12715
▁Naciones	-12716
▁Pongamos	-12717
▁Pretendo	-12718
▁Seguimos	-12719
▁Solíamos	-12720
▁Viajamos	-12721
▁abandona	-12722
▁abofeteó	-12723
▁abriendo	-12724
▁abrieron	-12725
▁aceptara	-12726
▁adecuada	-12727
▁afectada	-12728
▁agotando	-12729
▁agujeros	-12730
▁ahorrado	-12731
▁alimenta	-12732
▁ambición	-12733
▁aparenta	-12734
▁aproxima	-12735
▁apurarte	-12736
▁aquellas	-12737
▁ardiendo	-12738
▁arriesga	-12739
▁atacaron	-12740
▁averigua	-12741
▁brillaba	-12742
▁burlaron	-12743
▁calurosa	-12744
▁camarera	-12745
▁camellos	-12746
▁camiseta	-12747
▁chillido	-12748
▁cobardes	-12749
▁combinan	-12750
▁comporta	-12751
▁compraré	-12752
▁conexión	-12753
▁confesar	-12754
▁confirmó	-12755
▁confundí	-12756
▁conocían	-12757
▁consolar	-12758
▁contigua	-12759
▁corporal	-12760
▁cruzados	-12761
▁culparme	-12762
▁dedicado	-12763
▁departam	-12764
▁descuido	-12765
▁despidió	-12766
▁destruir	-12767
▁devorado	-12768
▁dragones	-12769
▁ebriedad	-12770
▁encantar	-12771
▁enviarme	-12772
▁equivoco	-12773
▁escapado	-12774
▁esclavos	-12775
▁escribía	-12776
▁espacial	-12777
▁estaréis	-12778
▁estofado	-12779
▁estrangu	-12780
▁estudian	-12781
▁exagerar	-12782
▁excesivo	-12783
▁exprimió	-12784
▁extrañas	-12785
▁extrover	-12786
▁farmacia	-12787
▁golfista	-12788
▁gratuita	-12789
▁habernos	-12790
▁hablarme	-12791
▁idéntico	-12792
▁imprimir	-12793
▁inferior	-12794
▁informes	-12795
▁ingleses	-12796
▁inseguro	-12797
▁internet	-12798
▁italiana	-12799
▁lanzaron	-12800
▁lastimes	-12801
▁levantes	-12802
▁limpiado	-12803
▁limpiara	-12804
▁llegarán	-12805
▁lograron	-12806
▁manzanos	-12807
▁marchado	-12808
▁marrones	-12809
▁masticar	-12810
▁mentirte	-12811
▁montones	-12812
▁necesité	-12813
▁negativo	-12814
▁nocturna	-12815
▁nocturno	-12816
▁objeción	-12817
▁ocuparme	-12818
▁ofendido	-12819
▁oponente	-12820
▁ordenado	-12821
▁paradero	-12822
▁parecida	-12823
▁pasajero	-12824
▁pensaría	-12825
▁perdemos	-12826
▁perderte	-12827
▁platicar	-12828
▁podridas	-12829
▁postular	-12830
▁preocupe	-12831
▁prestada	-12832
▁primeras	-12833
▁profecía	-12834
▁quebrado	-12835
▁quedaros	-12836
▁quitando	-12837
▁recesión	-12838
▁recortes	-12839
▁recupere	-12840
▁sentirme	-12841
▁siéntate	-12842
▁siéntese	-12843
▁solucion	-12844
▁sostener	-12845
▁sostiene	-12846
▁suertudo	-12847
▁templado	-12848
▁temporal	-12849
▁tragedia	-12850
▁trajeron	-12851
▁trasladó	-12852
▁trataron	-12853
▁vainilla	-12854
▁visitará	-12855
▁visitaré	-12856
▁voluntar	-12857
Deberíamos	-12858
▁Aceptamos	-12859
▁Agradezco	-12860
▁Atlántico	-12861
▁Comparado	-12862
▁Inténtalo	-12863
▁Muéstreme	-12864
▁Necesitan	-12865
▁Pareciera	-12866
▁Prepárate	-12867
▁Recibimos	-12868
▁Solamente	-12869
▁aceptaría	-12870
▁acusación	-12871
▁adelgazar	-12872
▁alegramos	-12873
▁alimentan	-12874
▁aterrizar	-12875
▁aumentado	-12876
▁ayudarles	-12877
▁categoría	-12878
▁cedisteis	-12879
▁comparado	-12880
▁compramos	-12881
▁comprarte	-12882
▁comunican	-12883
▁comunidad	-12884
▁concluido	-12885
▁confirmar	-12886
▁conflicto	-12887
▁conocerla	-12888
▁cuchillos	-12889
▁deberíais	-12890
▁declarado	-12891
▁desayunas	-12892
▁despejado	-12893
▁despierte	-12894
▁destinado	-12895
▁destruida	-12896
▁detallada	-12897
▁detenerlo	-12898
▁detenerte	-12899
▁detenidos	-12900
▁divorciar	-12901
▁duplicado	-12902
▁eficiente	-12903
▁embajador	-12904
▁embrujada	-12905
▁encerrado	-12906
▁enfermero	-12907
▁enseñanza	-12908
▁esperaban	-12909
▁francesas	-12910
▁frustrado	-12911
▁gentileza	-12912
▁golpeando	-12913
▁hablantes	-12914
▁higiénico	-12915
▁imparcial	-12916
▁implicado	-12917
▁indefenso	-12918
▁intentaré	-12919
▁invasores	-12920
▁invisible	-12921
▁invitarme	-12922
▁llevarnos	-12923
▁marcharme	-12924
▁margarina	-12925
▁mencionar	-12926
▁mermelada	-12927
▁muchachas	-12928
▁navideños	-12929
▁necesitás	-12930
▁nerviosos	-12931
▁nitrógeno	-12932
▁obligados	-12933
▁ocurriera	-12934
▁olvidaste	-12935
▁oscureció	-12936
▁palideció	-12937
▁planeamos	-12938
▁plantando	-12939
▁preocupas	-12940
▁presumida	-12941
▁recibimos	-12942
▁recibiste	-12943
▁recogerme	-12944
▁recuerdes	-12945
▁sobrepeso	-12946
▁solitaria	-12947
▁suspendió	-12948
▁triunfará	-12949
▁Aprendemos	-12950
▁Claramente	-12951
▁Consígueme	-12952
▁Encontraré	-12953
▁Estudiamos	-12954
▁Estuvieron	-12955
▁Juntémonos	-12956
▁Lamentamos	-12957
▁aburriendo	-12958
▁acantilado	-12959
▁acompañado	-12960
▁almorzamos	-12961
▁arduamente	-12962
▁asegurarse	-12963
▁asesinados	-12964
▁automático	-12965
▁calentador	-12966
▁carretilla	-12967
▁catástrofe	-12968
▁cepillarte	-12969
▁competente	-12970
▁compositor	-12971
▁construida	-12972
▁contagiosa	-12973
▁contratado	-12974
▁contribuyó	-12975
▁corazonada	-12976
▁cristianos	-12977
▁desacuerdo	-12978
▁deshacerse	-12979
▁deshonesto	-12980
▁despedidos	-12981
▁despiertos	-12982
▁divertiste	-12983
▁ejercicios	-12984
▁emparedado	-12985
▁enamoradas	-12986
▁entenderle	-12987
▁enterraron	-12988
▁entrenando	-12989
▁entristece	-12990
▁estresante	-12991
▁exagerando	-12992
▁expedición	-12993
▁exposición	-12994
▁expresarte	-12995
▁extraordin	-12996
▁ferrocarri	-12997
▁graduación	-12998
▁habitantes	-12999
▁hospitales	-13000
▁ingenieros	-13001
▁insensible	-13002
▁justamente	-13003
▁maleducado	-13004
▁mantenerse	-13005
▁mentirosos	-13006
▁murciélago	-13007
▁ofrecieron	-13008
▁perdonarle	-13009
▁plenamente	-13010
▁precaución	-13011
▁predicción	-13012
▁protección	-13013
▁psiquiatra	-13014
▁recibieron	-13015
▁reconocido	-13016
▁reconsider	-13017
▁regresaría	-13018
▁religiones	-13019
▁representa	-13020
▁respetuoso	-13021
▁salvavidas	-13022
▁satisfacer	-13023
▁siguientes	-13024
▁simpáticos	-13025
▁suspendido	-13026
▁trabajaban	-13027
ventualmente	-13028
▁Agradecería	-13029
▁Conseguimos	-13030
▁Conversamos	-13031
▁Seguramente	-13032
▁actividades	-13033
▁agricultura	-13034
▁aniversario	-13035
▁aplaudieron	-13036
▁aprendizaje	-13037
▁averiguarlo	-13038
▁bienvenidos	-13039
▁compartimos	-13040
▁compartirlo	-13041
▁composición	-13042
▁conscientes	-13043
▁corresponde	-13044
▁decepciones	-13045
▁dependiente	-13046
▁desconocida	-13047
▁despiértame	-13048
▁dinosaurios	-13049
▁diplomático	-13050
▁encontrarla	-13051
▁encontraría	-13052
▁entretenido	-13053
▁equivocarse	-13054
▁escondernos	-13055
▁financieros	-13056
▁herramienta	-13057
▁inaceptable	-13058
▁inapropiado	-13059
▁inspiración	-13060
▁intercambio	-13061
▁intranquilo	-13062
▁necesitabas	-13063
▁perjudicial	-13064
▁preguntaste	-13065
▁quisquillos	-13066
▁respondiste	-13067
▁sentenciado	-13068
▁sentimiento	-13069
▁severamente	-13070
▁superficial	-13071
▁súbitamente	-13072
▁tradiciones	-13073
▁aterrorizado	-13074
▁avergonzarse	-13075
▁confidencial	-13076
▁constitución	-13077
▁cuestionario	-13078
▁descompuesto	-13079
▁desconocidos	-13080
▁descubrieron	-13081
▁incompetente	-13082
▁involucrados	-13083
▁materialista	-13084
▁organización	-13085
▁preocupación	-13086
▁preparándose	-13087
▁presentación	-13088
▁recomendaría	-13089
▁secretamente	-13090
▁sinceramente	-13091
▁acostumbrados	-13092
▁acostumbrarme	-13093
▁conocimientos	-13094
▁oportunidades	-13095
▁satisfactoria	-13096
▁Repentinamente	-13097
▁intercambiaron	-13098
▁secuestradores	-13099
▁tranquilamente	-13100
An	-13101
Ba	-13102
DA	-13103
Ex	-13104
Ni	-13105
dy	-13106
eh	-13107
ff	-13108
ps	-13109
ts	-13110
yu	-13111
zn	-13112
!".	-13113
Apa	-13114
Dej	-13115
Gan	-13116
Pon	-13117
Res	-13118
ami	-13119
bid	-13120
bro	-13121
cab	-13122
dós	-13123
eor	-13124
eos	-13125
ere	-13126
esc	-13127
esó	-13128
frí	-13129
ful	-13130
gle	-13131
gur	-13132
gán	-13133
hos	-13134
inu	-13135
ién	-13136
mia	-13137
ner	-13138
nio	-13139
nol	-13140
oli	-13141
oni	-13142
rad	-13143
ric	-13144
sen	-13145
sté	-13146
tid	-13147
try	-13148
tác	-13149
uis	-13150
ure	-13151
uvo	-13152
áfa	-13153
ñor	-13154
▁3.	-13155
▁Bé	-13156
▁Mc	-13157
▁Sá	-13158
▁Th	-13159
▁cé	-13160
▁et	-13161
▁át	-13162
abar	-13163
acer	-13164
acio	-13165
acía	-13166
anei	-13167
anji	-13168
anoa	-13169
anse	-13170
anta	-13171
asán	-13172
baló	-13173
bita	-13174
bral	-13175
brid	-13176
bula	-13177
bulo	-13178
cala	-13179
cear	-13180
cent	-13181
chil	-13182
chón	-13183
cipl	-13184
cipé	-13185
ctac	-13186
cíos	-13187
dele	-13188
dite	-13189
dney	-13190
duvo	-13191
enan	-13192
enho	-13193
enla	-13194
eres	-13195
eroi	-13196
ezar	-13197
gara	-13198
geme	-13199
gias	-13200
glés	-13201
hone	-13202
iena	-13203
ires	-13204
isti	-13205
izas	-13206
land	-13207
lash	-13208
legí	-13209
león	-13210
lios	-13211
mana	-13212
ollo	-13213
onal	-13214
onca	-13215
orgu	-13216
posa	-13217
queó	-13218
quin	-13219
reas	-13220
reno	-13221
rovi	-13222
sima	-13223
siva	-13224
stan	-13225
stop	-13226
teza	-13227
uman	-13228
umbó	-13229
umin	-13230
utas	-13231
zzle	-13232
áneo	-13233
écil	-13234
▁10.	-13235
▁ADN	-13236
▁Bru	-13237
▁Car	-13238
▁Cri	-13239
▁Dec	-13240
▁Ein	-13241
▁Eli	-13242
▁Ház	-13243
▁Juz	-13244
▁Men	-13245
▁Nor	-13246
▁Océ	-13247
▁Ojo	-13248
▁Oli	-13249
▁Olí	-13250
▁Rie	-13251
▁Sac	-13252
▁Ste	-13253
▁Sue	-13254
▁Vie	-13255
▁adu	-13256
▁anz	-13257
▁ase	-13258
▁bel	-13259
▁bik	-13260
▁cañ	-13261
▁cel	-13262
▁cín	-13263
▁dió	-13264
▁déj	-13265
▁elu	-13266
▁fab	-13267
▁fax	-13268
▁fór	-13269
▁gau	-13270
▁gig	-13271
▁hip	-13272
▁mag	-13273
▁mex	-13274
▁már	-13275
▁ome	-13276
▁ora	-13277
▁oxi	-13278
▁pay	-13279
▁pep	-13280
▁pir	-13281
▁psí	-13282
▁rap	-13283
▁rol	-13284
▁sex	-13285
▁tex	-13286
▁uti	-13287
▁zur	-13288
▁étn	-13289
Comer	-13290
Estos	-13291
Feliz	-13292
Hacia	-13293
Tomas	-13294
amora	-13295
bajos	-13296
baste	-13297
billa	-13298
cales	-13299
canes	-13300
cería	-13301
chaba	-13302
chado	-13303
cinas	-13304
contr	-13305
crata	-13306
crita	-13307
culas	-13308
deras	-13309
dería	-13310
dicto	-13311
erosa	-13312
ertes	-13313
estar	-13314
feros	-13315
gitud	-13316
graci	-13317
licos	-13318
llate	-13319
lombo	-13320
mbate	-13321
mboca	-13322
menes	-13323
minos	-13324
moral	-13325
onado	-13326
ortes	-13327
ortés	-13328
pados	-13329
pamos	-13330
parse	-13331
plaba	-13332
puest	-13333
radas	-13334
ranos	-13335
rense	-13336
roslo	-13337
sabes	-13338
simos	-13339
stein	-13340
tadme	-13341
tesis	-13342
titos	-13343
treet	-13344
tugal	-13345
uales	-13346
uemos	-13347
untry	-13348
ustro	-13349
vanse	-13350
varon	-13351
zaban	-13352
zable	-13353
zaría	-13354
áfaga	-13355
ñendo	-13356
▁Acor	-13357
▁Actu	-13358
▁Ando	-13359
▁Apla	-13360
▁Apur	-13361
▁Aqué	-13362
▁Arro	-13363
▁Arru	-13364
▁Baje	-13365
▁Bajo	-13366
▁Bebo	-13367
▁Coca	-13368
▁Debí	-13369
▁Empú	-13370
▁Enví	-13371
▁Exam	-13372
▁Feli	-13373
▁Ford	-13374
▁Gané	-13375
▁Huyó	-13376
▁Juro	-13377
▁Mola	-13378
▁Napo	-13379
▁Nilo	-13380
▁Odia	-13381
▁Paga	-13382
▁Pele	-13383
▁Peso	-13384
▁Pide	-13385
▁Pues	-13386
▁Rara	-13387
▁SIDA	-13388
▁Sonó	-13389
▁Subí	-13390
▁Suje	-13391
▁Tene	-13392
▁Tomo	-13393
▁Unos	-13394
▁aban	-13395
▁acos	-13396
▁anto	-13397
▁aper	-13398
▁ardi	-13399
▁asfi	-13400
▁ator	-13401
▁atur	-13402
▁audi	-13403
▁auri	-13404
▁ayun	-13405
▁blog	-13406
▁boxe	-13407
▁caen	-13408
▁case	-13409
▁chas	-13410
▁coca	-13411
▁coña	-13412
▁cria	-13413
▁cuén	-13414
▁dela	-13415
▁depi	-13416
▁dilo	-13417
▁dios	-13418
▁disi	-13419
▁disu	-13420
▁duch	-13421
▁dudó	-13422
▁dure	-13423
▁ejec	-13424
▁elig	-13425
▁enre	-13426
▁espé	-13427
▁exci	-13428
▁exig	-13429
▁fiel	-13430
▁fino	-13431
▁foga	-13432
▁gala	-13433
▁grúa	-13434
▁guay	-13435
▁imán	-13436
▁into	-13437
▁irra	-13438
▁irán	-13439
▁kara	-13440
▁lanz	-13441
▁lapi	-13442
▁lazo	-13443
▁maja	-13444
▁malh	-13445
▁mene	-13446
▁mudé	-13447
▁oiga	-13448
▁ojeó	-13449
▁olas	-13450
▁orto	-13451
▁pato	-13452
▁pein	-13453
▁pion	-13454
▁psic	-13455
▁puño	-13456
▁rapi	-13457
▁rebe	-13458
▁reti	-13459
▁ridi	-13460
▁ríes	-13461
▁sigo	-13462
▁somb	-13463
▁soñé	-13464
▁suba	-13465
▁sumo	-13466
▁tari	-13467
▁tera	-13468
▁topó	-13469
Deseas	-13470
Piensa	-13471
abuelo	-13472
amarca	-13473
aneiro	-13474
anilla	-13475
ciable	-13476
ctivos	-13477
cturas	-13478
culoso	-13479
diante	-13480
distas	-13481
ecimos	-13482
erosos	-13483
iduría	-13484
landes	-13485
llones	-13486
misfer	-13487
oscada	-13488
parrón	-13489
pondré	-13490
puedes	-13491
quetes	-13492
resión	-13493
ruptor	-13494
rófono	-13495
tentes	-13496
terias	-13497
tiende	-13498
tienes	-13499
tizado	-13500
trices	-13501
trones	-13502
turado	-13503
ulando	-13504
ustria	-13505
▁Abrió	-13506
▁Alpes	-13507
▁Ayuda	-13508
▁Bajen	-13509
▁Barre	-13510
▁Basta	-13511
▁Calcu	-13512
▁Claus	-13513
▁Cocin	-13514
▁Dadme	-13515
▁Decir	-13516
▁Denme	-13517
▁Dormi	-13518
▁Elegí	-13519
▁Escal	-13520
▁Feste	-13521
▁Flash	-13522
▁Hazte	-13523
▁Ignor	-13524
▁Juega	-13525
▁Jugué	-13526
▁Llamá	-13527
▁Llego	-13528
▁Llene	-13529
▁Lloro	-13530
▁Luego	-13531
▁Mirad	-13532
▁Mucho	-13533
▁Obede	-13534
▁Pidió	-13535
▁Plane	-13536
▁Ponle	-13537
▁Ponme	-13538
▁Quise	-13539
▁Repar	-13540
▁Resol	-13541
▁Rompi	-13542
▁Sigan	-13543
▁Sudam	-13544
▁Tomen	-13545
▁Traje	-13546
▁Vente	-13547
▁Viajó	-13548
▁Viena	-13549
▁Vivió	-13550
▁Vivía	-13551
▁acero	-13552
▁actos	-13553
▁aldea	-13554
▁alegó	-13555
▁apest	-13556
▁arran	-13557
▁asado	-13558
▁banjo	-13559
▁barro	-13560
▁boche	-13561
▁busco	-13562
▁búhos	-13563
▁canoa	-13564
▁cansa	-13565
▁carac	-13566
▁cavar	-13567
▁cerro	-13568
▁chapo	-13569
▁chavo	-13570
▁circo	-13571
▁circu	-13572
▁cober	-13573
▁conce	-13574
▁corrí	-13575
▁crear	-13576
▁daban	-13577
▁danza	-13578
▁daros	-13579
▁densa	-13580
▁desar	-13581
▁desfi	-13582
▁diagn	-13583
▁divul	-13584
▁ejecu	-13585
▁elija	-13586
▁elogi	-13587
▁embar	-13588
▁emigr	-13589
▁enchu	-13590
▁enfri	-13591
▁engen	-13592
▁enjua	-13593
▁envié	-13594
▁escan	-13595
▁espar	-13596
▁espon	-13597
▁explí	-13598
▁feria	-13599
▁flaco	-13600
▁flota	-13601
▁fruto	-13602
▁gesto	-13603
▁gorro	-13604
▁gruñó	-13605
▁guiño	-13606
▁hechi	-13607
▁hospe	-13608
▁hunde	-13609
▁ileso	-13610
▁ilust	-13611
▁impec	-13612
▁impli	-13613
▁incur	-13614
▁infec	-13615
▁influ	-13616
▁inger	-13617
▁islas	-13618
▁justa	-13619
▁kanji	-13620
▁leván	-13621
▁lunar	-13622
▁manga	-13623
▁manta	-13624
▁mayús	-13625
▁nutri	-13626
▁opera	-13627
▁opuso	-13628
▁oímos	-13629
▁oírme	-13630
▁panor	-13631
▁parto	-13632
▁pasos	-13633
▁patri	-13634
▁pegué	-13635
▁perra	-13636
▁pesas	-13637
▁pescó	-13638
▁petro	-13639
▁pilas	-13640
▁pillo	-13641
▁plomo	-13642
▁ponte	-13643
▁priva	-13644
▁promo	-13645
▁quebr	-13646
▁quita	-13647
▁rasgu	-13648
▁reban	-13649
▁repas	-13650
▁rindo	-13651
▁roble	-13652
▁rompa	-13653
▁ropas	-13654
▁rubia	-13655
▁salís	-13656
▁sarcá	-13657
▁selva	-13658
▁sigas	-13659
▁sober	-13660
▁socio	-13661
▁subas	-13662
▁sudar	-13663
▁sumer	-13664
▁susto	-13665
▁suyas	-13666
▁tabla	-13667
▁tenue	-13668
▁tesis	-13669
▁torno	-13670
▁trape	-13671
▁trate	-13672
▁trime	-13673
▁trist	-13674
▁trofe	-13675
▁tumor	-13676
▁ultra	-13677
▁vería	-13678
▁viajo	-13679
▁vital	-13680
▁vocab	-13681
▁vuela	-13682
▁yogur	-13683
▁zonas	-13684
▁ético	-13685
Compren	-13686
Durante	-13687
Tuviste	-13688
aciones	-13689
aríamos	-13690
dencias	-13691
eciendo	-13692
entaron	-13693
eroides	-13694
istible	-13695
lamento	-13696
mpiadas	-13697
orgulle	-13698
osibles	-13699
quieres	-13700
rorista	-13701
samente	-13702
uélvelo	-13703
uérdame	-13704
uérdate	-13705
vadores	-13706
éndonos	-13707
▁Antigu	-13708
▁Aparte	-13709
▁Chopin	-13710
▁Colgué	-13711
▁Consul	-13712
▁Defini	-13713
▁Dejaré	-13714
▁Déjelo	-13715
▁Edison	-13716
▁Inglés	-13717
▁Limpia	-13718
▁Llegas	-13719
▁Llovía	-13720
▁Monroe	-13721
▁Mírame	-13722
▁Océano	-13723
▁Ordené	-13724
▁Recién	-13725
▁Recoge	-13726
▁Serbia	-13727
▁Street	-13728
▁Tengan	-13729
▁Tírame	-13730
▁Tómese	-13731
▁Usamos	-13732
▁Visito	-13733
▁abrace	-13734
▁absten	-13735
▁activo	-13736
▁adaptó	-13737
▁adivin	-13738
▁adoran	-13739
▁afeitó	-13740
▁alegró	-13741
▁alojar	-13742
▁amarga	-13743
▁aparcó	-13744
▁apunté	-13745
▁apuñal	-13746
▁armada	-13747
▁asumir	-13748
▁asumió	-13749
▁atrajo	-13750
▁averig	-13751
▁averió	-13752
▁bigote	-13753
▁bronca	-13754
▁campos	-13755
▁campus	-13756
▁cantan	-13757
▁cargos	-13758
▁carros	-13759
▁cartel	-13760
▁casará	-13761
▁cederá	-13762
▁chomba	-13763
▁ciegos	-13764
▁clavos	-13765
▁cobrar	-13766
▁cocido	-13767
▁conste	-13768
▁cortes	-13769
▁cosita	-13770
▁crezca	-13771
▁creéis	-13772
▁creído	-13773
▁crudas	-13774
▁cuales	-13775
▁cubrir	-13776
▁cubrió	-13777
▁cuenco	-13778
▁culpas	-13779
▁culpes	-13780
▁curado	-13781
▁debéis	-13782
▁decile	-13783
▁dedico	-13784
▁desear	-13785
▁dígame	-13786
▁enfado	-13787
▁engreí	-13788
▁enseñe	-13789
▁erigió	-13790
▁espesa	-13791
▁estaño	-13792
▁farful	-13793
▁fideos	-13794
▁fijado	-13795
▁flotar	-13796
▁franco	-13797
▁fraude	-13798
▁fresas	-13799
▁fuegos	-13800
▁ganaba	-13801
▁gemela	-13802
▁griega	-13803
▁grueso	-13804
▁gustes	-13805
▁hacías	-13806
▁hechas	-13807
▁huelen	-13808
▁ignora	-13809
▁imitar	-13810
▁impuso	-13811
▁indeci	-13812
▁infeli	-13813
▁inflam	-13814
▁inmune	-13815
▁inscri	-13816
▁integr	-13817
▁intern	-13818
▁jubiló	-13819
▁jugaré	-13820
▁lentos	-13821
▁limita	-13822
▁lindas	-13823
▁listón	-13824
▁lloran	-13825
▁lloras	-13826
▁lógico	-13827
▁malcri	-13828
▁malici	-13829
▁mantas	-13830
▁mantel	-13831
▁manual	-13832
▁margen	-13833
▁mascul	-13834
▁mecano	-13835
▁mejora	-13836
▁mental	-13837
▁mínima	-13838
▁nadaba	-13839
▁nativa	-13840
▁negado	-13841
▁negras	-13842
▁nevado	-13843
▁nevera	-13844
▁omelet	-13845
▁oyeron	-13846
▁patrón	-13847
▁pecado	-13848
▁pegada	-13849
▁pelado	-13850
▁pelliz	-13851
▁peores	-13852
▁perfil	-13853
▁piezas	-13854
▁pirata	-13855
▁plumas	-13856
▁poseía	-13857
▁propie	-13858
▁proven	-13859
▁psíqui	-13860
▁puzzle	-13861
▁quejan	-13862
▁quemar	-13863
▁reacio	-13864
▁reclam	-13865
▁refrán	-13866
▁regalé	-13867
▁remera	-13868
▁remoto	-13869
▁repetí	-13870
▁requer	-13871
▁resbal	-13872
▁risita	-13873
▁robada	-13874
▁robots	-13875
▁roncar	-13876
▁rosado	-13877
▁rubias	-13878
▁ráfaga	-13879
▁sacado	-13880
▁salchi	-13881
▁saldré	-13882
▁salgan	-13883
▁salmón	-13884
▁sandía	-13885
▁saques	-13886
▁serías	-13887
▁sesión	-13888
▁sierra	-13889
▁sirven	-13890
▁somnol	-13891
▁sonaba	-13892
▁suenan	-13893
▁supera	-13894
▁surgió	-13895
▁teñido	-13896
▁tictac	-13897
▁titube	-13898
▁torció	-13899
▁tribun	-13900
▁unirte	-13901
▁vacíos	-13902
▁valija	-13903
▁vertió	-13904
▁vieras	-13905
▁visito	-13906
▁vistió	-13907
▁vivirá	-13908
▁volado	-13909
▁votado	-13910
▁válida	-13911
▁zambul	-13912
▁Échale	-13913
▁águila	-13914
▁átomos	-13915
Escuchas	-13916
Necesito	-13917
cionados	-13918
cionista	-13919
gaciones	-13920
laciones	-13921
ligencia	-13922
sistente	-13923
tiéndose	-13924
▁Acostum	-13925
▁Aprende	-13926
▁Austria	-13927
▁Central	-13928
▁Ciertas	-13929
▁Comemos	-13930
▁Compara	-13931
▁Comprue	-13932
▁Conduce	-13933
▁Considé	-13934
▁Costará	-13935
▁Desapar	-13936
▁Escribo	-13937
▁Ganamos	-13938
▁Hablaba	-13939
▁Janeiro	-13940
▁Llegará	-13941
▁Llevará	-13942
▁Noruega	-13943
▁Palacio	-13944
▁Paremos	-13945
▁Quedate	-13946
▁Querían	-13947
▁Regresa	-13948
▁Seremos	-13949
▁Sírvete	-13950
▁Tampoco	-13951
▁Túmbate	-13952
▁Vietnam	-13953
▁abdomin	-13954
▁aburres	-13955
▁aburrió	-13956
▁aceleró	-13957
▁adictos	-13958
▁agarrar	-13959
▁agitado	-13960
▁aguardó	-13961
▁ahogado	-13962
▁alergia	-13963
▁aliviar	-13964
▁almorzó	-13965
▁amistos	-13966
▁angusti	-13967
▁anzuelo	-13968
▁aparato	-13969
▁apostar	-13970
▁aprenda	-13971
▁arregle	-13972
▁asustan	-13973
▁asustar	-13974
▁atacado	-13975
▁avances	-13976
▁ayudaba	-13977
▁bailado	-13978
▁bajarle	-13979
▁baratas	-13980
▁besaste	-13981
▁biólogo	-13982
▁brasile	-13983
▁calentó	-13984
▁cambian	-13985
▁cantara	-13986
▁casadas	-13987
▁causada	-13988
▁causado	-13989
▁cenamos	-13990
▁cenizas	-13991
▁central	-13992
▁certeza	-13993
▁ciertos	-13994
▁ciervos	-13995
▁cocodri	-13996
▁colabor	-13997
▁colapsó	-13998
▁combina	-13999
▁country	-14000
▁cruasán	-14001
▁culpado	-14002
▁cultivo	-14003
▁cállate	-14004
▁decorar	-14005
▁dedicar	-14006
▁delgada	-14007
▁demostr	-14008
▁despilf	-14009
▁despren	-14010
▁detesta	-14011
▁discapa	-14012
▁educada	-14013
▁encalló	-14014
▁enfermó	-14015
▁engañan	-14016
▁engañas	-14017
▁enterar	-14018
▁entrara	-14019
▁entrega	-14020
▁envíeme	-14021
▁escasos	-14022
▁esperen	-14023
▁esperás	-14024
▁estando	-14025
▁estornu	-14026
▁estudie	-14027
▁evacuar	-14028
▁existir	-14029
▁existía	-14030
▁explica	-14031
▁extrañé	-14032
▁fabrica	-14033
▁faltaba	-14034
▁fundado	-14035
▁furiosa	-14036
▁galones	-14037
▁ganamos	-14038
▁gemelas	-14039
▁gustara	-14040
▁haberos	-14041
▁habléis	-14042
▁herirte	-14043
▁histori	-14044
▁honrado	-14045
▁hornear	-14046
▁imbécil	-14047
▁imprevi	-14048
▁impulso	-14049
▁inadecu	-14050
▁ingenio	-14051
▁inmoral	-14052
▁insatis	-14053
▁inservi	-14054
▁intensa	-14055
▁intente	-14056
▁jugaron	-14057
▁juzgues	-14058
▁liberar	-14059
▁limones	-14060
▁lágrima	-14061
▁líquido	-14062
▁maduras	-14063
▁manipul	-14064
▁manzano	-14065
▁melancó	-14066
▁miraban	-14067
▁miradas	-14068
▁mirarlo	-14069
▁mojados	-14070
▁músicos	-14071
▁naciste	-14072
▁negaron	-14073
▁obedece	-14074
▁ocuparé	-14075
▁ocurría	-14076
▁olviden	-14077
▁pagaste	-14078
▁parados	-14079
▁parejas	-14080
▁pasarlo	-14081
▁pasarte	-14082
▁pilotos	-14083
▁pintara	-14084
▁piratas	-14085
▁planean	-14086
▁plantar	-14087
▁pondrás	-14088
▁potable	-14089
▁predijo	-14090
▁pregunt	-14091
▁prestes	-14092
▁previno	-14093
▁propina	-14094
▁publica	-14095
▁pudiese	-14096
▁pupitre	-14097
▁redonda	-14098
▁reembol	-14099
▁reforma	-14100
▁rehenes	-14101
▁relojes	-14102
▁repitió	-14103
▁repleto	-14104
▁reprobó	-14105
▁resbaló	-14106
▁rescate	-14107
▁rescató	-14108
▁retrato	-14109
▁robados	-14110
▁sacando	-14111
▁sacudió	-14112
▁seguirá	-14113
▁seremos	-14114
▁situado	-14115
▁sobreco	-14116
▁sobrina	-14117
▁sonreía	-14118
▁sonríen	-14119
▁sonríes	-14120
▁sujetos	-14121
▁suplicó	-14122
▁temblar	-14123
▁tendrán	-14124
▁tengáis	-14125
▁terreno	-14126
▁tiburón	-14127
▁tientas	-14128
▁tocarlo	-14129
▁tolerar	-14130
▁tomarlo	-14131
▁tostada	-14132
▁trabaje	-14133
▁tropezó	-14134
▁valores	-14135
▁vigilar	-14136
▁visible	-14137
▁volante	-14138
▁vámonos	-14139
Prefieres	-14140
ladamente	-14141
▁Abandona	-14142
▁Abandonó	-14143
▁Acércate	-14144
▁Cantemos	-14145
▁Cogieron	-14146
▁Comienzo	-14147
▁Desayuno	-14148
▁Desayuné	-14149
▁Desgraci	-14150
▁Einstein	-14151
▁Enséñeme	-14152
▁Entremos	-14153
▁Funciona	-14154
▁Libertad	-14155
▁Mercurio	-14156
▁Murieron	-14157
▁Napoleón	-14158
▁Necesita	-14159
▁Portugal	-14160
▁Trabajas	-14161
▁Veámonos	-14162
▁acabaron	-14163
▁acertijo	-14164
▁acompaño	-14165
▁acompañó	-14166
▁aconseja	-14167
▁aconsejo	-14168
▁alboroto	-14169
▁alcantar	-14170
▁alergias	-14171
▁alimenti	-14172
▁amistosa	-14173
▁ansiosos	-14174
▁anteayer	-14175
▁antemano	-14176
▁anuncios	-14177
▁aparecer	-14178
▁aprenden	-14179
▁aprendes	-14180
▁apretado	-14181
▁aprovech	-14182
▁ardillas	-14183
▁arrastró	-14184
▁arrendar	-14185
▁arriendo	-14186
▁arriesgó	-14187
▁ascendió	-14188
▁asistiré	-14189
▁aumentar	-14190
▁autopsia	-14191
▁auxilios	-14192
▁ayudarás	-14193
▁bancaria	-14194
▁banderas	-14195
▁buscamos	-14196
▁cabezota	-14197
▁caminata	-14198
▁cardíaco	-14199
▁cedieron	-14200
▁centavos	-14201
▁cerrando	-14202
▁cisterna	-14203
▁combatir	-14204
▁comercio	-14205
▁compares	-14206
▁comparte	-14207
▁compleja	-14208
▁comprase	-14209
▁concluyó	-14210
▁confusos	-14211
▁consigas	-14212
▁consumir	-14213
▁contarme	-14214
▁contaría	-14215
▁cosiendo	-14216
▁creativo	-14217
▁creyente	-14218
▁cuidando	-14219
▁decidida	-14220
▁dejarías	-14221
▁delicada	-14222
▁dependen	-14223
▁depositó	-14224
▁derrotar	-14225
▁derrumbó	-14226
▁desayunó	-14227
▁deseamos	-14228
▁desnudos	-14229
▁despacho	-14230
▁despejar	-14231
▁disculpé	-14232
▁diseñado	-14233
▁distrito	-14234
▁donación	-14235
▁elegante	-14236
▁elegimos	-14237
▁empapado	-14238
▁encienda	-14239
▁enojados	-14240
▁enviados	-14241
▁erupción	-14242
▁escritos	-14243
▁estancia	-14244
▁estarían	-14245
▁estricta	-14246
▁estropeó	-14247
▁europeos	-14248
▁examinar	-14249
▁flotando	-14250
▁gauchada	-14251
▁graduado	-14252
▁gratuito	-14253
▁gritaron	-14254
▁hablabas	-14255
▁hemisfer	-14256
▁holandés	-14257
▁ilegales	-14258
▁incomodo	-14259
▁inconven	-14260
▁incómoda	-14261
▁ingenuos	-14262
▁inglesas	-14263
▁inmaduro	-14264
▁insomnio	-14265
▁intentos	-14266
▁interesó	-14267
▁jodiendo	-14268
▁limitado	-14269
▁limonada	-14270
▁llamamos	-14271
▁longitud	-14272
▁mariposa	-14273
▁mecánico	-14274
▁mejicana	-14275
▁mejorará	-14276
▁molestan	-14277
▁molesten	-14278
▁molestia	-14279
▁mosquito	-14280
▁motivado	-14281
▁numerosa	-14282
▁obsoleto	-14283
▁ocuparte	-14284
▁orquesta	-14285
▁parecerá	-14286
▁pastilla	-14287
▁pañuelos	-14288
▁pensamos	-14289
▁perdidos	-14290
▁permiten	-14291
▁pillaron	-14292
▁pistolas	-14293
▁plantado	-14294
▁positivo	-14295
▁potencia	-14296
▁presenta	-14297
▁producen	-14298
▁provecho	-14299
▁pudieran	-14300
▁quedaría	-14301
▁quemaron	-14302
▁quilombo	-14303
▁quitarme	-14304
▁racional	-14305
▁reacción	-14306
▁reconoce	-14307
▁recámara	-14308
▁renuncia	-14309
▁reprobar	-14310
▁reservas	-14311
▁responda	-14312
▁ridiculi	-14313
▁sabremos	-14314
▁salvarla	-14315
▁satélite	-14316
▁seguirte	-14317
▁semillas	-14318
▁sentirlo	-14319
▁sentirse	-14320
▁shopping	-14321
▁silbando	-14322
▁sobornar	-14323
▁solicitó	-14324
▁sometido	-14325
▁supersti	-14326
▁síntomas	-14327
▁temblaba	-14328
▁temprana	-14329
▁tendrías	-14330
▁termines	-14331
▁tornillo	-14332
▁tratados	-14333
▁trompeta	-14334
▁términos	-14335
▁urgencia	-14336
▁utilidad	-14337
▁valiosos	-14338
▁viajando	-14339
▁vigilado	-14340
▁vigoroso	-14341
▁vivieron	-14342
▁volvamos	-14343
Preferiría	-14344
toriamente	-14345
▁Atraparon	-14346
▁Caminamos	-14347
▁Coleccion	-14348
▁Conocemos	-14349
▁Consiguió	-14350
▁Dinamarca	-14351
▁Encuentra	-14352
▁Encuentro	-14353
▁Escúchame	-14354
▁Siguieron	-14355
▁Tomémonos	-14356
▁acercarme	-14357
▁acordaste	-14358
▁adoptaron	-14359
▁advertido	-14360
▁ajetreada	-14361
▁ajetreado	-14362
▁altibajos	-14363
▁amarillos	-14364
▁ambicioso	-14365
▁anonadado	-14366
▁anunciado	-14367
▁argumento	-14368
▁arrojaron	-14369
▁ascendido	-14370
▁aterrador	-14371
▁atraviesa	-14372
▁auténtica	-14373
▁aventuras	-14374
▁bacterias	-14375
▁bastantes	-14376
▁beneficio	-14377
▁cambiaron	-14378
▁camionero	-14379
▁chaparrón	-14380
▁comenzará	-14381
▁cometemos	-14382
▁comodidad	-14383
▁compañías	-14384
▁conectado	-14385
▁confiable	-14386
▁confundió	-14387
▁conocerle	-14388
▁conocerlo	-14389
▁consigues	-14390
▁controver	-14391
▁cucharada	-14392
▁debilidad	-14393
▁decidimos	-14394
▁decírmelo	-14395
▁defraudar	-14396
▁delantera	-14397
▁demuestra	-14398
▁descargar	-14399
▁descortés	-14400
▁desemboca	-14401
▁desempleo	-14402
▁diabético	-14403
▁diciembre	-14404
▁discursos	-14405
▁distintas	-14406
▁distintos	-14407
▁divertían	-14408
▁ejecutado	-14409
▁emboscada	-14410
▁endeudado	-14411
▁enfadadas	-14412
▁engañando	-14413
▁enorgulle	-14414
▁enseñaste	-14415
▁escabulló	-14416
▁escondite	-14417
▁evolución	-14418
▁extinguió	-14419
▁fabricado	-14420
▁fortalece	-14421
▁franqueza	-14422
▁frutillas	-14423
▁golpearon	-14424
▁graciosas	-14425
▁guardaesp	-14426
▁humillado	-14427
▁ignorando	-14428
▁importado	-14429
▁impresora	-14430
▁incómodos	-14431
▁indicarme	-14432
▁iniciales	-14433
▁insensato	-14434
▁intentara	-14435
▁inventado	-14436
▁inyección	-14437
▁juntarnos	-14438
▁levántate	-14439
▁liberados	-14440
▁localizar	-14441
▁malgastar	-14442
▁mantendrá	-14443
▁mantengas	-14444
▁maravilla	-14445
▁micrófono	-14446
▁monumento	-14447
▁mostrador	-14448
▁navideñas	-14449
▁ocurriría	-14450
▁olvidamos	-14451
▁olvidarlo	-14452
▁ordinario	-14453
▁padrastro	-14454
▁peluquero	-14455
▁perdóname	-14456
▁permanece	-14457
▁persiguió	-14458
▁persuadió	-14459
▁precipitó	-14460
▁prestados	-14461
▁publicado	-14462
▁puntillas	-14463
▁queriendo	-14464
▁realizará	-14465
▁recogerlo	-14466
▁relajarte	-14467
▁repentina	-14468
▁repentino	-14469
▁repetirme	-14470
▁reservado	-14471
▁respetado	-14472
▁retiraron	-14473
▁sabiduría	-14474
▁saludaron	-14475
▁sanguínea	-14476
▁similares	-14477
▁sombreros	-14478
▁sonriente	-14479
▁sorpresas	-14480
▁sospechar	-14481
▁sospechas	-14482
▁suspender	-14483
▁talentosa	-14484
▁telefoneó	-14485
▁telegrama	-14486
▁teléfonos	-14487
▁tendencia	-14488
▁testificó	-14489
▁tolerante	-14490
▁torturado	-14491
[...]
